#version: 0.2 - Trained by `huggingface/tokenizers`
Ġ Ġ
ĠĠ ĠĠ
ĠĠ Ġ
ĠĠĠĠ ĠĠĠ
Ġ "
s e
i n
e r
, <
r e
o n
a t
ĠĠĠĠ ĠĠĠĠ
o r
a r
Ġ t
e n
s t
a l
> <
a n
Ġ =
) <
l e
" :
" ,<
d e
: <
Ä ±
Ġ i
h e
Ġ (
a s
se l
ĠĠĠĠ ĠĠĠĠĠĠĠ
sel f
m e
Ġ c
t i
' ,
Ġ n
Ġ f
t e
) ,<
r a
in g
' :
Ġ re
Ġ( '
u r
p e
Ġ p
> '
r o
Ġ s
', ),<
Ġ o
d i
Ġt he
l i
Ġ a
m p
- -
Ġ in
) :<
Ġ '
c e
Ġ self
s i
Ġ e
u n
Ġ b
de f
Ġ w
t h
g e
l a
o l
. <
Ġ #
r i
c t
Å Ł
t ur
u e
m a
l o
" "
ti on
an d
tur n
ĠĠĠĠĠĠĠĠ ĠĠĠĠĠĠĠ
u l
t er
# #
Ġ def
se r
Ġi s
Ġi f
en t
a me
i l
u t
at e
t y
Ġ as
k e
Ġt o
Ġre turn
o t
Ã ¼
v e
ĠĠĠĠĠĠĠĠ ĠĠĠĠĠĠĠĠ
_ _
i s
Ġ d
c l
a d
v er
as s
c o
Ġ m
Ġf or
Ġo f
v al
Ġ 1
on e
Ġ T
u m
f i
a c
Ġ" ""
ra y
Ġ I
Ġ [
a b
' <
at i
ar ray
/ /
q u
-- --
or t
ser t
Ġ :
Ġ 0
. _
n e
si on
Ġt h
Ġ st
p p
Ġ N
` `
c h
Ä Ł
cl ass
i t
e d
Ġas sert
Ä± n
h a
Ġn p
ty pe
s p
Ġ and
Ã §
i d
Ġ u
Ġe x
ro m
al l
Ġ -
a k
Ġ _
## ##
c tion
Ġn ot
> >
o m
i z
] <
) )<
f or
Ġb e
ati on
a m
re s
r or
t s
p ar
Ġ se
o p
ge t
Ġc on
e st
n ame
i th
c i
mp ort
e s
val ue
e l
Ġ""" <
e x
a se
Ġ 2
o d
m ent
) ,
ar g
t a
Ã ¸
Ã ¶
t r
en d
l er
Ġ E
Ġ di
at a
Ġ S
Ġ *
Ġ or
Ġ A
Ġ r
S O
l en
6 3
ĠN one
u p
Ġ h
c on
y pe
at h
Ġ +
r ror
Ä± r
E rror
( )<
s a
" ,
st r
63 9
" <
ĠI SO
d er
ĠĠĠĠĠĠĠĠ ĠĠĠĠĠĠĠĠĠĠĠ
mp le
l ar
i se
t o
ul t
ab le
k a
0 0
qu al
c k
i le
in e
e ct
i g
te d
p ro
( "
Ġc o
m at
Ġ g
i r
Ġ x
Ġ C
l y
b u
] )<
Ġ P
Ġw ith
ce s
b j
e t
. .
Ġ= =
] ,
p er
Ġ de
Ġi mport
k en
l se
( [
u s
in t
Ġ F
Ġ y
Ġ ``
e qual
m o
Ġt est
R e
s k
// //
Ġ value
n t
i m
ver sion
r ue
Ġw h
d a
( '
ke y
M E
Ġth at
L I
f rom
ra ise
n ing
( <
er e
li st
Ġ an
ac k
u b
Ġp ro
N G
p re
or d
se t
arg s
p tion
Ġ 3
a g
d o
N A
v i
Ġ ma
Ġ me
f f
Ġ %
Ġe lse
Ġst r
Ġ >>
f o
Ġ>> >
al se
i st
N one
S H
) .
NA ME
#### ####
n p
se d
Ġt ype
s o
x t
h o
t ri
c he
th er
c al
st an
Ä± z
Ġ __
ĠE NG
LI SH
Ġ array
ĠENG LISH
ar t
Ä± k
Ġ l
b e
ĠT he
p y
v ar
en e
Ġ `
: `
ha pe
p o
u re
b o
di r
in d
a y
= =
bj ect
Ã ¥
Ġ on
Ġ al
Ġ lo
Ġf rom
p ath
__ (
Ġn ame
Ġ D
il l
p t
a ult
Ġp ar
Ġth is
er s
at or
for m
pe c
---- ----
Ġc l
Ä± ÅŁ
Ġ )<
Ä± m
" )<
Ġ un
th od
la b
p ut
Ġ at
> #
Ġ {
i c
te xt
un ction
Ġ M
n o
an ge
h t
Ġ raise
z e
a re
an s
Ġa re
Ġn e
( )
te st
un c
u st
Ä± l
Ġd o
ar y
stan ce
Ġre s
te m
Ġ k
ti l
a pp
co mp
d s
y e
de d
Ġ L
re e
pe ci
ex t
d u
par am
i p
' )<
Ġ Re
r y
Ġ <
ol y
Ġp o
] ,<
Ġ ..
Ġw e
Ġb y
Ġ @
m al
d ata
"" "<
Ġi t
st e
fi le
i li
Ġp re
Ġ en
Ġ list
Ġ B
Ġn o
y a
Ġd ata
Ġc an
i ÅŁ
c ol
m en
se s
f e
l an
d en
li b
u le
lo w
j o
ĠĠĠĠĠĠĠĠĠĠĠĠĠĠĠĠ ĠĠĠĠĠĠĠĠ
Ġse t
le ment
iz e
Ġ 4
s s
um n
Ġ V
u mp
g er
Ġ version
s ing
o k
Ġs u
b er
c a
Ġ O
f t
ĠT rue
p r
ĠĠĠĠ Ġ
//// ////
b a
q ue
te s
de x
in i
Ġf ile
h is
ate d
Ġ U
Ġc h
co de
Ġm at
Ġb o
ent s
un d
d type
ame ter
Ġo bject
Ġ len
Ġs o
Ġm o
Ġ' '<
Ġf unction
Ġo ut
i v
Ġw ill
Ġd type
Ä± y
al ue
de l
' ,<
Ġco mp
Ġo ther
and om
ra m
. __
Ġc ol
o ut
qu i
lo at
ĠF alse
ĠĠĠĠĠĠĠĠ ĠĠĠĠĠĠĠĠĠĠĠĠĠĠĠ
m in
en ce
l at
ct or
Ġ le
e c
k s
m an
s c
ce pt
ĠI f
T rue
Ã¼ r
Ġdef ault
m b
Ġ X
m as
i mport
Ġ W
Ġ* *
Ġ 5
he ck
se n
en er
Ġ get
f unc
cl u
s y
Ġ key
t ra
e k
ul d
peci fi
ump y
k w
re ad
Ġ v
in it
l in
ĠĠĠĠ ĠĠ
t t
val id
d ate
ces s
1 0
Ä± ÄŁ
alue Error
ti ve
th on
ĠT his
s u
. ,
x is
s hape
a mple
il d
li f
la ÅŁ
ar ning
Ġ- >
in fo
in stance
z er
per ty
k er
tri bu
Ġh as
m ar
he ad
le ase
i ch
ar get
k t
F alse
i me
Ġ --------
Ġto ken
re d
at tr
d an
li c
ri x
app end
Ġs y
e f
ti me
li ke
ur l
######## ########
= '
6 4
I n
er ror
Ġe lif
g i
k o
st ate
a v
b y
st ri
E R
Ġp r
= "
i k
[ '
ing s
p s
Ġo ption
Ġme thod
fi g
Ġin t
ne ction
ad d
a st
( ):<
o s
g g
b le
il er
Ġne w
f er
c lo
[ "
si ze
Ġ ro
lab el
re n
p i
m s
Ġwh ich
:` .
k on
in s
Ġu sed
w e
Ġu se
g Ã¶
que st
u k
up le
for mat
ul ti
[ :
Ġn um
C on
la g
tion s
var i
d ing
Ġsu pp
( (
j on
all y
pro perty
mo st
Ġs ho
== ==
w n
Ã¼ n
Ġ H
u se
Ġis instance
li k
i y
Ġ all
Ġres ult
a ce
Ġ >
il en
ĠĠĠĠĠĠĠĠĠĠĠĠĠĠĠĠ ĠĠĠĠĠĠĠĠĠĠĠĠĠĠĠĠ
Ġc heck
Ġo s
lar Ä±n
Ġvalue s
Ġcl ass
li t
jo in
ve l
ĠI n
an t
ar d
sp on
Ġ j
in ter
Ġt ry
le ÅŁ
R E
ati ve
u te
re t
b ack
Ġp ath
ameter s
T ag
od ule
ĠRe turn
p la
u til
to ken
) )
se nt
* *
di ct
' s
i f
Ġ la
sion s
u z
Ġex cept
ma y
Ġst ate
ul l
p h
Ġ arg
l l
ce ption
ri g
k ar
me thod
ĠĠĠĠĠĠĠĠ Ġ
pec ted
me s
Ġs hape
y thon
co m
Ġ G
u res
n d
} <
al most
al le
l t
r an
Ġ" <
or s
i el
at ch
u ÅŁ
' t
Ġsho uld
Ġ ha
l ine
ar n
Ġs ub
Ġ /
Ġwh en
. """<
st ra
Ġin ter
ation s
Ã¸ r
d d
i ter
ac h
Ġa pp
w ord
t able
un t
str u
um ent
Ġp oly
' ]
Ġ R
1 2
Ġ .
Ġstr ing
Ġex p
or k
pp er
an g
ar ch
n ot
b il
Ġi ter
_ (
clo se
iv en
s pec
ĠP ar
ĠĠĠĠĠĠĠĠ ĠĠ
ma x
par se
re g
de s
ta g
a ge
ar a
in dex
or m
Ġa c
c ur
al ect
Ã ¦
ig h
t Ä±r
Ġs pecifi
] )
Ġt ime
m y
u g
a ÄŁ
raise s
Ġr ange
w ith
in n
ff er
t ree
v ir
m Ä±ÅŁ
A T
s on
sa mple
Ġ+ =
ke t
do c
3 2
ro up
u y
m iÅŁ
m l
Ġ z
re ate
lab le
i tem
Ġn umpy
lo ad
e mp
Ġha ve
Ġo p
m and
ac he
n i
on g
ilen ame
- <
o bject
res sion
-- <
tribu te
at ures
r andom
g ram
Ġma x
re nt
v a
ĠS e
re f
fi x
Ġo per
sa ge
m it
d Ä±r
s ub
s or
fi t
e p
re ct
le ct
g r
q l
Ġ 6
ne w
Ġbo ol
" ]
ĠĠĠĠĠĠĠĠĠĠĠĠĠĠĠĠ ĠĠĠĠĠĠĠĠĠĠĠ
ta in
tr y
ti al
kw args
d Ã¼
Ġa xis
le ction
ti r
ĠV alueError
he t
mb da
b ase
g th
l as
9 9
at ure
Ġin put
op en
p oly
k al
lo g
li g
Ġg iven
rig ht
! =
m er
ve d
Ġpr int
O N
ka ge
([ [
Ġ( <
str ing
la y
p ha
f loat
er sion
Ġsupp ort
ur ce
e w
b in
d Ä±
Ġs p
0 1
si g
t ing
in al
' d
ke d
at s
Ġ \
Ġnum ber
ra me
ig n
: :<
c ation
sp lit
co re
e v
` <
//////// ////////
Ġon ly
k i
Ġp ass
Ġan y
a p
m Ã¼
k le
Ġt ext
L E
lo ck
Ġ one
Ġ1 0
Ġ error
Ġm ust
spon se
Ġd at
ri te
Ġi tem
Ġ !=
Ġ ----
' )
ere lease
er i
Ġf loat
Ġ K
T ype
` .<
n um
type s
are nt
Ġ-------- --<
sc ri
e m
Ġcol umn
b i
A R
g Ã¼
Ġst art
E x
: :
or y
b s
s in
: //
k ler
S T
a f
j Ã¸
h i
Ġor der
Ġt uple
Ġc om
ul ts
O R
Ġ[ ]<
o re
che ck
Ġlo g
S S
i ty
ac kage
om i
lement s
c or
o g
Ä±m Ä±z
iel d
r ans
Ġb ack
Ġc ase
Ġc ur
pla ce
Ġb ut
tr ans
util s
u al
y n
ce ÄŁ
Ġt ra
Ġb ase
d ge
Ġl ine
Ġc or
ĠE x
ka p
lat form
] .
Ġw ord
sample s
f a
00 0
def ault
o bj
Ä±ÄŁ Ä±n
t an
in ts
ter n
o mp
Ġoption al
g a
b ar
I N
fo re
res s
ul ar
ĠReturn s
l Ä±k
Ġf e
ti ty
k ur
par ser
cal ar
Ġ end
me t
c ate
Ġsy s
c an
il ter
ma in
Ġo ver
as sert
Ġp y
sp ace
di st
ĠN o
" .
t arget
ir st
v en
or mal
Ġu sing
o und
b ili
l ing
( ),
im iz
Ġe ach
Ġcon t
Ġex clu
all close
Ġmat rix
b r
Ġb u
Ġ[ '
l u
erelease s
col umn
stru ct
t en
k k
an ce
] ])<
ol d
vir on
he l
qui re
[ -
Ġu p
che ma
h as
Ġt ag
di m
Ġout put
Ġmat ch
Ġ vari
ste m
op y
o f
Ġ.. .
Ġg ener
Ġn d
ample s
Ġc all
Ġin dex
Q L
p us
ĠPar ameters
ĠSe e
ex p
Ġm in
ti m
di ÄŁ
ĠP ython
ĠT est
ctor y
Ġ ar
l Ã¸
i x
S t
1 1
Ä± s
c s
V alueError
Ġ head
co unt
ab ili
ro w
v o
h and
> @
Ã¶ z
pe d
c y
( ))<
ma p
mat rix
ig ht
n s
fe atures
zer o
o u
d f
op tions
l and
mo ve
Ġcon fig
l Ã¼
Ġ 8
Ġf irst
zer os
omi al
o ther
Ġex pected
Ã¶ r
" )
o pp
ler in
un i
g ra
Ġal low
mple x
t ol
ra p
cl s
P ro
Ġ J
Ġr andom
en se
up date
Ġdi ct
S E
b al
Ġm odule
o ver
or ted
y le
Ġdo es
k an
Ġnd array
Ġth en
Ã¦ r
2 0
stri bu
ment s
en g
Ġ-------- <
da y
Ġ ver
p ack
Ġl in
Ġ 7
re am
me th
i mat
qu ence
n umpy
": <
st art
Ġun i
Ġre quest
Ġcon nection
Ġ val
a ÅŁ
arning s
ex ec
iz ed
s al
Ġf a
l ate
Ġ label
Ġ( "
a z
pro cess
ol s
or der
Ġp er
Ġt able
it s
p ri
le t
s h
di sp
g roup
y Ã¼
s m
i e
Ġse nt
ba ÅŁ
E N
w rite
ne t
Ġdo c
as ses
Ġs ame
ma d
Ġ vi
value s
n er
Ġfor mat
f y
iz er
V ersion
s g
Ġexclu sions
er y
re turn
Ġin stance
Ġa d
co ding
( _
w o
Ġ |
) .<
Ġs ize
Ġm ulti
ad ata
Ġma y
ĠF or
si z
i mp
or g
n y
o us
P ar
ne d
Ġn on
Ġre ad
1 6
i es
as jon
Ġcon text
g or
n omial
m ulti
a xis
t al
2 5
k Ã¼
con text
ed ge
ĠC on
in f
Ġe dge
in ed
j e
p end
Ġ qu
-- -<
st all
Ġin di
u th
Ġmo re
re c
Ġno de
m u
o se
co py
n an
( ).
t Ä±
er r
tribu tes
um ents
me k
v ent
Ġwh ere
ind en
mar k
Ġe st
Ġk w
Ġh o
Ġs up
Ġin clu
Ġal so
me d
Ġdi st
r c
n g
Ġ url
Ġt arget
Ġh tt
t ak
################ ################
f unction
Ġ valid
s um
ac ak
si tion
ad ded
at us
T o
alle d
e y
con fig
name s
ma k
Ġin te
Ġma ke
s ol
y on
m i
W arning
Ġ 9
cal e
ci py
==== ====
`` .<
x y
Ġo bj
g en
li ÄŁ
Ä±n Ä±z
( *
te mp
w er
d t
Ġla mbda
h er
ara ct
m on
I T
n on
o ff
as k
D E
d ot
en ces
D i
op er
y p
h an
mas k
Ġco de
Ġf unc
s an
Ġse e
ol umn
ma z
che my
st er
Ġ q
Ġat tribute
Ġ---- ---<
p op
o le
Ġu ser
" ):<
p en
in iz
lt k
di tion
Ġ args
Ġoper ator
M A
Ġcur rent
i de
Ġy ield
g t
ci sion
la use
Ġi mple
n a
SS L
t Ã¼
Ġ[ <
Ã¶ n
lag s
Ġstate ment
S et
s v
t op
g re
ser ver
c le
T he
s pe
an y
ar ange
ption al
C h
Ġpar ameter
l d
Ġw as
i te
g ener
c re
me ye
T T
g u
Ġex tra
Ġm sg
in put
me m
Ã§ e
ab ase
p ol
w ise
Ã¸ y
Ġcl s
men ted
le vel
Ġre l
1 5
sp ar
Ġre pre
= [
m odule
j en
Ġth an
3 3
Ġcon tain
re ctory
ati c
y or
f ilename
in in
Ġu til
mat ch
Ġin to
in di
Ġc al
Ġpro vi
1 4
ri d
on ents
Ġe lement
stra int
w arn
a ir
u tion
' ),
~ ~
-------- --------
Ġa dd
lar Ä±
Ġdi alect
con d
Ä± t
ar be
in de
" ]<
un k
Ġro w
out put
y ar
Ġt rans
] ))<
Ġ[ "
f ter
Ġb in
Ġobject s
s am
h en
ac aÄŁ
Ġi d
al a
Ġpo s
ak i
Ġname s
w ork
e lement
ms g
u ser
no re
k r
Ġpoly nomial
' ]<
n al
Ä±n Ä±
id s
Ġf ilename
Ġarray s
id th
C T
d at
res ult
Ġne ed
ce k
Ġ[ [
Ġt wo
) ))<
ka y
c Ä±
Ġc opy
si t
fi er
( -
me di
imat or
TT P
Ġi ts
P I
el l
' ),<
3 4
' :<
Ä± la
de v
od y
[: ,
lo t
peci al
du ce
o c
ge x
ad er
Ã§ Ä±k
Ġarg ument
c all
ĠA l
disp atch
Ġpro cess
re l
ro ot
y ak
ĠS QL
F F
d b
`` ,
form ation
k at
Ġlen gth
L T
re q
ri m
h at
> """<
bu g
de t
re pr
P E
Ġsup er
j er
gg ing
Ġs pec
00 00
ti es
Ġpy test
Ġh and
Ä±y or
t on
m ath
d ur
Ġvari able
ne ct
R O
b ul
b an
' ):<
param s
c ache
Ġreturn ed
fi r
m t
con nection
Ġso me
C K
item s
Ġr un
A r
s ql
Ġre sponse
Ġy ou
_ ,
v an
bo se
Ġs h
le m
Ġ< =
t ar
Ġdi stribu
Ġun der
di alect
Ġex ec
l Ä±
mo del
comp ile
Ġe vent
p le
Ġi g
po s
Ã¼r Ã¼
spec tive
key s
Ġf ound
Ġdat abase
Ġcon ver
s l
ĠĠĠĠĠĠĠĠ ĠĠĠĠ
gÃ¶ r
Ġt ree
e g
ction ary
f rame
Ä±n a
ne l
igh ts
ler i
`` <
} )<
pecifi er
C O
h s
Ġ right
Ġs ing
ve ctor
ch ar
s ak
Ã§ ek
a ke
Ġro ot
su pp
ut able
w w
ut f
po st
` ,
spar se
b ind
c at
A L
] :<
Ġ> =
in do
py thon
a ct
at tern
low er
qui res
in ce
c ted
Ġw arnings
Ġs cipy
lic it
ut o
w a
Ġkw args
ig inal
ste ad
i ve
le d
U N
indo w
.. .
re ak
C omp
Ġco ef
so urce
q r
len gth
Ġmo del
le te
Ġarg uments
Ġex ist
at er
ĠN ot
mal ar
al ar
as si
5 0
Ġw ork
c ated
Ġwh ile
o ur
Ġme s
pp ing
Ġp ackage
Ġex ception
un ds
back end
Ġt emp
ac y
viron ment
Ġversion added
b it
s j
k ke
py test
To ken
ra w
Ġin fo
t he
ta ins
ate s
C H
y en
ti ri
ĠĠĠĠĠĠĠĠĠĠĠĠĠĠĠĠ ĠĠĠĠĠ
in sert
ht ml
R L
m od
Ġ like
k om
Ġh ere
Ġ{ <
Ġmes sage
Ġ( )
] [
Ġ Y
Ġspecifi ed
T H
Ġfile s
s chema
ht t
ĠĠĠĠĠĠĠĠ ĠĠĠĠĠ
h al
no wn
1 7
m is
p arent
a ults
b Ã¼
Ġi mp
ĠĠĠĠĠĠĠĠĠĠĠĠĠĠĠĠĠĠĠĠĠĠĠĠ ĠĠĠĠ
si st
Ġp i
ĠP ro
ĠT ype
1 3
bo ol
Ġoption s
te t
te k
Ġfe ature
ti c
i tial
jo bs
com mand
I ON
di rect
R A
ar r
Ġin stead
Ġcol lection
ag er
Ġpr ereleases
t re
] *
a ve
b ile
ver se
Ġp arent
ame tri
r Ã¥
Ġme m
Ġst ats
ra g
h y
ex pected
9 0
U n
si tive
b ak
Ġp latform
me z
fi ci
r un
Ġget attr
Ġhas attr
N o
laÅŁ tÄ±r
ya p
n orm
Ġs ol
bu ild
Ġdi ffer
en cy
k ul
' ))<
comp onents
ĠEx amples
ro l
ĠW e
I mple
ab il
alle l
Ġle ft
8 6
var s
Ġstart Tag
Ġs calar
st ack
si de
ub le
:` _
al i
il s
len e
P o
de ÄŁ
l ass
e q
Ġbe t
Ġf ol
ar ts
f un
ĠO ptional
r on
ar k
ff t
ge Ã§
Ġ[ -
2 4
Ġd t
Ġlo ad
Ġs ample
Ġse quence
ĠD e
b el
Ġc reate
Re turn
lib r
k j
s Ã¼
Ġa ct
L O
} ,<
Ġn ltk
f n
ro p
Ã¥ r
? <
Ġs ql
en ti
y an
al g
ca st
A l
Ġch ild
w h
B ase
trans form
j son
se lect
r and
d in
re place
er t
ĠĠĠĠĠĠĠĠĠĠĠĠĠĠĠĠ ĠĠĠĠ
ning s
x es
Ġre g
m d
re quest
f ilter
Ġpar se
ametri ze
Ġd ate
si ble
ĠC heck
Ġw he
E lements
le g
i lable
aract ers
Ġback end
f ull
ra k
] ),
' .
im um
v s
] ]<
cl asses
ck le
Ġrepre sent
b et
vi ew
t ut
fi ed
b en
Ġop en
head er
arbe id
y r
Ġex c
Ġ' <
ĠĠĠĠĠĠĠĠĠĠĠĠĠĠĠĠĠĠĠĠĠĠĠĠ Ġ
b as
Ä±n Ä±n
Ġin formation
Ġ ]<
po int
Ġpar am
sk ip
s core
Ġ li
cur rent
par ametrize
on ly
gor ith
Ġcl f
mp ty
c reate
ate g
me an
Ġre fer
n dim
ct x
Ġpar ameters
op t
k or
u ct
Ġth ere
à ¦
Ġat tributes
di g
c li
men sion
> _
le s
le ft
Ġtype s
un der
Ä±y la
6 7
Ġsing le
y i
Ġexp ression
ing er
j ect
pre cated
as sed
Ġtra in
stri p
val u
ug h
Ġfunction s
L A
Ġ hel
pr ereleases
eng ine
Ġ" \
me si
># <
2 7
v as
Ġa fter
T able
sig n
= (
Ġimple ment
dÃ¼ ÅŁ
E qual
ĠI t
1 8
le ss
ct ype
Ġmo de
Ã¼ ÅŁ
Ġsu ch
li ed
u ÄŁ
to ols
se arch
) ]<
p ackage
Ġla st
) ):<
c ket
3 0
ba ÄŁ
AT E
T E
pe ct
Ġu reg
Imple mented
Ġ{ }<
c ri
Ġb reak
Ġreturn s
St ate
' ],
g in
ing en
Ġ err
s calar
n ormal
la mbda
Ġdi ctionary
Ġcont in
res hape
co mplex
u x
mple te
Ä±l Ä±k
Ex ception
f ol
Ã§ al
Ġ server
emp ty
ter m
f ri
Ġp assed
quire ment
Ġsupport s
Ġ{ "
Ġr ule
Ġ{ '
N ame
Ġc lo
Ġc re
a h
ĠD ef
} ,
wa it
A D
ĠĠĠĠĠĠĠĠĠĠĠĠĠĠĠĠ ĠĠĠĠĠĠĠĠĠĠĠĠĠĠĠ
Ġhead er
k u
b lock
we en
Ġre lease
Ġre c
ĠAl so
Ġbe fore
che b
p l
//////////////// ////////////////
Ġf ind
y di
ĠType Error
Ġcal lable
Ġdi sp
va ilable
m or
Ġbu ild
v id
st ream
m il
Ġch ange
scri ption
sa v
lo c
ay s
Ġc alled
ĠU n
D e
ĠU RL
comp iler
is k
Ġver bose
con t
\ <
lo bal
ĠNot Implemented
Ġcom mand
Ġt gt
one s
la st
ge d
Ġst ri
2 2
Ġc ache
no de
e ff
Ġs parse
p latform
z en
ci mal
f lags
li ce
and ard
tra in
Ġat tr
Ġpo ints
5 5
h ar
7 7
ma m
T est
Ġme t
gorith m
Ġf it
ĠĠĠĠĠĠĠĠĠĠĠĠĠĠĠĠ ĠĠ
pre fix
Ġtoken s
Ġ\ <
ĠC omp
Di ct
ge l
Ġre t
1 00
st ats
ction s
indi ces
Ġ' %
Ġdi rectory
1 9
Ġe lements
ĠĠĠĠĠĠĠĠĠĠĠĠĠĠĠĠ Ġ
Ġbet ween
Ġ --
di ri
Ġen coding
nd array
i cal
ĠA n
Ä±ÄŁ Ä±
Ġde pend
in st
di date
Ġs ign
r u
Ġpre fix
ya z
ĠĠĠĠĠĠĠĠ ĠĠĠĠĠĠ
8 0
k Ä±r
k Ã¶
al chemy
we ight
Ġa bo
en code
i mple
Ġw or
tr ing
Ġf ilter
s Ã¶
Ġr tol
o ÄŁ
Ġin itial
pr int
mes sage
by tes
s n
Ġ ):<
scri pt
ing ene
Ġpro spective
g n
lo cal
Ġ" .
fir st
ca use
M L
Ġ" %
Ġi den
ĠĠĠĠĠĠĠĠĠĠĠĠĠĠĠĠĠĠĠĠĠĠĠĠ ĠĠ
Ġhtt p
re spon
ĠS t
che me
ho st
Ġpo ol
Ġthe y
Ġpro b
v is
ĠT o
S e
de code
Ġbe en
Ġe qual
Ġdistribu tion
D O
Ġj ust
] ]
Ġb lock
Ġn ormal
fi el
op tion
i er
k ol
Ġe mpty
sa y
Ġa vailable
exec ute
Ġw ant
Ġ1 2
en tity
Ġal pha
Ġ zero
af ter
f et
dir s
word s
6 6
assert Equal
um ber
lin k
a ise
o te
Ġex ample
L o
ase t
ar i
Ġso urce
me li
read y
Ġ ent
re p
Con nection
Ġz ip
B A
" ),<
I NG
b ot
Ġar r
ex c
w ard
tri c
sy s
ble m
d Ã¶
Ġfol low
re gex
\ \
Ġmet adata
Ġstr uct
Ġ &
Ġf ull
lic ation
Ġp art
Ġo ld
c ul
Ġb ind
Ġ0 00
ce kler
al t
Ġig nore
b re
Ġre f
Ġcontin ue
al pha
se k
"" "
Ġ )
Ġthe m
ĠA t
Ġ ,
ing a
to col
ca pe
me l
b es
k l
ĠNo te
Ġof f
ter min
st atus
t uple
htt p
E S
ĠC olumn
Ġinte ger
f ul
A U
h ip
ha se
ut ure
se v
^ ^
gra ph
Ã§ i
si s
ok ie
and Ä±r
bu ffer
Ġm an
st arts
ÅŁ e
o uld
i i
Ġwith in
ta ÅŁ
4 4
ith er
Ġhead ers
( ?
ra di
Ġf n
y et
Ġ var
ĠV ersion
clo sed
Ġlo cal
pro du
y ay
O S
Ġle vel
ati ble
y at
Ġo ur
k ip
al an
qr t
Ġde l
file s
ĠĠĠĠĠĠĠĠĠĠĠĠĠĠĠĠ ĠĠĠĠĠĠ
__ <
ist er
gi str
c u
Ġre mo
h old
re sponse
Ġt yp
qui val
f ind
E L
P Y
u ted
Ġg ram
iz ation
M e
ast ype
Y PE
state ment
ma kt
a uto
si l
re ve
r ange
ac tion
re k
mo de
qui red
clu de
Ġat ol
N O
in te
di s
ss l
Ġhtt ps
ya ÅŁ
iv ative
Ġun it
Ġor iginal
bo x
ver t
Ġres ults
Ġre move
si an
Ġ' .
la m
k Ä±
er ic
ile d
ma ke
D ata
F or
Ġ" -
( {
id x
Ã¶ l
ext ra
th ing
tim ize
ab s
en ter
f ace
Ġ2 0
Ġcor respon
Ġcon struct
ex ception
Ġch art
tr ue
re al
w idth
E lement
Ġinclu de
ter i
Ġ2 00
Ġ Z
ust er
starts with
L ist
comp are
" ),
Ġse lect
T ree
8 8
new doc
\ .
p ort
Ar ray
L S
Ġma p
re lease
Ã ©
Ġg roup
h ol
k ab
ator s
, )<
Ġpro du
Ġa wait
Ġ1 00
ka z
Ġc he
ĠĠĠĠĠĠĠĠĠĠĠĠĠĠĠĠĠĠĠĠĠĠĠĠ ĠĠĠĠĠ
s Ã¸
v ents
di k
ti re
quival ent
Ġc li
d aki
Ġmethod s
co un
Ġset up
tag s
fo o
head ers
z ip
ma pper
f ra
] +
a mp
b at
se m
Ġse s
. ")<
Ġpar ser
p ts
p lan
Ġt er
Ġp ip
e gg
h ist
Ġa b
Ä±n dan
a Ã§
s at
Ġby tes
Ġc a
ne g
E n
k jÃ¸
Ġsent ence
b ro
ti g
w rap
en de
Ġs cale
X T
Ġprovi ded
ini te
se ed
p lot
Ġcomp iler
le k
) :
has h
Ġpo int
P y
do ÄŁ
7 5
ins um
ri es
wn load
Ġal ready
Ġst ack
v ing
u d
bili r
column s
Ġ vector
ch ange
V ER
che s
Ġbo th
N T
f on
lar Ä±mÄ±z
C om
kle arn
ra pper
. "<
k n
b ut
la d
qu ery
f re
) [
mek te
Ġm ask
Ġd on
Ġitem s
Ġn orm
y as
:` ~
Ġedge s
Ġwhe ther
Ġs pecial
f in
Ġf rame
C olumn
con nect
ma mÄ±ÅŁ
at ing
k un
Ġbe cause
s ure
so ci
lin es
Ġs klearn
I D
8 9
m ul
re ne
or pus
co ef
Q u
Ġdate time
Ġst atus
Ġco mplex
open Elements
Ġmo di
b est
Ġlabel s
Ġd er
Ġspecifi er
Ġindi ces
s Ä±z
{ }
Ã¼ l
S QL
Ġwe ights
ab c
th read
Ġst ream
sk ri
ĠNo tes
t or
at ur
m me
un uz
pro b
n der
s ho
s Ä±n
an ti
w ays
" ))<
stra ct
li m
I G
Ġco unt
li r
t ml
vi ous
ke ep
de ki
Ġuni code
ol ve
' ])<
Ġcolumn s
c ak
ac tive
s ar
Ã¥ l
Ã¼ z
Ġdiffer ent
id get
de bug
ust om
I O
ka v
si red
ken e
val s
ad Ä±r
vari ance
2 3
Ġses sion
Ġn ext
A B
d r
gistr y
may acaÄŁ
A S
b l
Ġword s
Ġc ast
Ġend Tag
Ġg o
ces sing
Ġfe atures
Ġw rap
Ġa bs
re move
ĠH TTP
0 6
Ġs um
Ġvi ew
met adata
lar ge
qu are
Ġapp ro
Ġto tal
iel ds
Ġiter able
t te
r type
as array
rect ly
si ve
Ġhas h
Ä± dÄ±r
Ġin d
y er
Ġthe se
Ġcl asses
Ġsy n
un ct
A t
en sion
ĠĠĠĠĠĠĠĠĠĠĠĠĠĠĠĠ ĠĠĠĠĠĠĠĠĠĠĠĠĠĠĠĠĠĠĠ
iy or
ev ent
ĠS et
l uk
per s
reve al
Ã¼ m
leÅŁ tir
il t
Ġ---- -<
ole an
t mp
iy le
may acak
Ġt ol
s ue
he s
b ir
in stall
par ti
Ġdef ined
Ġs chema
t Ã¼r
Ġme ans
an lar
do ut
Ġkey s
Ġw ould
H e
Ġbe ha
Ġmulti ple
Ġal gorithm
Ġse ction
Ġ{ }
la p
ab ile
p are
Ã§ Ä±
ch o
bin ary
ch ild
Ġt rue
v in
Ġwith out
ext end
Ġ LI
abili ty
- >
ure g
ro ll
5 4
sy n
rec ord
Ġbin ary
on al
l ong
s rc
i h
bili ty
Ġse arch
Ġ( ?
libr ary
Ã¶ ÄŁ
ter al
Ġma pper
sa fe
Al chemy
du y
Ġt r
larÄ±n Ä±
if y
Ġr v
Ġerror s
Ġgram mar
Ġallow ed
Re quest
le me
Ġk ind
er ce
de pend
U ni
re quires
vo id
F ile
Ġbo und
Ġcoef fici
Type Error
le ye
) (
s ha
Ġs ig
pre cation
C o
Ġdi s
Ġs a
r ule
A N
E M
e insum
ler e
ar ator
Ġup date
Ġs amples
Ġch ar
ha z
Ġpre cision
ke l
def ined
pre d
as on
2 1
p at
s un
Ġcon tains
f il
= {
Ġp ython
y Ã¶
ro und
k g
Ġe quivalent
ĠA r
Ġf lag
Ġbase d
v ur
Ġen vironment
2 9
s ort
leÅŁ tiri
s cale
e di
ang u
h j
di v
iy et
p a
Ġe ither
jo b
sy stem
ĠD ist
ĠL o
stan ces
token izer
T O
y al
angu age
ĠW hen
M o
d y
mport Error
ateg y
u Ã§
ĠU ni
de p
di ag
k re
). __
Ġpar sed
tr an
; <
Ġmem ory
i Ã§
Ġde sired
Ġm is
un n
Ġfa il
di stribu
po ol
s f
c er
ks jon
Con text
con ds
) ),
ve c
Ġexp licit
mb ol
Par ser
ĠL ist
> )<
d ri
Ġest imator
Ġp attern
d om
Ġpre sent
Ġc t
~~ ~~
se ts
Ġs kip
SO N
L L
Ġf ield
] ],
Ġde precated
p pe
ĠT ree
Ġde cor
der ed
ta ils
col lection
si te
0 4
ti k
am ma
Ġ' \
test ing
H TTP
sen ts
Ġre quired
( ),<
du mp
Ġfor m
ĠU se
T ML
ĠP y
e ÄŁ
ti tem
k ir
c ase
Ġp air
igh b
inter nal
ort ran
Ġle ast
l us
Ġa ga
Ġa ut
en coding
Ġother wise
ĠSQL Alchemy
8 4
Ġsupp orted
ic ro
Ġbo unds
in valid
ol o
Ġuni que
Ġpo sition
end s
Ġbeha vi
Ġst ep
exp ression
ti fi
ex ist
Ġstr ings
ver y
F AU
stan t
In valid
at t
lo cation
se g
eg acy
do uble
FAU LT
s le
Ġre place
i o
E D
Ġbe ing
2 6
Ġt ake
co ded
Ġ }<
ver age
t z
ro ss
pre dict
ri al
Ġdi r
k it
st d
ar ies
p air
` .
land Ä±r
ka Ã§
_ <
ĠP o
ge ts
term ine
change d
lic ense
c lause
_ .
line ar
Ġin stall
Ġse cond
m id
t ot
se ne
5 9
ww w
eff s
da g
w arnings
Ġen um
co der
kar ÅŁ
r Ã¸
ic ally
P A
Ġu ses
re v
en viron
Ä±n da
t le
x x
s ka
gÃ¶ z
Ġpos sible
Ġf in
Ch aracters
pre ter
Ġre try
Ġinte gr
se e
si ty
as ked
wh ere
Ġex ten
Ġin valid
ro ugh
uni code
__ ,
g res
t om
Ġsy stem
Ġsp lit
ci i
ations hip
h Ã¸
sp ro
Ġsql alchemy
di re
F I
x i
Ġo c
s ke
Ġcan not
te le
lin space
Ġact ual
stra ints
Ġ# :
Ġdat aset
Ġ arch
" \
e ded
ma c
token s
j ac
im ate
Ġw idth
ur ces
Ġdoc ument
h us
class method
c Ã¼
ore ign
i ce
Ġw ell
Ġs orted
K ey
Ġf ill
p ression
n in
array s
Ġcontain ing
Ġlo gging
peci fy
Ġa xes
b ay
sed Version
ĠI mportError
dition al
a ded
s Ã¼r
ĠO n
. ",<
Ġre al
lib c
Ġqu ery
supp ort
ba pi
ĠI N
t ab
b ed
me diÄŁ
g jen
ĠD i
ri bu
Ġlog ger
b c
_ )<
j or
st ore
method s
Ġimplement ation
re fer
Ġe valu
ste p
H and
Ġdoes n
d Ã¶n
as yon
ri s
p an
`` .
Ġfollow ing
C orpus
ĠNotImplemented Error
f at
Ġme an
0 3
b ody
ure d
sa ÄŁ
ci es
S pecifier
Ä±r la
ar is
sk y
func s
Ġth read
Ġh ist
e val
br u
hand le
ĠĠĠĠĠĠĠĠĠĠĠĠĠĠĠĠĠĠĠĠĠĠĠĠ ĠĠĠĠĠĠ
p ass
pen SSL
k ing
D ist
Ġpo st
lin alg
ler imiz
([ -
z i
co res
o urce
Ġde sc
ect or
de lete
' ).
U M
cor pus
kt en
ĠT O
t u
lig het
Ġ" ,
ini tion
k am
D ef
Ġj son
. *
iz le
8 7
o w
U T
Ġparam s
s qrt
Ġde cimal
[: -
si k
ĠI ter
al low
Ġremo ved
es sion
tain er
: -
b lo
Ġcorrespon ding
Ġre q
s Ä±
Ġ large
f Ã¸
f ly
T ime
in es
ĠDef ault
ma il
Ġoc cur
Ä±y dÄ±
po sition
an tity
abili r
======== ========
k ri
Ġt re
] ).
C E
ĠK ey
ur ation
p attern
st ed
= -
o y
ĠC opy
se y
Ġtra ce
) *
d Ä±k
as i
t Ä±k
er ate
la k
stru ctor
indow s
en s
ĠC o
Ġr ng
re quire
Ġm any
o me
aract er
il der
Ġversion s
ok up
Ġs ure
off set
C an
f el
st il
In ter
Ġne g
cri pt
Ġm u
Ġtest s
Ġex t
Ġ' _
set up
5 6
k as
uth or
s q
le gg
di cate
Ġre tri
co mplete
E T
Ġw rite
co effs
__ )<
Ġlo wer
inn er
Ġpre vious
f ill
b ur
ma mas
U R
u int
ng ine
Ġal ways
Ġspecifi c
ĠB ase
c cess
Ġkey word
ĠA ny
g ar
Ġe ig
aris on
ĠS pecifier
j a
Ġ1 1
o o
r ing
l work
T arget
mor ph
en v
Ġpi ckle
cat en
Ġ[ (
m ary
parse Error
d ene
S p
Ġp la
der r
st Ã¸
ord u
f g
Ġdi mension
) ])<
Po ol
de m
tribute Error
" ).
ribu tion
def aults
" ])<
h Ã¥
Ġf ields
Ġvalid ate
par ameters
N ot
Ġbehavi or
ve t
fe ature
rim ary
an k
ke s
e ps
Ġst op
s pecial
end er
, ),
f ot
date time
par t
T his
V ector
el er
for sk
n n
Ġas su
Hand ler
Ġcon straint
tra ce
g Ã¼n
de k
Ġlin es
Ġh igh
ĠĠĠĠĠĠĠĠĠĠĠĠĠĠĠĠĠĠĠĠĠĠĠĠĠĠĠĠĠĠĠĠ ĠĠ
d ar
ta y
g j
able d
ĠM y
Ġcor pus
Ġac cept
Ġpro xy
del ta
Ġrec ord
w ar
Ġ join
0 7
p df
C ase
las si
ol ute
S ER
Ġpro p
> ################################
Ġc lause
Ġcase s
Ġ ),<
Ġ" "<
c ent
Ġ( (
Ġapp ly
Ġ raw
hi ft
s pecifi
Ġde scription
im ize
Ġwh at
ro zen
spec s
ec tive
Ġde tails
s Ä±k
Ġrefer ence
f li
an a
meye ceÄŁ
po ints
, )
Ġt ri
Ġtime out
Ġpo sitive
9 7
Ġre direct
U ser
m m
l Ã¥
al so
ur ity
uni que
ok s
z a
ati bility
sp a
Ġt mp
k in
3 7
s jon
ler den
Ġmo st
si m
Ä±ÄŁÄ±n Ä±
he ts
z y
g o
O per
edge s
by g
lar a
ad cast
on ical
Ġoff set
at tribute
che d
S ION
Ġh tml
Ġcollection s
f p
Ġtag s
men sions
Ġl b
v it
bile ceÄŁ
Ġrepresent ation
([ <
u f
ĠO r
12 34
Ġen sure
Ã§al Ä±ÅŁ
t as
lar dÄ±
di l
w in
en cies
c md
u ally
tot al
f Ã¸r
o gram
Ġraise d
Ġoper ation
Ġp lt
Ġre ason
me y
0 2
n Ä±n
t ings
Ġal ong
ighb ors
re duce
5 7
t xt
Ġs ide
H E
im il
Ġno w
st at
ro t
u sed
Ä±ÄŁ Ä±mÄ±z
di mension
d ol
me miÅŁ
u ter
E nd
Ġe s
se ction
Ġvi a
ab i
tr as
Ġtrain ing
precation Warning
Ġ ._
3 6
m un
p Ã¥
Ġas soci
oper ator
ma g
li mit
us sian
ge st
Ġtrans form
Ġs ince
c um
lan g
Ġs ort
Ġcre ated
in k
Ġ keep
Ġst andard
in clude
sig ned
= _
pre cision
Ġenum erate
Ġcon n
ix in
For mat
Ġpath s
it u
cl assi
Ġd en
ati o
IN T
Ġto p
cl f
ve s
n or
Ġlo cation
f inite
> __
yÃ¼ k
len dir
LE CT
Ġexist ing
ti ÅŁ
Ġfile ids
Ġm y
ati st
Ġad ded
ĠCopy right
ra vel
ĠEx ception
k nown
egacy Version
imil ar
C ON
Ġw arning
Ex pression
>################################ ################################
ĠB y
Ġse g
me ler
Ġre main
M app
sin iz
Ġhand le
c p
gram mar
ma ge
ses sion
ĠĠĠĠĠĠĠĠĠĠĠĠĠĠĠĠĠĠĠĠĠĠĠĠĠĠĠĠĠĠĠĠ Ġ
Ġre pr
C A
ĠC h
2 00
Ġs sl
Ġmis sing
b or
Ġp rimary
Ġs pecify
ign ment
spe ct
Ġent ry
Ġse par
da ÄŁ
Ġabs olute
we ights
or ary
ur ing
ce l
Ġpar ts
re direct
st ill
deÄŁ iÅŁ
f lat
Ġre source
Ġgener ated
ch art
lo v
Ġcoeffici ents
np ut
ic ense
Ġc ho
ra ph
E P
label s
T rans
S tring
a x
Ġal i
i ke
is h
an e
Ġ" _
B ack
so y
ay d
er nel
po li
Ġde p
a u
Ä± ra
len diri
D L
f ar
Ġthe ir
R I
o red
con straint
Ġaga inst
ra f
k Ä±z
Ġsee also
di ms
Ġb ro
be lir
Ġdi ag
te l
Ġma in
comp atible
sist ent
st or
Ġgener ate
A s
re te
ub lic
le v
Ġcl assi
) ``
} )
m all
com mit
Con t
Ġapp lication
o yn
ĠRe fer
dispatch er
a pi
k ind
D is
d st
Ġb as
Ġlo c
OR M
Ġf ix
Ã¼ k
ĠAt tributeError
kon uÅŁ
de le
Ġd ot
ac Ä±
O T
ĠM e
Ġdo main
Ġm ath
non zero
pe t
DE FAULT
Ġcont ent
Ġder ivative
N umber
" ],<
kul lan
om atic
so ft
da p
B u
: ]<
ro s
ĠL icense
se quence
l p
sp ort
D I
n ltk
Ã§ aÄŁ
Ġre quire
al y
ter s
u la
Ġche b
de g
tic ular
s lice
pha se
D o
Ġsub class
ctype s
f fix
> ..
al ity
Ä±ÄŁ Ä±m
st y
ti v
ex cept
Ġabo ut
se p
ĠA s
f low
te x
Ġdi rectly
99 99
Ġ he
min us
ĠA S
Ġc le
Ġf inal
] ),<
sho w
Ġcur sor
Pro xy
Ġdist utils
al e
un its
CH E
R aise
vari able
ha y
Ġth rough
Ġlin k
ho ved
fiel ds
es cape
bo und
st op
li teral
pha ses
T ext
Ġstruct ure
' ":
P re
u ff
Ġli mit
' re
V i
Ġ1 5
Ġclo se
A G
No de
' ],<
Ġs cheme
y um
ol ation
ne xt
Ġ ])<
Ġ1 6
li p
Ġsho w
P ython
larÄ±n a
Ġper form
Ġh y
P hase
d m
larÄ±n Ä±n
token ize
ends with
AT A
Ġiden ti
le x
c df
R es
Ġp ri
pro g
U S
Ġre quires
s om
Ġval s
P RO
se cond
bo unds
Ġho w
M P
j i
sk j
BA PI
con tains
Ġho st
Ġs core
Ġbu ffer
co erce
he d
il ing
st atic
Ġ- *
} ".
error s
S ession
s kap
Ġabo ve
ig nore
Ġ# <
Ġu json
Ġg lobal
Ġexist s
ma h
Ġin st
si mple
for med
do main
path s
di ff
Ġth ose
Ġcor rect
s r
sent ence
teri on
Ġex act
" ],
ĠKey Error
te ger
ump tions
k Ä±s
a in
vi sit
Ġme ta
or iginal
supp orted
pi ckle
E ngine
so me
g lobal
siz lik
oc ab
c c
k y
ĠA PI
O D
mad Ä±k
se Ã§
ver s
fi cation
comp at
li ÅŁ
t od
Ġco un
sor ted
for ce
ri k
E X
en tial
un g
s jÃ¸
me ta
Ġoperator s
m Ã¸
Ġa uth
cre ment
Ġ zeros
Ġhel p
er ing
/ <
i ti
Ä± p
Ġe l
D ATE
lin ux
Ġc ri
Ġbe st
yn c
V E
z el
g it
Ä±l d
ar la
table s
do wn
be fore
Ġpar ticular
Ġ" '
_ \.
ry p
ad r
ko y
di kler
n one
fet ch
p ing
---------------- ----------------
C lass
d on
re try
Ġ""" \<
Ġby te
4 0
ro id
pro cessing
Ġ( -
Ġvariable s
lassi fier
Ġaut omatic
ĠO ther
c ab
k ut
man ager
m uÅŁ
__ (<
e ÅŁ
LT K
he el
Ġallow s
f is
Ä± lab
Ġo b
m ut
Ġe very
Ġa void
) "
Re ader
Ġcomp ute
sp ath
Ġl ong
a ma
ser ve
Con straint
Ġw arn
' ll
ur i
Ġac ce
Ġin ner
ti ds
Ġwor ks
fiel d
di rectory
Ġis sue
job lib
man n
lo ss
Ġbo olean
exist s
s up
l ue
2 8
al Ä±
sp an
sp li
f est
Ġun pack
P OS
Ġ' -
and s
Ġac cess
' \
Ġcon si
im i
Ġd f
Ä±l mas
o b
Ġw indow
S I
b ers
O ther
s lo
e ar
Ġdi mensions
Ġit self
Ġm ar
"] .
_ {
m ot
f j
p or
th an
Par se
no w
multi array
st yr
un it
sen sitive
un time
ere k
libr aries
gor ies
gu la
) ),<
Ġp op
ak t
0 5
Ġconver t
Ġch aracters
est imator
imat ors
X X
de scription
k ra
p ad
Ġro ut
Ġoper ations
ini tial
ti d
co pe
no red
op ts
cont ent
b ol
e z
ĠT h
cle ar
Ġurl lib
lerin in
larÄ±n Ä±z
mÃ¼ ÅŁ
coun ts
gÃ¼ l
ĠP oly
ca ÄŁ
su z
2 01
N D
p ay
de st
Ġf p
Ġd uring
ex pr
Ġe ven
s w
Ġ library
hand ler
Ġne eded
Ġma pping
Ġu b
Ġch unk
Ar g
Ġsh ort
Ġinter val
ly ing
Type s
Ä± c
O ptional
Ġvi sit
gener ator
Ġen g
package s
Ġc ustom
I ter
j ust
vid ual
_\. ]
atur al
C I
ĠD BAPI
T YPE
url lib
Ġiter tools
st re
ĠIn valid
Ġb ins
Ġf ft
M ixin
Ġversion changed
pro p
C reate
distribu tion
as cii
gener ate
({ "
0 64
3 9
t v
Ġg ot
Ã§ ar
ser ved
ine ar
per ties
f uture
lar dan
le cted
st dout
ĠĠĠĠĠĠĠĠĠĠĠĠĠĠĠĠĠĠĠĠĠĠĠĠĠĠĠĠĠĠĠĠ ĠĠĠĠĠ
fi c
Ġpro blem
Ġso cket
Ġs mall
sÃ¶ yle
Com mand
k ok
le ast
. ],<
Ã§ Ã¶z
ĠOn ly
Ġinter face
lus h
Ġen v
g rid
Ġcall back
Ġcal cul
ave s
bo z
Ġroot s
Ġexten sion
ĠThe se
Ġprob ability
in v
Ġse n
at tributes
Ġor ig
or i
Ġtime s
test s
St art
cal lable
pro xy
y stem
eri cal
^^ ^^
P oly
s cipy
v at
Ø §
Ġde termine
() ``
l Ä±ÄŁÄ±n
vi sion
fa ctory
ci lik
vo cab
Ġe ff
Ġop timize
tt en
( %
Ġe mit
Ġdi stance
Ġs cript
3 5
Ġde st
Ġover ri
Ġtemp late
ĠD E
so cket
time out
Ä± cÄ±
z or
y se
Ġn est
qu ences
Re try
pro spective
r in
Ġo wn
__ .__
cs r
Ġcan didate
morph ic
k ning
Ġw ay
by te
y im
re st
ra cle
i b
Ġ- =
exception s
Ġ_ ,
ad a
Ġpro perty
Ġcom bin
Ġset ting
Me ta
) ]
larÄ±n dan
8 5
ik i
p atch
v il
d al
ĠL EM
ĠLEM MA
Ġco mplete
, ))<
__ .
sk ole
vi de
ha v
et ter
ri ces
Ġde bug
b all
ĠTO DO
ta x
n om
Ġname space
ban k
} {
ge titem
sk i
qu ote
l s
tod ense
R ule
End Tag
ĠM o
ĠN umber
ha m
Ġn gram
par tial
lar Ä±m
q a
Ġmatch ing
" },<
ĠO penSSL
y Ä±
e le
Ġde g
al lable
C lassifier
as h
Ġe t
b Ã¥
c ing
4 2
Ġa uto
Ġs imilar
c ert
Ġs imple
ME NT
Ġf lags
read er
bÃ¼ yÃ¼
Ġb ad
Ġdi sc
Ġto o
C EN
Ġm ass
res sions
Ġk ernel
b Ä±
le af
Back end
il y
ĠS tring
q dm
hi te
( \
d rop
Ġk nown
Ġcomp atibility
Ġ@ _
Ġm ight
Ġno qa
(? :
Ġno des
ryp to
dtype s
^ -
an i
#### ##
par ts
O L
y ol
Ġb ody
ret ts
3 1
o ols
Ġg h
Ġcon stant
F rame
Ġ% (
va z
ers on
Ä±l an
te p
Ġrel ationship
li te
si tions
po wer
ĠD o
s ab
u laÅŁ
process or
abile ceÄŁ
Ġw ere
ĠG ener
lar la
deÄŁ er
Ġh yp
f ts
el se
ord in
g am
ler le
Ä±ÅŁ tÄ±r
Ġsent ences
u ses
ec urity
dimension al
Ġ lib
Ġ utf
f inal
Ġ""" ))<
caten ate
s Ä±nÄ±z
g an
g ing
or ig
Ġm asked
andom State
ĠPar allel
con dition
Ġcon nect
gre p
dÃ¼ÅŁ Ã¼n
ne m
se q
Ġtuple s
ter e
and er
man y
b Ã¸
() ):<
we ver
Ġc p
Ġdef aults
Ġpar allel
u tes
v c
res hold
V alue
Ġa ction
bo ÅŁ
ĠRe ad
g ang
ch at
tÄ± ra
tern al
t ene
u pp
Ġ' /
bi an
CEN SE
Ġ' __
Ġas s
Ġre nder
res ults
ĠS E
ĠO R
ko ÅŁ
12 8
P DATE
yÃ¼ z
ĠN X
Ġst mt
r s
Ġen tity
Ġnum bers
ĠN um
Ġs rc
ĠA d
ini ty
ĠC H
ĠĠĠĠĠĠĠĠĠĠĠĠĠĠĠĠĠĠĠĠĠĠĠĠĠĠĠĠĠĠĠĠ ĠĠĠĠ
Ġn di
stri ct
0 9
con struct
Ġraise s
Ġs c
Ġno te
sing le
Ġseg ment
F ound
Ġsyn set
= %
N I
ger Ã§ek
group s
Ġprovi de
Ġc types
Q ue
Ġassoci ated
Ġre quirement
our ces
ma ya
id entity
col s
ler ini
Ġs imp
ĠN LTK
Ġdocument ation
v ass
E st
in an
( **
sa p
call back
de sc
Ġc od
li es
Ġbu ilt
ĠA pp
Ġs quare
Ġch aracter
imp l
v ol
ab stract
ve k
av a
iÅŁ le
Ġrow s
T I
ist ic
Ġ RE
Ġindi cate
Ġt ran
lar dÄ±r
Ġm om
Ġ" __
ex e
mis sing
Ġp p
sm Ã¥
Ġe val
Ġdi re
Qu ery
: ]
** **
root s
id enti
g ul
ĠA dd
lÃ¼ k
d Ã¼r
gr unn
Ġcom mon
. )<
Ġiter ator
Ex ec
Ġe vents
Ġst ill
u di
ĠP EP
Ġunder lying
Ä±y ors
Ġcall s
Ġmap ped
h Ã¼
Ġtyp ing
mil jÃ¸
Ġv ocab
d am
Ġcomp are
atist ic
Ġeng ine
Ġinst alled
ver bose
Ġsp ace
Ġid x
Ã§ a
be k
load s
B ody
h n
m f
Ġrel ative
Ġcont rol
stan ts
er ver
name space
Ġfin ally
ĠI nput
à §
mem ory
a xes
v end
lig ht
G I
Ġfor ce
Ġtable s
a j
Ġm od
ith ub
qu antity
van n
dap ter
valid ate
r al
pro tocol
ning en
g un
o ugh
ler de
'] :<
ning er
log ger
ning ene
la pack
Ġm on
S D
' '
me mo
ti gu
ĠE n
ĠD DL
Ġre gex
Ġw ri
Ġdisp lay
las k
st yle
Ġmax imum
ba h
() )
Ġstri ct
], [
Ġcod ing
ti ÄŁ
ot he
Ġd one
ĠT able
ĠB o
tifi cate
ĠC reate
op s
Ġneg ative
ak la
Ġb atch
Ġconfig uration
Ġp ad
um uz
pp ers
p as
__ __
for d
Ã¦ re
Ġy our
Ġautomatic ally
un expected
B lock
N et
si x
ĠLI CENSE
a uth
Ġlo w
st derr
Ġiter ation
dist utils
SE T
b atch
ning a
tigu ous
Ġsa fe
Ġpo wer
ĠS S
Ġop ts
Ġat temp
kal k
num eric
Ġg re
Ġcl uster
Ġs lice
Ġun less
Ġinclu ding
Ġco okie
re tt
Q U
mar ker
Ġ1 4
b ins
en vironment
Ġ.. .<
Mo del
pro ba
Ġo pt
RO M
li s
g al
ĠO S
cur sor
Ġ ////////////////////////////////
ent ry
y Ã¼rÃ¼
sp ose
kon t
O K
tri m
dir name
htt ps
be gin
A ny
in c
si yon
ĠP re
g ithub
p ly
con j
col or
Ġj ac
mÃ¼ z
temp late
mam Ä±z
be ta
G ener
He ader
Ġde te
OR TH
f s
ĠE ach
ver k
ĠM at
Ġstate ments
Ġretri es
d ak
liÄŁ i
ĠĠĠĠĠĠĠĠĠĠĠĠĠĠĠĠĠĠĠĠĠĠĠĠ ĠĠĠĠĠĠĠĠĠĠĠĠĠĠĠ
fa il
Comp iler
AB LE
lic en
ali as
Ġpro duce
lÃ¸ s
Ġin sert
id ent
mme tric
( __
c fg
u pper
Ġr ank
sub class
bo k
Ġhel pers
di an
ĠC an
base d
Ġlist s
Ġcli ent
Ġ ],<
Ġinter preter
F E
st amp
Ġin stances
Ġline ar
Ġdecor ator
U LL
ab el
Ġcast ing
gÃ¶ ster
v Ã¥
Ġp kg
i j
an la
as y
() [
ĠDist utils
Ġf rozen
ro ut
Ġb it
ka mp
Ġin spect
exec ution
Ġ ',
rypto graph
Ġcomp uted
f ak
o id
. ',
r vs
H TML
F unction
res ources
her it
ryptograph y
ti li
Ġdistribu tions
ck s
Ġco variance
c ord
so urces
spa ces
st it
Ġc er
iz i
t at
sen d
Que ue
uÅŁ tur
O F
co v
ĠT uple
mekte dir
ac ked
Ġcon dition
Ä±r t
p tr
Ã¼ re
TO CO
hÃ¥ nd
k um
Ġr hs
a ff
n ak
ÄŁ Ã¼
u ra
Ġdef ine
b rid
ad ing
Ġf ra
den ce
Ġvalid ator
mo di
Ġle ss
jer n
n Ã¸
reg ister
Ġig nored
h Ã¸y
Ã§ Ã¶
can didate
g ir
kaz an
Ġmat ches
Def ault
f ast
k op
ĠF e
Ġrepresent ing
l le
m ati
gi on
tern ative
men u
Di alect
se re
(" %
ig ned
Ġro t
fa ctor
Par sedVersion
B U
it al
row s
ĠG et
p age
orm uÅŁ
ST R
ed u
uÄŁ ra
f lag
Ġde termin
or n
Ġg ive
Ġrule s
Ġt rim
K ER
j et
Ġc md
ka h
Ġneed s
bul un
ateg ory
cli ent
Ġwhe el
karÅŁ Ä±
9 5
Ġcont ents
u func
Ġd rop
* (
file ids
Ġu sage
A M
Ġprovi des
e ye
9 4
b on
i ri
Ġen viron
v ak
Ġin vo
pro gram
ĠComp ute
> `.<
Ġne cess
) ).
Ġ },<
lo b
ta h
Ġ //
he ther
pro d
Ġimp licit
sa ve
icro soft
diÄŁ i
ar ity
Ġbe ta
bo ÄŁ
(). __
7 4
w hite
Ġdo uble
yor um
Ġexception s
9 6
Time out
num ber
I P
o tur
Ġst ore
Ġwrap ped
de mo
F a
k im
Ġco uld
ya ÄŁ
org an
inte ger
ĠT ra
E vents
x ml
y m
ler inden
n ull
res ource
lÃ¸ y
In dex
ab spath
host name
la h
Ġs w
Ġ`` (
ta ke
Ġac tive
st en
du ction
Ġes cape
b las
Ġu func
( "<
_ [
ol og
asjon s
cli p
m Ã¥
Ġwor ker
ex act
O P
b ig
refer ence
' .<
r v
ti tle
b ad
o z
for s
Ġp age
ces sed
([ ('
t art
s cheme
CHE CK
Ġuse ful
â Ģ
gener ic
Ã§ ak
list en
dt d
, -
d Ã¸
Ġr atio
Ġpro tocol
Ġet c
Set ting
Ġwh ose
Ġmat rices
Ġmodi fied
pre sent
ĠW ord
J SON
ĠI D
Vi ew
Ġpla ce
b Ã¶
me yen
Ġtest ing
do wnload
fol der
Ġt ar
en o
ĠW hether
Ġinter pol
G ender
> ",
Ġcomp onents
ge liÅŁ
Ġgroup s
imple ment
. +
ar m
lo aded
Ġ(? :
p al
ase s
time s
"] :<
pri or
A P
or ker
he ter
Ġse q
specifi c
Ġu pper
cur sive
ay r
Pro perty
Ġs ha
poly morphic
0 8
cl uster
co s
coun ter
ĠN ORM
ĠF ortran
Ġiter ations
pri ate
Ġhand ler
support s
o v
o ted
s cores
Ġwe ight
t ter
Ġbe low
ker nel
abstract method
Ġma g
k uÅŁ
ĠOther wise
un ut
Ġinput s
Ġse ts
j u
dump s
P ath
up lic
r up
val g
module s
i re
form er
c la
D ATA
li sh
j ord
r ul
par sed
gr up
+ +
ĠL anguage
Ġ1 7
ut dan
be kle
B O
Ġname d
mb ers
f d
Ġe ps
co bian
ĠM ake
yar at
ĠRefer ences
f ram
al s
w heel
pre pare
. ])<
de pre
Ġappro x
ye tiÅŁ
3 8
e lements
li v
c as
may an
va ÅŁ
se rial
ĠOr dered
Ġw idget
ĠV alue
Uni on
r ate
ser tion
ed s
AR KER
t ty
c r
h ir
an lat
ur s
la v
Ġsupp ress
gres ql
load er
set ter
sql alchemy
ĠU PDATE
add ress
SER T
Raise d
Ġs cal
ser ing
([ '
) \
um my
N B
qu a
kj em
c iler
lar da
an not
ĠAr ray
in verse
Ġassu me
M IT
k Ä±y
v are
Ġstr ategy
gÃ¶r Ã¼ÅŁ
si al
Mapp er
l ation
ne lse
fli ct
he ta
Ġver y
allow ed
get attr
Ġs ave
ko st
r b
vari ate
no des
sy mbol
ler ine
app ly
ĠSE LECT
f es
co okie
meth ing
mad Ä±ÄŁÄ±n
Ġtoken Types
Ġct x
E xt
Ġ[ ('
in er
con straints
br uk
50 9
Ġf unct
r tol
ĠH TML
Ġgener al
ĠL U
S V
ue ss
Ġ3 2
S tr
Ġ" [
Ġle af
# <
C heck
b un
ist e
Ġcomp atible
A n
y u
ev ents
f am
Ġfunct ools
rag ment
me ter
op timize
C lause
as ync
Ġreg ular
Tag Token
Ġf oreign
war ds
D S
Ġ1 9
Ġinter p
ĠR aise
Ġexec ution
Ġtemp orary
ul ary
Ġa x
Ġeig en
b om
ĠH o
Dist ribution
" })<
der ivative
da v
ep end
Z E
[ [
L og
di a
Ġ* =
ut ation
se c
k li
imiz i
ma pping
Ġf all
y ors
in ing
Ġ+ <
b ran
tan Ä±
a Ã§Ä±k
N P
en sions
Ġsol ution
ĠRe quest
er b
CH AR
par allel
st and
as Ä±
ĠT rans
Ġin verse
Ġpar sing
app ro
f fici
Ġf uture
Ġfa ctor
d bapi
bar ne
ut t
sol ve
bÄ± rak
Ġc y
Ġchild ren
Ġcl one
b ry
Ġf lat
Ġcomp arison
Ã§ at
gÃ¶ nder
Ä± ver
M O
ĠD ata
Ġ[ ])<
comp ress
un ks
Ġappro priate
are st
den se
Ġad ditional
Ġch at
al k
20 21
di stance
Ġ* <
ko mp
se conds
b and
ĠT YPE
ge z
con catenate
doc s
ar ak
VER SION
y am
h ab
Ġl u
Ġin f
str ument
ch ine
sen iz
emp late
Ġnest ed
f all
Ġter min
Ġl ater
ext ension
g ress
object s
n Ã¦r
Ġn an
Ġf ast
abili ties
Ġw in
position al
ÅŁ ek
Ġf un
t gt
ad ap
mal Ä±
pro ject
ĠC om
s and
larÄ±n da
Ġhy per
H el
Cont ent
Ġbro adcast
ex it
) **
Ġan other
>################################################################ ########
ch unk
Me thod
arg ument
In fo
g ers
lerin de
normal ize
spli ts
G et
gi y
Ġconver ted
act ual
gÃ¼ Ã§
ĠS ecurity
d k
str ategy
han e
Ġtake s
i an
m iyor
Ġ license
cl ar
ĠF ROM
leÅŁtiri l
meye cek
lar sa
Ġop tim
w rapper
ĠJ SON
de lse
ĠF unction
sp o
est e
C ol
bu ds
Ġl anguage
sk on
ti mal
Ġf re
Ġtre es
vend or
re set
return ing
b ra
Start Tag
al Ä±k
ge tir
lu ÄŁ
f ag
ph i
Ġass umptions
Ġexp ressions
se ri
Ġi o
Ġimple mented
thread s
g ri
sp il
ind ust
w are
Ġapp lied
E XT
an Ä±z
.. .,
j ar
Ġpackage s
Ġon ce
gre ater
Ä±m la
() ]<
Ġcurrent ly
n de
da ÅŁ
Re quirement
I d
d ra
m ene
w arning
M y
T LS
l Ã¦r
Ġstri p
in ci
en di
Comp arator
ĠNum Py
á ´
an laÅŁ
ver ter
Ġ""" )<
Ġ3 0
y iz
mas Ä±
Ġcon structor
warn s
) ],<
si r
Corpus Reader
n x
ur t
Ġre duce
pi pe
Ġind ent
ex ample
1 000
Ä±l mÄ±ÅŁ
neg ative
Ġcon straints
de precated
end ing
k ad
sol ver
Ġre st
work ers
Ġcoun ts
: ])<
F T
t Ã¼n
Ġn et
Re ad
ĠĠĠĠĠĠĠĠĠĠĠĠĠĠĠĠĠĠĠĠĠĠĠĠĠĠĠĠĠĠĠĠ ĠĠĠĠĠĠ
pol ate
Ġs ix
ĠA uthor
w iki
fon t
Est imator
ex tras
R andomState
] ],<
c ked
n u
iz m
ili k
p in
E Y
a ussian
ge lse
mes ini
Ġ"- //
P AT
an ces
Ã¶ de
v ok
k ork
Ġpair s
Ġ" {
ok u
Ġtag ged
Ġst ored
Ġde scri
Oper ator
lay ed
r ong
param ref
l b
hist ory
9 8
F O
ĠA ll
s quare
> ``
Ġde lete
slo ts
inter cept
Ġali as
I L
Ġexplicit ly
ac le
ces ses
ĠSS L
Ġgre ater
Ġst dout
Ġrequest s
Ġfa ils
le y
uni form
s Ã¼rÃ¼
le arn
ĠF ind
z one
Ã§ar p
Ġprodu ct
RA Y
f an
Ġle g
leg acy
Ġlo ok
token Queue
IT E
ul er
O r
de ste
ti vi
Ġd bapi
Ġm ark
V AR
Format ting
Ġse en
res olve
ath er
Ġcol or
fre m
Ġvector s
Ġman ager
N N
ate ly
Ġse conds
yaÅŁ a
is sue
hand ling
y Ä±k
ty ping
ĠSpecifier Set
Ġfix ed
f Ä±r
ve g
() ))<
makt adÄ±r
di sc
con f
rand n
4 5
at om
s us
con vert
lar Ä±yla
l ug
ÅŁ i
ĠL egacyVersion
pri mary
> `
// ",<
ME TH
M an
di z
ne ighbors
Ġent ries
(' .
Ġfloat ing
o site
code s
] ):<
sup er
kal dÄ±r
Ġmin imum
t w
ler di
METH OD
ĠA R
Ġstack level
Ġhyp othe
Ġsign ature
on ent
ler dir
dÃ¶n Ã¼ÅŁ
str ings
Ġrequest ed
u ous
y ans
Ġs pe
ik k
user name
7 6
B C
b la
par ameter
Ġd b
Ã¸ m
pl us
E dge
Ġn or
ve lo
h u
) ?
Ġ[ ],
san Ä±z
ro y
un a
er n
Ġchange d
uz ak
Ġp hi
fi k
mes ine
Ġcall ing
itu de
Ch art
Ġspecifi ers
k Ä±l
Ġle x
Ġtra iling
Ġdiag onal
vi k
c v
ch ain
Ġ( [
con tainer
poli ti
//////// ////
re mo
//////////////// ////////////
//////////////////////////// <
Ġin it
g ilen
rel ation
< /
or ter
Ä± f
ut or
Ġnormal ize
se lection
ÅŁ aÅŁ
der e
Ġse rial
Ġcon sist
S GI
([ (
gi ft
Ġiden tity
Res ult
` ,<
Ġ" >
my sql
st andard
uy u
Ã¸ ve
que ue
Ġdisp atch
Ġsu ffix
are n
ar s
v d
dÃ¼ zen
Ġ joblib
ma dÄ±
ĠL e
ba z
ref lection
OR S
Ġvari ant
Ã§ iz
rule s
Ġpre di
Ġmar ker
f req
Ġ\ \
Ġt z
[- _\.]
lied TagToken
[-_\.] ?
m k
Ġso urces
Ġcri terion
id den
ĠW indows
ind ent
uff le
Ġdo wn
indust ri
g le
Ã¼ st
sm all
un kt
25 6
Ġ`` '
pass word
Dis patch
Ġremain ing
ayd Ä±n
te g
s ul
man Ä±z
Ġ libraries
O racle
ot ation
set default
A pp
) /
f c
ĠIn dex
Ġlo op
Ġco ver
Ġrun ning
Ġter ms
iv Ã¥
dig het
Ġmem ber
to array
valu ate
p id
be y
w d
> \
arg v
Ġformat s
S erver
y la
ak a
untime Error
set tings
He ad
s Ä±r
n as
y Ã¶n
ne k
Ã§ Ã¼
Ġ mp
(" \
Ġtrans action
Ġtr ust
g y
ho w
Ġsol ve
Ġc v
Ġ2 4
ĠIter ator
ĠT ag
radi ent
depre cate
ge s
g ot
sen ter
ĠDi ct
f te
Ġu s
im ation
Ġdef inition
'] .
Ġd ri
b b
iter able
pro blem
ir d
gÃ¼ ven
Ġimple ments
Ġreg ister
Ġrequire ments
L e
Ġ 64
depend ent
m Ã¥l
is instance
S ing
f ort
f name
Ġdo wnload
Ġexec ute
Ġt it
ol uÅŁ
Ġb ot
' ve
g amma
Ġpolynomial s
N UM
f ortran
Ġ---- --<
inde ki
Ġn ative
Ġclo sed
p kg
Ġg u
###### <
(" .
we ek
Ġcan onical
Ġel f
leÅŁ e
N S
S K
al ay
sal g
Ġdeg ree
6 5
Ġtyp ically
Ġsp an
rag ma
m Ä±yor
ar Ä±
ck er
exec utable
Ġnecess ary
so pp
Ġwork ers
yÃ¼k sel
pe at
Ġg libc
so k
ho ok
inter preter
gÃ¶r Ã¼
k ry
k ort
. "
de ÅŁ
open ssl
a i
Ġsql types
Return s
hj em
Ġsy mbol
ase d
et k
ref s
sj ek
en gel
f lo
or tion
ci k
ar at
Ġpro ject
Ã¶ÄŁ ren
k la
un pack
B o
Ġw rapper
b ord
Ġout str
kar Ä±ÅŁ
Ġinter nal
Ġp added
epend ency
H ER
memo ized
g Ã¼r
hj el
P R
d Ä±m
ĠDe precationWarning
* <
ka yn
Ġg amma
ho od
rec ted
TOCO L
un u
w ri
ari able
ĠIN SERT
k de
sa h
ka st
depend encies
ache d
scri pts
Ġb ig
yay Ä±n
r ng
est imators
tmp dir
At tribute
g mail
er o
parti tion
k iÅŁ
yar ar
sp matrix
Ġk now
ĠC allable
gi cal
iniz i
Ġun til
Ġst atic
ate gories
Ä±n daki
m ing
gn itude
Ġact ually
et ch
ze ug
Token izer
ma jor
I mp
con n
Ġx ml
in ks
al Ä±ÅŁ
Ä±n ca
"] })<
ile ÅŁ
ÄŁ Ã¼n
Ġg raph
Ġdefault dict
oper ators
Ġcontain ed
Ġc op
M ar
ge v
pay laÅŁ
c enter
C S
Ġ1 8
res sor
w indow
me leri
ca de
su ccess
post gresql
~~~~ ~~~~
m us
gjen nom
si du
ĠT ime
kun st
de li
pe l
ul ate
static method
in form
sp rÃ¥
p date
s Ã¼n
but ton
arbeid er
xt ure
leÅŁ tire
Ġex pect
le ctor
ge le
ta v
Ġme tric
N e
Ġal ignment
r hs
his set
Ġuser s
n az
ĠX XX
Ġbe gin
re gistry
Ġin side
ĠA U
ĠM ax
= ['
Ġho ok
Ġsign al
geÃ§ ir
Ġc ross
te ll
get ter
kom mun
u ation
sam men
t wo
Ġ200 1
may Ä±
U P
sel v
ust ers
appro x
sp or
uy or
Trans former
ler iyle
con tiguous
al Ä±n
Ġnp er
Ġ5 0
eri al
Ġen coded
__ ()<
Ġd st
Arg ument
ĠS ub
4 7
c ut
k zeug
s he
te z
Ġ1 3
bu f
baÅŁ la
el en
Ġ| <
Ġfrozen set
u ke
imp liedTagToken
oyn a
qua res
Ġc ir
Ġha pp
poly val
Ġc ategory
Ġidenti fier
O M
n ar
u c
ĠIn teger
yÃ¶ ne
al ignment
Re sponse
or acle
Ġm en
Ä±y sa
r er
Ġd eri
s ame
Ġde v
po ch
unk nown
asi ble
Ġ//////////////////////////////// ////////////////////////////<
Ġinclu des
Ġnum eric
5 67
lo op
f l
ĠDist ribution
ni fic
Ġextra ct
ĠB SD
n c
bili yor
dep th
g ren
iz in
ĠL A
Ġcle ar
sen tr
r ust
Ġma de
Ġso mething
Ġcomp ile
Ġcan vas
y arg
igh ted
implement ation
Ġfa iled
di ffer
ver ify
ĠN ULL
mat vec
Ä±m Ä±
hy per
sertion Error
tr f
Ġinclu ded
T h
Ġse nd
Ġsub classes
uni on
taÅŁ Ä±
Ġreturn ing
Ġden sity
Ġconsi dered
Ġ-* -
st ar
Ġhist ogram
s li
he st
fra c
g round
tag ger
Ġover write
De precationWarning
Con tainer
diÄŁ ini
]+ )
p g
Ġplatform s
B in
G roup
ĠRe g
ER S
> }<
f mt
me v
ler im
c Ä±lÄ±k
as c
Ġindi vidual
Ġrepre sents
ne sted
del ing
] ``
ĠB e
:`~ .
v ise
ke m
es sage
de cor
ĠPro ject
Se lect
new axis
HE AD
Ġ1 000
Ġcon ven
f r
en ded
Ġrout ine
ran k
Ġ.. .,
sÃ¼ z
arbe ids
l hs
N E
f lush
Ġevalu ate
b ly
ver di
Ġde mo
Ġpar tial
compile d
nific ant
be ÄŁ
" .<
bo y
Ġndi ter
] _
Ġe lt
mb ed
Re gistry
Ġ% <
p ap
Ġa ff
id er
mb ols
H A
S cope
Ġ" --
k rig
re quirement
Ġt ak
EN T
} "<
cor rect
hel pers
tex ts
) ],
Ġb ar
Ġpre fer
oreign Key
adr atic
as ing
Ġc ert
soci ation
r us
b ri
Ġlo ss
11 11
: ],
ase ts
mit ted
Ġ ge
Ġis n
Ġchange s
co mb
R Y
Ġpi ck
st a
Ġg rid
Ġdi d
Ġcomp iled
mer ke
yak laÅŁ
Ġrelease d
ĠTo ol
CHECK ING
Ù Ĩ
la ma
ine q
LI ST
Ä±s Ä±
Ġma jor
C ache
Ġu su
Ġdep th
Ġf o
Ġ( ("
Ġrel ation
P RE
Ġas sign
ke ÅŁ
ko v
lÃ¼ m
C lo
I S
et le
ĠDef aults
Ġd ue
ab e
white list
p lat
re de
clar ative
g ence
mes inin
t d
ce p
Ġfre qu
at is
g libc
Ġsp a
ti f
lo okup
ve cs
Ġ2 5
Ġgo od
is ual
co variance
Ġexclu de
gre es
mon th
bit r
iy di
O bject
al og
el t
Ġan not
ĠY ou
ĠSt ate
h r
is nan
to k
po inter
ext ensions
Ġle m
Ġpass word
Ġr ate
com mon
c en
Ġp ort
Uni code
N ING
day an
Ġl hs
CI I
im ension
az y
un un
Ġex pr
cu ra
inte gr
res h
ex clude
8 3
33 33
am i
pair s
} \
ot t
w idget
c sc
attr s
n ns
con st
Ä±ÄŁÄ±n Ä±z
hel p
Ġspecify ing
a cobian
h Ä±r
f le
do g
ĠRe move
kur t
T uple
r t
s lag
Ġt b
ĠN atural
day s
du ÄŁ
config ure
C F
par er
read only
> :
n ene
format s
Ġone s
ffici ent
re main
Ġf s
so le
F C
len me
mask in
still ing
comp ute
ĠN ew
Ġse man
edi t
ble ms
ut ing
Ġse p
Ġc ha
6 0
Ġlog ic
Ġgener ic
sel skap
yak Ä±n
e de
ĠUni on
ĠPo st
Ġbas ic
e of
ĠL inear
W ord
res sed
ay Ä±r
Ġli teral
bu d
) ")<
" {
Ġ vars
ĠM ulti
LE TE
H tml
Ġca use
M utable
ne ss
for si
item size
') ])<
can vas
S ub
f al
ĠĠĠĠĠĠĠĠĠĠĠĠĠĠĠĠ ĠĠĠĠĠĠĠĠĠĠĠĠĠĠĠĠĠĠĠĠĠĠĠĠĠ
ili ÅŁ
kap a
ĠMy SQL
Ġe gg
ÅŁ iÅŁ
M ARKER
se titem
Block Vector
pre di
kar ar
ĠG iven
o sition
s ur
ati k
ĠCon vert
ĠN ame
miÅŁ tir
tal e
Ġnper seg
ĠTool kit
g Ä±n
y Ä±l
malar Ä±
H z
T XT
gi ri
p rom
H T
i et
Ġsupp lied
ma gnitude
ha re
mid del
in ja
0000 0000
le aves
us s
ĠD is
ĠIn ter
99 9
an se
inter p
mak ta
han del
Ä±ÅŁ la
Ġab is
y oÄŁ
ra d
Ġp lot
Log ger
Ġback off
rand int
A c
ÅŁ ah
O ption
dÃ¶ v
ĠU ser
Ġspecifi es
w s
Ġp ragma
i ck
Ġin cre
men in
row id
ol ar
ĠAr g
> "
I VE
ĠM IT
Ġ2 01
element In
tre es
Ġoverri de
su Ã§
exp and
baÅŁ ar
HER E
Ġd x
Ġsol ver
s la
ul ation
Ġre ce
ĠRe try
valid ation
Ġ[ ['
qu ad
us jon
ĠTh ere
7 9
Ġat t
Ġindicate s
licen ses
4 6
Un known
al id
ser v
L egacyVersion
tri but
at te
man ns
l Ä±ÄŁÄ±
ut ton
sk og
ĠM A
man Ä±n
Ġro und
ou ter
Ġsyn tax
v n
ks om
Ġconnection s
Sp line
" }
ĠN O
Ġma c
kon tor
Ġse quences
Ġtoken izer
row count
BA CK
do kun
gra di
li er
Ä±z lÄ±k
Ġgener ator
A b
Ġend point
' ``
plot lib
cl one
i ci
ma ÄŁ
ste in
ec or
b ine
st ing
tili ty
m iy
er al
po sit
ĠM app
Ġapp end
ĠIter able
k il
end a
kjem pe
Ġread ing
ise re
Ä±l Ä±r
Ġhand ling
bu ff
Ġ-* -<
fam ili
ti cs
def ine
ark up
p ir
u a
Ġintegr ation
k las
Ġco st
tÃ¼r k
Ġfilename s
> """
Ġ Q
tri b
het en
per i
sk o
uy gula
ĠRaise s
li hood
het ene
comp arator
radi us
F orm
Ġre gistry
Ġin compatible
Ġscalar s
mo o
an aly
Ġs cores
ce dence
bi Ã§
Ä±t la
Ġdepend ency
Ġsu ccess
iler le
n da
ang ular
Ġ ).
per son
iler i
tr ust
Ġrun time
te lse
and a
Ġp ublic
Ġd ense
modi fied
ĠB u
Ġinvo ked
k Ä±n
f k
Ġ" /
sp h
Ġun its
) ",<
ĠOS Error
r p
er ance
fi ers
ĠR otation
Bu ilder
$ ",
L ike
si d
bu ilder
bitr ary
in a
RE ATE
insert Element
B y
Ġor th
Ġ6 0
ĠE xt
Ġsetup tools
Ġauth ors
d le
p k
lib s
CO M
option al
sq lite
g od
lo gging
i ed
n ative
p ip
tain ed
Ġdri ver
> ):<
ff set
dÃ¼ zel
al Ä±m
Ġan g
dri ver
ĠN e
tes IO
pi ck
ti cal
ctor ies
bile cek
require ments
Ġcon sistent
y miÅŁ
Ġcon stru
Ġeff ect
elementIn Scope
> ]<
Ä±y ord
if est
on t
ho me
fore ign
Ġunder line
Ġc ategories
Ġn ull
^ {
r int
v ate
Ġmake s
Not Found
> -
grup pe
PRO TOCOL
/ ><
int p
kt or
Argument Error
posit ory
ta mam
Ġdoc uments
hol ds
at la
ĠT ext
OR T
sen ted
ar an
__ ,<
poly nomial
kj Ã¸r
leÅŁ me
Ġr ather
ic orn
Ä±y ordu
eri es
fft n
P T
Ġsub process
Ġmodule s
Ġest imate
Timeout Error
n Ä±
Ġp eri
i ris
j ule
ver e
Ġcon tribut
current Token
ĠUni code
f ab
mas ked
ns ure
Ġ200 5
PAT H
m ini
p iÅŁ
[: :-
TH ORS
bo th
Ġ à¦
gre SQL
H O
Ġp ol
vi des
trans late
termin al
dav ran
FI LE
l ur
n ad
Ġch unks
Ġcheck ing
ph p
ĠAU THORS
Ġres pect
In teger
Ġcache d
l ings
', '
is olation
Ġal ternative
Ġpro blems
ĠEx ample
hÃ¸ g
Ġl on
sp Ã¸r
hy brid
re gion
to re
wh ich
sel er
Ġc enter
ka ps
Ġnormal ized
meli dir
d rag
Ġa g
ace Characters
the ta
t grep
Ġ( )<
] ])
Ġar ound
Ġa ppe
k v
ra ps
Ġ( %
row ser
cura cy
! <
cat ing
] ]))<
h it
ass o
stri des
LO W
y el
Ġ' '
ma dan
san e
^ \
it ch
ic a
Ġqu ote
Ġe qu
ta il
Ġwh ite
mad Ä±ÄŁÄ±
Ġwork ing
gres sor
r um
Ġpre dicate
4 9
k art
p ublic
at ol
Ġac ross
Ä±mÄ±z Ä±
Ġstri des
N um
Ġprodu ction
Ġres ol
tran spose
d ated
Ġpro per
ist an
ĠT LS
Ġco v
.. .<
Ġuni form
frame set
sig nal
kul tur
HTTP Error
(' \
ĠIn itial
IN FO
Ġa verage
([ "
kur tar
ben ze
lendiri l
c ay
c ustom
t in
ag ate
d l
k ili
par la
kÄ± v
= <
yn am
makt an
la zy
(" >
RE CT
Ġf ur
ĠN OT
R OR
t ara
de cimal
Ġas cii
U RL
a ut
ex pect
child ren
* .
ĠF ile
kke l
re tri
ak k
ĠT emplate
ĠN a
def inition
tt ing
ult roid
h ur
Ġup on
vin ne
yÃ¶ net
beÄŁ en
st id
Ġ qui
tart Ä±ÅŁ
L P
Ġpro perties
LO B
no te
Ġcor rectly
din le
last rowid
Ġhist ory
ho ÅŁ
AR RAY
are t
kÃ¼ Ã§
Ġhel per
karÅŁÄ± laÅŁ
gradi ent
var name
Dispatch er
t un
=[ ('
Ġmodi fy
(" -
kon tra
can onical
mu si
req s
yer leÅŁ
miÅŁ ti
Ġcoeffici ent
Ġad just
char s
b Ã¶l
u me
ĠW HERE
s Ä±ÄŁ
Ġdel ta
u er
Ã§ oÄŁ
Ġx x
f val
ha p
e ts
re size
di le
ĠS O
Ġmin or
ite t
ĠUn its
. ]])<
As sociation
Ġcontribut ors
medi an
Ġp unct
di t
ta p
ref count
Ġkeep dims
adap ter
Ġd ump
an Ä±m
di sk
Ġdtype s
B I
c x
t b
ze y
eri ctypes
Corpus View
Ġcle an
Ġf oo
Ġvar y
si mil
ĠO ption
gr Ã¸
try kk
Ġar ange
i ye
kor u
ĠFe ature
M S
time delta
TI ME
Ġleg acy
ĠState ment
th is
to pp
ĠP ath
iel ded
bre v
Ġen code
ĠĠĠĠĠĠĠĠĠĠĠĠĠĠĠĠĠĠĠĠĠĠĠĠĠĠĠĠĠĠĠĠ ĠĠĠĠĠĠĠĠĠĠĠ
Ġ* ,
Ġc ryptography
ve i
ili r
Ġdis able
h jer
RE AD
vid er
im z
ĠRe sponse
Ġ[" --
ĠP er
d j
ri l
b und
e cho
PA CK
Ġh er
12 5
Ġpre dict
V AL
al aÅŁ
Ġre set
im ated
Ġen able
ĠN on
Ġcol s
Ġp ur
ne s
h um
k ker
un ded
Ġ[ {
Ġen abled
ĠW SGI
ĠG u
as Ä±n
Ġs i
ak lan
) "<
ĠO N
p az
ĠL og
sn Ã¸
bl Ã¥
k Ã¼r
comp uted
sv d
7 0
c ular
' },
a de
an ts
function s
tek n
h ort
ce ll
ly s
Ġ2 2
Ġno se
Ġle ading
e ch
% (
F UN
Ġt rig
ra st
CON T
t f
t g
ak s
open source
Ġattr s
Ġclassi fier
du ra
ĠS o
le der
ati v
am ent
many linux
G S
Ġde code
Ġpre v
sav un
script or
pe dia
Ġresult ing
com ment
LA SS
bro adcast
O penSSL
k ne
Ø ´
ab ly
min or
Se quence
g h
at least
Ġdi ff
pri me
g ge
ĠT AG
map ped
yÃ¼ kle
MA X
in crement
o wn
z an
w ill
me me
ro py
Ġ' {
Request Error
Ġcy cle
Re g
ĠHo wever
Formatting Elements
Ġlo ader
mal Ä±dÄ±r
Ä±yor lar
sa vaÅŁ
version s
ĠPo ol
k lo
all er
g ur
St ack
sik ker
5 3
Ġa dapter
num erictypes
saÄŁ la
Ġexact ly
F rom
iler in
Qu antity
kav uÅŁ
ak tar
Ġpro gram
n gram
v stack
ver i
ĠG aussian
sha red
qu ent
Re f
sk u
kon kur
trans action
Ã§Ä±k ar
fol ke
h igh
Ġres olve
cate g
yar Ä±ÅŁ
Ġexec utable
medi kler
Ġ[ ]
for ward
Ġse c
Ġchar set
lan k
Ä±s Ä±n
Ġdoc test
b ren
') ]<
Parse Error
name spaces
ye ar
vector s
ĠPar se
tag ged
M essage
c d
de c
Ġconsi der
Ġcer tificate
Ġw rong
W idget
fis ke
assi ve
9 3
Ġe p
Ġinter pre
Ġflat ten
n am
Ġx i
Ġfile id
AL L
Ġs qrt
un da
sp ill
Ġr s
tra ct
Ġ' "
Ġ' --
Ġpo inter
uy an
M ap
ĠU T
lif y
Ġevery thing
len dire
ĠF rame
[: :
inter val
SE LECT
spe ction
make file
I f
Ä± lar
co x
ek i
Tag ger
mem ber
Ġset attr
th reshold
hal v
c ator
am in
su ffix
bet al
sho uld
a a
ĠR es
c il
g v
jÃ¸ l
p res
Ġtrace back
Ġvocab ulary
re m
Ġc ut
tiri l
Ġreg ression
4 8
ler se
Ġcheck s
in le
... )
buds jet
Ġ' [
n av
Ġi m
00 1
nt Ã¼
Ġsig nificant
us ing
AT ION
end Tag
Ġinte gers
sub process
me mbers
Ġse lected
n at
on ay
file id
Ġla zy
Ġdiffer ence
Ġacce pts
Ġeff ective
f alse
et adata
byte order
k ro
Ġfilter ed
distribu tions
Ġlem ma
d Ã¼n
se ydi
In di
ti sk
kay bet
TYPE S
ĠOR M
B M
Ġst derr
Re gressor
poly fit
Ä±l Ä±ÄŁÄ±n
u id
co ur
ul li
Ã¶r gÃ¼
Ġindi cating
ĠĠĠĠĠĠĠĠĠĠĠĠĠĠĠĠ ĠĠĠĠĠĠĠĠĠĠĠĠĠĠĠĠĠĠĠĠĠĠĠĠ
Ġbu f
ang o
Sp aceCharacters
Method Dispatcher
' "
A PI
ver den
kar ak
e lem
Ġdi rect
Ġy et
Ġv s
12 3
Ġuser name
release s
om rÃ¥
tri cs
Ġrepre sented
inter face
Ġoccur s
er te
ĠH el
top la
diag onal
vaz geÃ§
ĠPost greSQL
do k
P ron
Mapp ing
ver al
`` ,<
id gets
se ct
or ing
Ġn u
ut en
Ġbet ter
uÄŁra ÅŁ
i br
ha k
Ġat least
[: ]
Ġdepend encies
s Ã¶z
ĠI S
. ::<
n b
sy ke
ĠstartTag Handler
ĠstartTag Other
Pron Type
k ak
sel ine
po w
cle an
T ra
Ġc ell
Ġmax iter
cy cle
lem ma
ben im
h un
is ke
Ġlo aded
float ing
ar c
al cul
is me
Ġver ify
P er
S y
ĠCon fig
ĠUnits Container
Ġper formed
Ġusu ally
d yr
at Ã¶r
ĠS ince
so ÄŁ
Ġpass ing
Ġextra polate
bÃ¼ tÃ¼n
demo kr
Ã¸ l
Ã¶ p
j ef
di tions
Ġse ed
Ġpri or
Ġex it
In stall
meta class
^^^^ ^^^^
: ",
m icro
n un
Ġth ree
W rapper
sp line
an n
pr erelease
I X
o hn
ne v
name d
exist ing
ĠU sed
C re
e ig
Ġen c
Ġshape s
abili yor
dis able
Ġinterpol ation
I E
Ġc x
Ġin v
ce ks
ĠS te
Ġne ver
fra mes
mi tive
haz Ä±r
kir ke
yans Ä±
Ù ħ
er en
ti kk
ch an
oÄŁ lu
E OF
or age
Ġf name
comp arison
g erek
ig hest
st off
s me
Ġ= >
m utable
ver sal
fi kk
Ġg uess
ĠM icrosoft
ur o
ce va
Ġcon stants
omi te
7 8
k ant
mar ked
mes inden
select able
t Ä±m
ti ce
ri z
imiz in
Ġtag ger
v ind
in ne
ac ka
ara ÅŁ
Ġg lob
Ġthread ing
O n
Ġf etch
Ġde le
Ġarch ive
cri terion
s hift
me den
add ing
se par
Ġ- <
bas ic
lan gu
Ġpr erelease
langu age
S yn
z am
st mt
OR D
se quences
] ['
Ġin iti
Ġst atistic
Ġcom ment
p mf
con v
und an
Ġexp and
]) ))<
de te
Ġmin imiz
ĠC F
h il
s cal
vir ksom
Ġter m
sle ep
. ')<
K EY
i ÄŁ
di gest
rec array
kaÃ§ Ä±r
ka ÅŁ
Ġlo okup
ĠSe quence
lect ron
an si
arg er
Ġbo x
Ġintegr al
Ġdetermin ed
re du
en ame
ol je
Ä±ÅŁ Ä±k
yat Ä±r
Ġtak en
B LE
Ġdire ction
uplic ate
imension ality
ĠS ome
ber g
adr ature
ĠGu ide
6 8
a w
Ġe lem
ha st
Ġle arning
gÃ¶r Ã¼n
Ġfol der
Inter pol
Ġsha red
v and
un ter
ke lse
sprÃ¥ k
. \
Ġ) ?<
DI RECT
. %
p ak
identi fier
m om
skri ft
Ġfor ward
dd l
Ġrel ated
Ġin herit
un ked
lay abil
UN K
Ġattemp t
r Ã¸y
Ġtext wrap
Ġche cked
mamas Ä±
g ay
m ili
er iÅŁ
an legg
Ġp ie
ca pi
sig ma
Se arch
Ġdire ctories
an lÄ±k
RE D
ga ussian
Ã§ er
Ã¶z el
Ġhypothe sis
h or
h yp
ar Ä±n
sk jÃ¸
s d
pt Ä±r
olo gi
t p
ĠC S
bul uÅŁ
poly int
disp lay
Ġdete ct
issue s
in dir
Ġex ce
Ġpro gress
cate gories
mil li
literal s
ar ti
fa ces
FF FF
fe asible
ceÄŁ i
Ġsing ular
r as
mo re
Ġno thing
g jÃ¸
Ã¶ v
ra se
ra hat
Ġre port
ĠS upp
Ġcon f
Ġac cord
cache d
sk je
roll back
C V
b ab
i ser
Ġ pe
di ren
ĠI P
mem iz
ca ped
ĠC lass
liÄŁ in
B LA
in strument
Ġcomp utation
le de
Ġre v
produ ct
in clu
ci sions
In stance
Ġtag set
Cont rol
Ġh ighest
(' /
get Logger
Ġ2 1
Ġle aves
las h
Ġassu med
ĠOrdered Set
Ġi ris
di ye
ÅŁ a
Ġexec uted
Ä±la cak
Ġbind ings
( ('
m Ã¼r
un ch
al gorithm
int ent
syn set
. /
ne ut
sa Ã§
find all
g ro
Ġs atis
Ã¥ p
bile cekler
c ar
fy l
Ġaccord ing
a it
ren de
C G
me ÅŁ
ac c
Ġde layed
tri p
Ġout side
ĠTo ken
n ds
ĠAt tributes
f ree
r d
s ine
ĠCon struct
mac ros
f en
haz Ä±rla
simil arity
Ġy i
ĠMo del
m ur
sp er
T UR
and as
train ing
se ek
on ential
Ġf alse
Ġpro cessing
po sitions
dr inks
I nt
s be
Ġop timal
Iter able
M is
b arn
ri de
ate gor
Ġex amples
mal Ä±y
sh ort
b Ã¦r
cre te
Ġcontain er
Ġbound ary
d re
an Ä±n
Ġst eps
1234 567
SK IP
r at
tar gets
baÄŁ la
a maz
ĠE nsure
ho c
Ġac count
in ct
ĠCon t
Com ment
(" _
Ġ/ =
Ġsig ma
Man ager
r g
ĠN ormal
CK S
lin ks
ĠCon text
cont rol
ation al
Ġn dim
Ġtime zone
acka ging
or th
Ġm er
At tr
Ġ $
ra h
ne x
uy ar
let on
c g
yak ala
hat Ä±rla
_ ,<
Ġest imators
33 7
Ġwh ole
Ġtit le
m ik
Ġas array
Ġdi g
ER ROR
Ġremo te
sku dd
al lo
ch i
base name
ful ly
cas cade
D ecor
Ġ( _
uz a
w ay
se quent
velo p
> *
im al
sy l
sy mmetric
ev len
do y
Ä±ÄŁ a
Ġremain der
h Ä±z
se z
pp a
je ction
force list
Ġth reshold
ga z
i mag
n dan
tr s
Ġdi m
yÃ¶ nel
D F
Y M
land s
Ġdepend s
Ġdi vision
poly der
dem ir
K EN
r atio
qu at
Ġst at
du k
Ġad ding
Ġgive s
G loss
t am
le tt
r uk
char set
uzak laÅŁ
r Ä±
06 27
st i
iv ing
. ',<
ÅŁ ir
Ġlist en
M at
mak la
sql types
e lectron
t qdm
ĠDe termine
sjÃ¸ l
. ],
Ġbut ton
dat abase
Ġg c
Ġmulti p
ite ts
**** ****
P AR
in to
ti le
di c
global s
Ġd ry
shape s
connection s
k jen
Ġcon d
Ġpro cesses
ni te
dÃ¼ z
d x
k us
v ander
do laÅŁ
ĠW h
kt Ã¶r
Ã¥r s
6 2
Ġt qdm
Ġp lug
ÅŁ en
V ar
_ )
rep ly
= ":
h alle
Ġmat plotlib
supp ress
il gilen
Ġ2 3
Ġvari ous
U E
Ġ ~
it Ã©
output s
rÃ¥ d
_ =
Ġ queue
Ġ" :
lar s
differ ence
( ",
sey ret
st udi
hab er
Ġdig its
A fter
m ix
Ġb its
__ :<
ub b
Ġsepar ate
Ġread er
ĠAs sertionError
Ġco des
t ual
Ġco mple
Ġlon ger
y ut
ĠD B
sha re
i a
ĠC orpus
ĠR untimeError
Can not
s se
pro to
x s
Ã§ ev
Ä±lab il
kra ft
ver n
Ġen ough
que e
as ure
Ġre sp
ser ted
po se
Ġen tire
Ġinitial ize
Ġwhite space
di rected
ter ing
(' _
ĠendTag Handler
ĠendTag Other
p unct
Ġ( ...)
den iz
5 8
b ere
sp lan
args pec
lay acak
kr on
alg Ä±la
) }
5 2
e qu
ge om
for ret
v Ã¦r
re ise
mar ke
gÃ¶ rev
Ġformat ting
Ä±n tÄ±
Ġx p
record s
Ä±l ma
Ġf val
str Ã¸
gener al
Ã¶ÄŁ ret
ul uk
kap ital
fa z
own er
gra d
Ġcorrespon ds
k inter
lu ft
start Tag
Chart Parser
Ġpre tty
Ġho wever
baÅŁ vur
aÃ§Ä±k la
ine se
br Ã¸
command s
s pecifier
e valuate
n den
"" ,
]) ]<
multi ply
Ġf ig
Ġcomp ress
H AS
in sensitive
men ne
Ġmodel s
w orker
ser g
ko par
Ġvari ance
er kzeug
lic y
Ġemit ted
A A
o la
ay dÄ±
Ġal igned
siz ed
Ġab stract
Ġ }
sk an
siz es
p Ä±r
Ù Ħ
Ġc at
no ulli
Ġv c
Ġdat sp
SV C
bru ks
Ġre com
bal ance
F in
I ST
n it
kÃ¼ l
N U
y ord
us r
f ry
l ge
y ordu
um s
ĠDE FAULT
se mb
en ted
he m
Ġis subclass
Ġ`` [
ĠJ acobian
Ġperi od
lerin iz
Ġiden tifi
produ ksjon
asked Array
R S
d p
m arg
Ã¶ ner
ff e
te ÅŁ
Ġper sist
hist ogram
initial ize
sidu al
pr Ã¸ve
stor age
f la
ĠC all
Ġfast er
Ġpre serve
oper ate
l c
n atur
R el
ĠSe lect
Ġaga in
Ġt a
Ġs in
Ã¶l Ã§
classi fy
Bin ary
su res
N a
bo ok
Ġpre d
B it
in omial
ma ins
Ã¶ nem
input s
sil on
Ġrecord s
_ ):<
in Body
st atistic
Ġse lection
pro perties
T V
u an
Ġn one
Ġp ut
we ets
sm Ã¥l
# _
T ER
d ry
mes inde
is dir
Ġwri tten
v ene
Ġ' ',
m jÃ¸l
te kr
Ġad dition
Ġcandidate s
y k
me ans
Ġblock Vector
lev ant
Ã§ u
ub e
9 2
h ull
mas Ä±na
dÄ± ra
ĠS p
read ing
ĠUn it
Ġregex p
b is
fer ence
Oper ators
Ġdisc rete
etk ile
W N
al igned
Ġst em
Ġex tras
-------- ----
ĠLo cal
bor Ã§
à§ į
ass umptions
ĠA D
) ",
un safe
id retts
par sedVersion
jen este
Ġrefer ences
Ġgo al
S ec
d tr
Ġo uter
ĠC REATE
eng in
Ġreplace d
trace back
ci ty
Ġload ing
Ġprob abilities
olo ji
Ä±nÄ±z Ä±
meye cekler
Po int
rout ine
Ġcha in
ws gi
be led
S NI
lin eno
ki lo
fil m
================ ================
BU G
W e
Re present
ĠB Y
we b
SSL Context
Ġhigh er
son uÃ§
spe sial
x ies
con stant
ĠB ack
ĠV ER
gÃ¶ tÃ¼r
me de
mp t
ok ies
mas Ä±nÄ±
cek tir
W H
ar lÄ±k
Ġa ux
Ġw ild
pla in
som mer
Ġ`` _
]) ),<
ns kap
tz info
yan Ä±l
U sing
tra ction
her m
Ġret val
Ġmu ch
_ %
b ilen
en gth
Ġb ra
ÅŁ Ã¼
Ġfunction ality
karÅŁ Ä±la
O FF
Ġ ra
ce d
con tig
Ġmon th
iz es
iy i
TE XT
tele fon
A dapter
a verage
ÅŁ er
Ġlist ener
remo te
O ver
om s
doc ument
Ġcop ied
decor ator
D rop
k Ã¶r
on y
Ext ension
b lad
Ġc sr
Ġscal ing
Ġdi v
art Ä±r
z ay
con structor
ĠC ore
Ġan aly
ĠU N
mak tay
ĠCom mand
A ll
Ġf k
L inear
f ed
me yi
Ġest ab
request s
kab ul
Ġclassi fication
4 3
si ded
Ġe ar
ĠĠĠĠĠĠĠĠĠĠĠĠĠĠĠĠ ĠĠĠĠĠĠĠĠĠĠĠĠĠĠĠĠĠĠĠĠĠĠĠĠĠĠ
Invalid RequestError
prom ote
Ġis olation
Ġsp line
Ġany thing
Ġl arger
ic s
Ch ild
bind s
sÄ±n Ä±r
Ġb ran
') ),<
sign ature
F e
g ins
Ġdoc string
Ġcon st
Ġinter est
Ġrec ent
o sed
Ġf req
Ġin ts
ĠI O
vi ce
Ġar bitrary
cont ents
k vinne
tr unc
con texts
Ġne ighbors
En coder
Meta Data
x p
Ġpar ti
ĠCh art
Ġf mt
araÅŁ tÄ±r
f art
r m
pe ated
ch aracter
day dÄ±
oper ands
mesi dir
annot ation
E s
Ã§ Ä±lÄ±k
tan Ä±ÅŁ
> ##
Ġse veral
ag a
ult inomial
Ġy ear
oc ket
m iz
st o
Ġb c
ot on
ed in
Ġh ard
lt roid
tut uk
Ġdis abled
daÄŁ Ä±t
D T
re peat
Ä±yor uz
retri es
t ren
Ġbas is
) -
Ġi p
lo m
ut down
pat la
nar ko
Ġ" (
Ġinter n
f ug
l der
ti ties
ul u
ig ram
liÄŁ ini
Ġid na
ver sed
Ġg radient
bir leÅŁ
h int
se vi
om in
FF ile
yoÄŁ un
Ġm id
inst alled
Ġre spon
Ġa m
is in
=" #
EL FFile
ELFFile Header
F unc
p Ã¼
ÅŁ ak
h iz
la us
ve lse
lan mÄ±ÅŁ
Ġ4 0
Ġback ground
predi ctions
Ġf ew
di p
un icorn
cl usters
tra fikk
; \
h eng
ge cik
ut an
Ġm map
SH A
uz laÅŁ
gr Ã¥
Ġperform ance
Ġ ))<
Ġ`` __
5 1
P erson
k b
yam l
giri ÅŁ
c ers
l on
Ġ" ".
INT ER
SI ZE
F oreignKey
Ã§e vir
Ġngram s
Ġfur ther
he im
Ġse m
Ø ª
an cÄ±
te gr
con verter
ile t
lo kal
ceÄŁ ini
Ġin complete
ne ÅŁ
reg ression
mad Ä±ÄŁÄ±nÄ±
e ve
v inter
Ġadd ress
kr ing
f ut
aÄŁ Ä±r
liÄŁ e
Ġset tings
Ġderi ved
er ik
st Ã¥
Ġre duction
Ġe q
Ġin place
ili ÄŁ
Ġqu o
Ġtemp file
Ġtr unc
Ġde cision
ĠIn stall
Ġf ragment
Ġtrig ger
g Ä±
de de
St ream
Ġ[- _\.]
Ġ[-_\.] ?<
= |
P ER
b box
Ġc la
Ġ4 2
Ġconfig ured
sty re
counter ed
HEAD ERS
C all
men iz
] ',
b reak
c ke
di ler
is file
Ã¶r t
ome tric
ĠPar ser
) ``.<
Ã§ Ä±l
RE DIRECT
Ġoverri des
al et
Ġs il
are d
) '
Ġt p
mas Ä±n
sak la
dig its
por a
musi kk
I den
Ä± Ã§
op hase
sa pla
kur um
Ġp ot
ce ed
ĠA ND
, ))
Ġto k
am as
S U
ĠN P
ĠS tr
ĠC ON
sk ra
dan Ä±ÅŁ
teri a
t Ã¸r
ĠCon nection
mi ted
Ġfra mes
âĢ ¢
tw ophase
sk if
extra ct
Ġsy mmetric
Ä±mÄ±z a
>################################################################ ######<
deste kle
cour se
jon s
model s
mesi yle
Ġpre pare
og onal
m v
ke te
D LE
co ver
arg uments
z ik
ti an
ti kler
ĠĠĠĠĠĠĠĠĠĠĠĠĠĠĠĠ ĠĠĠĠĠĠĠĠĠĠĠĠĠĠĠĠĠĠĠĠĠĠĠĠĠĠĠĠĠ
Ġselect able
hist or
. ",
M odule
ĠC P
lap sed
Ġspa ces
vi al
Ġun known
plan e
qu adratic
Ä±y mÄ±ÅŁ
diri l
Ġ" `
at ype
Ġ( ``
Ã¼rÃ¼ l
ad an
s quares
Ġco verage
Ġg en
ĠH and
v x
Ġe fficient
Ġv n
[: ]<
her me
untime Warning
N or
g Ã¥
Ġ" {}
Ġcomp il
Ġmean ing
k val
di ÅŁ
M asc
it ter
uy um
d one
ke le
ĠT I
ĠV erb
Ã¼m le
i on
Ġco re
list s
Ġparent he
variate Spline
b li
es sel
Ġlin prog
iet f
en able
he mati
Ġ`` .
() ]
En coding
ĠNa N
he lse
ir no
spro gram
r ar
ĠĠĠĠĠĠĠĠĠĠĠĠĠĠĠĠ ĠĠĠĠĠĠĠĠĠĠĠĠĠĠĠĠĠĠĠĠĠĠĠĠĠĠĠĠĠĠ
Ġco ordin
ĠO p
a fe
Ġi de
Ġen tities
we et
Ġtime stamp
sam fun
kÃ¶ tÃ¼
sw ap
p ot
di kt
sa f
ĠDE LETE
Ġfrequ ency
si bly
Ã§aÄŁ Ä±r
f ro
NO UN
O ut
Ð ¾
me ss
ect s
bo unded
imp licit
temp dir
h im
dt uple
e ks
ur rent
Pre dict
f ron
pre dicate
ste ms
Ġc are
Ġd bc
Ä±l Ä±
ĠU pdate
CT ION
sj ef
prepare d
pre tty
Ä±mÄ±z Ä±n
crement al
Ġre stri
ci ph
Ġpre cedence
ĠU sing
1 99
= ",
N on
t all
Ġa bi
Ġen countered
Ġsw ap
> [
con stants
mayacaÄŁ Ä±
Ġd ay
Ġback ward
Decor ator
sk om
bi tir
7 2
B i
m le
z ar
ty p
Ġst yle
Ex pected
prog ress
C D
U p
in ted
c in
n lp
ti er
res ol
kont roll
Û Į
sa hip
ret te
Ġmulti processing
wiki pedia
fe m
ga ve
kur s
Ġdir s
p ted
Ġs low
wh ile
Trans action
Ġmom ent
ĠMat rix
candidate s
] :
j el
Ġt ur
min imum
P lur
o i
Ġs l
co st
ĠP Y
w b
ĠM ay
Ġid ent
blo m
[ ...,
g ol
arch y
Ġfa ct
week day
Bo olean
V C
budsjet t
I F
is asjon
po six
ung dom
Mat rix
AR G
for sÃ¸
par sing
od bc
() .<
fe il
Ġprodu ces
bÃ¥ t
Interpol ator
c b
Ġre verse
list e
Ã§ Ä±n
back off
mes sig
sÄ±z lÄ±k
Clo sing
Ġs le
ĠO ne
ore m
cont in
Ġfollow s
lue print
Ġas signed
Ġle t
pri s
Ġ' ''
Test s
ÅŁek il
Indi vidual
state s
li lik
fol k
ret ty
Ġdepend ing
spo li
A mer
return s
] (
or ld
ĠM in
dÃ¼ l
konkur ran
Ġb ug
bil in
hat Ä±r
M ulti
ra b
ho oks
Ġoutput s
N Y
u v
Ġ0 0
ub ar
fit ted
Ġsepar ator
ĠD oc
Ġla yer
Ġinter cept
Ġmessage s
print options
R ITE
S ent
W A
f ayd
con sistent
Ã¼r Ã¼n
Ä±yor um
um ented
inner HTML
A dd
ne de
pre parer
ĠMax imum
en sive
ne te
Ġal ign
variable s
benim se
' m
t ro
in Table
tu ra
5 00
i ver
as ks
Ġnew str
Amer ica
( '<
f ler
ĠĠĠĠĠĠĠĠĠĠĠĠĠĠĠĠ ĠĠĠĠĠĠĠĠĠĠĠĠĠĠĠĠĠĠĠĠĠĠĠĠĠĠĠĠ
Ġm k
Ġdepend ent
Ġpattern s
r Ã¸r
ĠO ver
lat in
read line
transform er
utdan nelse
Ġoptim ization
k up
'] ['
EN D
" '
s ad
al ist
Ġw ait
ma chine
comp osition
Ġconver s
Ġimp ro
k te
ha ust
Ġy ielded
rel ationship
transform ers
mayacaÄŁ Ä±nÄ±
flat ten
ĠB essel
) `
y ab
Î ±
Ġf ul
ot ing
list ener
ĠW ith
B ot
W E
n Ã¼
Ġs cl
Ġvalid ation
de an
is son
fix ed
og ra
f ark
al ty
ul ative
ĠL in
Ġorig in
s ve
w hen
st ol
tr Ã¥
from string
Ġsh util
spro blem
kel vin
Str uct
y ken
la ger
Ġcomp at
order ed
baÄŁ Ä±r
desc r
atom ic
g l
ĠS tep
stan ti
men ded
vari ant
Ġref ers
ma cÄ±
Ġwe ak
IT H
Ġzip file
UT F
ĠMe thod
Ġissue s
sentr al
d Ä±ÅŁ
v iz
Ġm i
Ġcon ditions
([ ])<
() ),<
may anlar
] \
Ġre sources
([ ],
Ġac cessed
kurt ul
e leÅŁtir
me kan
lo pen
index es
i ces
im in
Ġpre vent
Ġmat ched
normal ized
si mp
sk ol
Ä±l Ä±m
categ ory
ĠS tore
Ġla pack
Ġsp li
Ġcomp onent
Ä±la caÄŁ
Ġ{} ".
ĠTime out
ce pts
Ġstate s
Num eric
R B
al dat
ek le
Ġacce pted
> %
pp f
bu laÅŁ
Ġpo sitions
Ġcre ator
: \
f info
g ull
Ã¸ n
sk atte
7 3
ch or
ĠL abel
4 1
d ask
u ch
ge ther
Ġse ries
201 7
imensionality Error
D ir
to o
ĠF irst
ĠO racle
rid den
an Ä±
Ġde vi
ard Ä±m
dÃ¼ÅŁ Ã¼r
Ġfft n
en coded
Ã§ iler
ĠD ependency
I tem
L ink
tra ck
multi processing
f as
g lass
Ġ :<
ve st
pro sjek
inter section
b iy
g us
Ø ±
Ġhand led
ĠValue s
r Ã¶
at las
ĠS y
ĠPro xy
g d
se ries
or er
Ġc c
ĠT ABLE
az al
sph erical
: ,
z engin
Ġst d
Ġnum erical
ku cak
Ġskip ped
quee ze
n ul
le ge
Ġre cursive
ak er
En vironment
j uk
ber t
iter tools
process StartTag
dev set
Un parsedVersion
tran sport
Ġcp u
[-_\.]? [
Individual Specifier
M etadata
Ġp a
kre di
Ġtransform er
V erb
e lek
Ġ` {
Ġ5 00
Ä±ÄŁÄ±n a
gj Ã¸r
di vide
Ġ< /
AB C
fel t
ter bot
sa mp
Ġl ang
be le
exp m
diÄŁ imiz
dÃ¶ k
s Ä±nÄ±
Ġ`` "
und ament
by she
under vis
larÄ±mÄ±z Ä±
Ġcer tain
byshe v
o li
ho uld
format ter
with out
Un supported
mediÄŁ i
Association Proxy
g ider
Ġf lush
Ġma chine
Ġcur ve
sv m
n ivÃ¥
Ġs hift
for hold
en c
ta u
In f
Ġgener ation
66 66
fj ell
C allable
Y ou
Ġpla in
mm utable
Ġappe ar
Ã¼ Ã§
d adÄ±r
as sign
Ġdef ines
Ġco erce
cp u
Ġsimp ly
may Ä±ÅŁ
>@ _
ma ÅŁ
ex clu
tv ang
d um
k je
ore st
Ġndi mage
Ġre pository
set attr
8 2
d as
e mail
Ġp aren
arch ive
bar Ä±n
over lap
zor la
E F
fo und
ho ur
pla y
abile cekler
max imum
ga h
R C
ek sp
serg ile
ĠM utable
i mage
ĠE lement
Ġde grees
Î µ
si yle
Ġ# #
ĠV isual
uy la
sl ut
ĠBy tesIO
] ":
m use
st h
li kten
Ġcon cat
Ä±y ormuÅŁ
ren g
ang le
LO AT
Ġb rowser
kÃ¶ y
Ġ er
se ver
an ded
ce z
wrap ped
bed ri
k ull
ent ropy
ĠP ass
Ġstart ing
Ġcre ating
famili e
i pe
Ġdat asets
Ġqu oted
sev in
dÃ¼zen le
n asjon
Ġ( {
Ã§ ab
Ġr and
NA RY
Ġimp l
sÄ±k Ä±ÅŁ
N K
Ġdele ted
B e
l Ä±lÄ±k
u cli
le bil
ti p
Ġ' #
il ere
ins pect
bar Ä±ÅŁ
er ne
Ġcon j
SSL v
ution Context
ĠArg ument
ĠExt ra
Ġang ular
er ci
ne arest
it t
ar ay
Ġp erson
like lihood
ĠBu ild
L U
Ġper cent
platform s
Ġ" "
ut styr
um ath
se de
he x
Ã¼ t
is o
Po inter
Ġtol erance
Ġcanonical ize
) +
Ġf inite
lÃ¼ ÄŁÃ¼
CO DE
xi ed
Ġidentifi ers
Ġconvers ation
Ġ" ")<
ak sjon
lan Ä±r
Ġ" ==
Ġt ear
sk learn
set ting
ort s
pro c
bil de
Un it
ĠInvalid Specifier
ucli dean
st ro
Ġn lp
sa pp
Ġdo ing
) ;
re y
ti z
ĠL azy
ĠB ad
Ġlin kage
Ġnorm ally
vik ling
integr ate
l m
an imate
der iv
.. ..
Ġso ck
Ġup dated
Ġmp math
o st
in ation
al ter
Comp ute
b f
g z
me tric
ve ster
fi re
Ġback wards
Ġmin imize
Ġcreate s
lim iter
c enti
Ġf d
by gg
0000 00
ĠOrdered Dict
L ength
Ġ ke
ug ate
Ġlin ux
Ġinitial ized
bo sity
CO MP
Co okie
di ctionary
ĠV ariable
Ġman age
Ġali ases
is yon
Ġk g
Con fig
skip s
ĠHTTP S
= ',
O RE
mo unt
url s
kay det
yen ile
l um
n en
s ors
Ø ¯
de cision
ul us
Ġto gether
Ġ`` <
Can didate
gÃ¼n cel
Ġcalcul ated
Ġprefer red
B B
ka de
Ä±yors unuz
p added
5 17
R ow
g ass
fe v
oÄŁ raf
k ik
Ġe cho
set ning
SS IVE
lip sis
tamam la
he def
Ġc atch
time stamp
Ġtra ck
gÃ¶rÃ¼ ntÃ¼
Ġp adding
sy m
gi es
pare n
he ight
Ġn b
li ge
ĠE OF
Ä±ÄŁÄ±n da
TLS v
S chema
ĠN B
ĠP R
======== ====
ĠRE TUR
U ltroid
j ek
y den
Ġe poch
ta ps
12 7
duy ur
###### #<
____ ____
j am
se ter
me ster
Pre dicate
G ES
po sitive
Ã§i ÄŁ
byg ge
k ken
ar o
ex ternal
pap ir
ang ing
Ġd y
pro ton
Lo ader
re serve
ĠP lease
be cer
Ġpo w
mer ge
n r
ac Ä±k
h ers
z et
ma ker
do ctype
bi rik
d ummy
l un
Ġr g
per sist
malar Ä±nÄ±
x a
li ler
Ġas ync
arg max
Ġs ph
ad am
co ordin
app lication
Ġpi pe
à¦ °
={ '
Ġrecom mended
] ))
Ġj inja
gÃ¼ zel
rel ated
bel ge
ĠFunction s
Ġ" *
def er
mas Ä±nÄ±n
match ing
Ġhapp en
ĠVerb Net
n iÅŁ
Ġbe co
ĠNo w
Par ameter
ar ned
lar mÄ±ÅŁ
fo ot
cur sion
tivi ty
Reg ression
ĠS top
ĠB A
en sure
Ã¶ y
len ir
Ġposition al
V ariable
u ma
Ġ licen
Ġf struct
man age
dat aset
ih ti
Raise s
Fa iled
> ',
g ene
Ġf our
un signed
op tim
Ġma ppers
medi k
ĠSt art
Ġdescri bed
Ġover ridden
Ã¶z en
pl ug
Ġexten sions
mÃ¸ n
c am
} (
Ã§ ilik
ĠE rror
Ġsmall er
be ÅŁ
Ġro ll
Ã¶r tÃ¼
auto commit
fot oÄŁraf
Ġi mage
un defined
sc roll
k lar
Ġfall back
ĠIndex Error
r ates
me meli
Ġr cond
sk er
Ġme th
ON E
S ami
li vs
Ġ' ')<
ĠTest s
mem map
Ġ(? :<
ada pt
NotFound Error
' },<
P O
P latform
f las
Ġi i
ha fi
Ġin dependent
ent ran
A LI
py plot
col lect
we ighted
Ġevalu ated
" [
> `<
P os
er ke
ne ed
ĠA b
Ġsimp lify
remain der
Ġde clarative
ren der
Ġsen se
6 9
ÅŁ ey
len ame
Ġfa ctory
Ġcommand s
cho ice
gÃ¶z lem
ava ilable
STR ING
' }<
in line
der in
ft en
ali ases
Ġb i
par a
([[ -
collection s
CA SE
Ġexp m
Pro duce
y ok
and Ä±ra
bir d
Ä±lab ile
ra ble
Ġm icro
kar a
ĠIO Error
i la
k vel
ĠF ilter
da pt
be vis
Ä±y Ä±m
bil gi
Ġreplace ment
Col lection
C a
bu s
Ġint ro
Ġiter ate
cre ator
ĠUT F
Ġget ter
kur ul
Ġstruct ures
dis connect
ĠAd ded
ue s
ĠF unc
ĠHel per
Fin der
A C
E ST
al f
ya ma
local s
yas a
` ")<
Ġb p
ĠC li
mis c
laÅŁtÄ±r Ä±l
) (<
. )
ure n
Ġbegin ning
d sel
n iyet
Ġp d
ĠC alcul
ĠEx p
Ġbu ilder
} .
Ch unk
chat bot
Ġ'' '<
[ _
ma ppers
ss ystem
Ġbackend s
forsk ning
Ġnet loc
Ġseman tics
g iven
Ġcon v
mu h
Ġstruct ured
ĠBo x
h idden
ac tions
ist ik
Ġag enda
8 1
Ã§aÄŁ r
T RA
Ġt ask
yayÄ±n la
redu cers
g ran
ri des
ĠS pecifi
b Ã¸r
e li
f old
g ere
h ard
s ci
Ġwe ek
Ġcol type
temp t
off sets
I nput
a uthor
Ġsy m
iter ator
liÄŁ ine
Ġfit ting
kaÃ§ Ä±n
Ġapprox imation
Ġwin reg
f struct
over flow
... ]
cheb int
lad Ä±k
Ġoccur red
ÅŁaÅŁ Ä±r
te de
") ),<
tÃ¼ re
ĠMat hemati
H ist
u tem
Ġ" #
from roots
tt ene
ĠG ram
non lin
( ("
m Ã¼n
is finite
RE QU
Ġown er
V alid
te te
Ġs moo
ĠE st
Ġme mo
DE BUG
larÄ± dÄ±r
) ;<
Ã§ ap
Ã¸ kon
po ses
ĠB utton
ake s
h m
er noulli
and Ä±
lan a
Token s
Ġsquare d
Ġp g
si y
Ġ[ ],<
Ġpro of
tt le
sikker hets
A V
U L
hare ket
Ã§ Ä±r
rom an
args ort
gorith ms
N C
ex pi
disp ose
belir le
Ġtar gets
Ġeigen values
at ter
Ġdecor ated
Ġtre ated
Ġim medi
D ependency
f ta
ma cy
ĠM ust
ĠM arkup
Ġlin ks
' ",
le st
li yor
so ck
ĠString IO
sth rough
se te
ĠS ession
so cks
fer dig
alar Ä±
in ti
le ie
Ġc sc
ol ate
>> >>
Ġcon ne
ĠS hould
Ġch i
rag ged
Ġfin der
ĠAS CII
Ġspe ed
ul y
am b
code Error
Ġdiffer ences
Ġblock s
> (
b p
d iniz
Ġg old
per io
ay Ä±
und ur
Con st
i dir
re ason
assert Raises
cul uk
D ate
Ġcon flict
aran te
p ur
ub ic
bo lig
j Ã¸r
ĠP latform
pre vious
mes in
/ (
I C
V B
Ġin serted
ver lap
sc an
Ġorder ing
far ge
Ġcombin ation
Ġt ex
Ġp k
li ces
Ġe mbed
Ġth ings
sp en
bes le
A ni
b z
de coder
Ġc ip
Ã¸ ye
(' %
Ġv end
fab ri
ĠFunc Data
Ani macy
s Ä±y
Ġc um
Ġlin eno
ince le
ighb or
({" [
V o
Ġd ynam
Ġ& =
Ã¼ s
do f
np y
ĠX ML
can lan
Ġcontext lib
\ "
n ist
z o
ar ily
th at
ard Ä±
ku v
Hel per
Ï ģ
Ñ Ĥ
Ġt asks
ti t
Ġm ime
der t
pec tive
produ ctions
stit ute
m Ä±z
p acked
Ġre levant
suz luk
kost nad
+ )
co o
ĠĠĠĠĠĠĠĠĠĠĠĠĠĠĠĠĠĠĠĠĠĠĠĠĠĠĠĠĠĠĠĠ ĠĠĠĠĠĠĠĠĠĠĠĠĠĠĠ
ev en
lÃ¸ p
ar z
al ways
Ġp hase
ver gence
it a
ĠA fter
su med
har ca
centi le
le ver
Ġp h
ord ning
sub dtype
Ġb a
to list
et t
[" _
c ross
l ut
ca ption
sÃ¶ y
Ġconstruct s
Bu ild
yÄ± pr
Ġdo g
ĠR O
mek tir
Ġcalcul ate
7 1
k Ä±ÅŁ
re li
Ġs he
fayd alan
Ġh ier
struct ured
ĠT ry
be handling
abile cek
aff et
Ġb lueprint
radi o
ac cess
Ġun defined
ik ke
lay acaÄŁ
n ab
fi xture
Ġme mbers
form s
ko lay
ĠR andom
cep hes
s lash
u do
Ä±l maz
enti ally
ED GES
biÃ§ im
m r
n di
Ġ ':
Ġoper ands
O ne
=[ [
Ġsh uffle
Ġext end
mot or
re cursive
Ġex pi
is ing
am Ä±z
lÃ¼ kler
Ġlocal s
Ġconven i
ke st
Ġde scriptor
jo hn
D imensionalityError
s mo
s queeze
Ġs cope
Bu ffer
al ign
stit ution
spÃ¸r smÃ¥l
ĠL O
ext rap
Ġso ft
sent ences
'] ))<
RO P
mad Ä±ÄŁÄ±mÄ±z
kÄ± pÄ±r
self Closing
lin je
rec tive
fir ma
search sorted
classi fier
Hel lo
"} ],<
h ug
__ ',
Ġ_ <
bu k
serial ize
undament al
f jern
Ġw ave
ri ks
Ġdi gest
list dir
> ----------------
Ġpro d
ĠB as
Ġproper ly
c ard
str ate
Ä±c Ä±lÄ±k
I R
r ut
ĠH AS
Ġinter sect
split lines
lÃ¸ nn
iniz in
Ġthread s
engel le
Ġ" )<
ame t
ĠE L
kap at
Ġprocess Characters
Ġab c
bro yden
Column Element
serial izer
yors unuz
ĠSO CKS
B ad
p lass
ĠP os
Ġtran spose
mom ent
S ystem
de ps
ct ure
Ġpro ver
ec ted
Ġorder ed
al der
Ġu ow
ban e
U ES
` )
'] ])<
AL LOW
Ġcre ation
Ġprodu ctions
g de
Ġs q
Ġdo cs
)) )
Ġsp l
pop ulation
ind ptr
Ġ| |
view s
gul an
sÄ±nÄ± f
g il
k ot
re late
len miÅŁ
lik te
à¦ ¨
coef s
ĠMapp er
d ll
an sk
is s
aÄŁ la
Ġindex es
multi ple
fel le
hjel pe
Ab stract
S cheme
z il
as je
fi dence
Ġde c
Ġtmp dir
dikler i
D ER
] "
de dir
mas Ä±ndan
inal g
v Ã¦
as a
get refcount
Ġma king
)) ))<
Ã¶z gÃ¼r
Ġglobal s
] ')<
f u
g on
order ing
Se e
bah set
p ul
in ize
ut ter
ad s
bran ch
he ye
Ġo mitted
Ġin stanti
lar daki
im ates
ting ency
fa ils
Ġtrue poly
identi cal
nÃ¦r ings
p il
(" /
user s
ar ith
Ġa dapt
Ġd ual
ver b
vi ded
Ġapp lies
AT CH
Ġequal ity
larÄ±mÄ±z Ä±n
an ak
Ä±m Ä±n
ik at
tax Error
sa g
yap Ä±ÅŁ
cli ck
yum uÅŁ
m map
w indows
ar ab
ĠUn defined
uplic ates
Ġ ary
en um
Ġde al
Ä±k la
lerimiz i
> )
M B
Ġfor ms
add r
mi te
Ġacce ler
Ġdete cted
Ġst orage
it able
rel ations
ĠA lig
sin ir
dat sp
Test Case
specifi ed
as Ä±na
Ġin sp
fo od
data State
RE F
tÃ¼ ket
Ġcompare d
Ù Ī
st opp
Ġthe ta
lÃ¼ ÄŁÃ¼n
gra v
prob abilities
sha ke
> ...
f compiler
ms vc
ĠR FC
log ic
Ġrelease s
re verse
Ġc ap
ay a
cur ve
Ø§ ÙĨ
S o
Ð µ
in herit
ĠS ci
diÄŁ im
Ġref lection
BM Model
ar ge
Ġl inalg
gÃ¶ re
SS ION
eff ective
anti le
C ER
Ġc s
ĠPar sedVersion
Ġtime delta
exec utor
Ġtrans formed
rep ared
* \
Ġre pla
Ã¸ k
EN DS
- %
d andÄ±r
n ur
p sy
ler deki
stÃ¸ tte
yu var
Ġp in
state ments
mÃ¼ l
makt Ä±r
hÃ¼ kÃ¼
ĠS T
do b
ĠH ere
tek ts
Ġfail ure
Ġcoun ter
Ġconstru ction
Ġbran ch
b ing
st al
gÃ¶ k
enti ties
w ski
ĠS how
per cent
Ġma pp
o de
s low
Ġf ir
var me
Ġcom bine
jer ne
complete Read
OP EN
ĠUnit Registry
: %
E G
ar ÅŁ
te ater
Ġ: :
Ġst ar
bu ilt
met re
best em
Ġevalu ation
menne ske
A d
d ans
j ak
me mesi
Ġe asy
__ ":<
am erik
Ġen er
Ġimplement ations
F ORM
d de
p he
ko wski
config ured
Ġrout ines
velop ment
utem any
S C
f ur
w i
Ġe or
il led
Ġover lap
Di rectory
Ġintern ally
Ġo k
ÅŁ it
(" `
Ġme dian
ho v
mas Ä±yla
ins an
gen Ã§
> ".
re lse
context manager
Ġder phi
AB I
Ä±ÄŁÄ±m Ä±
doÄŁ ru
ane se
yarg Ä±la
Ġcla uses
haust ed
w hat
Ġre ally
ver ne
sm irno
Ġprocess EOF
fis ker
* ,
c up
at ched
he byshev
Ġa mount
ĠH e
li ers
meler ini
ge ometric
ut vikling
ĠF E
Con verter
inter es
ret ro
BA SE
cla uses
lo gical
ke si
ist en
Ġmem map
Q P
Ġs vd
Ġcon version
ren k
sig ort
nor mp
ĠSecurity Const
Ġ Qu
Ġf ron
Ġsu c
her its
Ġgu arante
Ġweak ref
5 12
i ved
Ġt ab
Ġst and
do es
ay ar
Ġac curacy
) ``,
se lector
pe k
Ġp df
kon um
Ã¶z deÅŁ
Imple ment
Ġprob ably
si v
no se
jen est
run time
cheb val
cheb fit
Ġderivative s
c ryptography
e me
jo int
min ute
ii i
b its
Ġ ^
re sp
Ġ( `
ss ql
Ġcomp uting
N PY
k ent
n is
ne y
Ġh ol
'] [
Ġoper and
Ġindex ing
ĠSQL ite
leye bil
Ġ 99
man ifest
call s
ate ÅŁ
Ġz he
tan Ä±mla
Ġproduce d
Ġpie ce
Ø ¹
Ġs cor
sk inn
og le
omrÃ¥ de
Ġsil ent
t uk
er tificate
ra z
ke de
ha i
str Ã¸m
be ve
ĠV er
Ġprop agate
F it
imiz den
kk ing
Ġq r
Ġsle ep
d alg
f rozen
y ormuÅŁ
con flict
to g
yak Ä±ÅŁ
dag s
ĠN N
ha val
Ä±ÄŁ Ä±yla
aÅŁ aÄŁ
skri ve
pt p
larÄ±n daki
ĠSt andard
, ),<
g uess
st ere
as pir
pe p
ĠS yn
Ġlength s
eÄŁ len
simple filter
-------------------------------- --------------------------------
bÃ¶ lÃ¼
e ti
e very
f lask
sel am
ac Ä±lÄ±k
su ch
Ġgener ally
Ä±s Ä±r
Ġregister ed
Ġhapp ens
. ,<
W S
che by
po licy
ya vaÅŁ
Ġbase name
lerin deki
run ner
ĠColumn Transformer
PA SSIVE
FI EL
dele ted
Ac tive
! ")<
M atch
Î ¿
one l
dest roy
roy den
d ro
h Ã¼r
in si
ad just
ka ÄŁ
laÅŁ tÄ±ra
Ã§i ft
Ġlicen sed
G ET
de layed
ÅŁ art
ma da
ut valg
tem iz
sh uffle
Ġlevel s
Ġsimilar ity
disc rete
ati al
Ġco me
Ġde coded
al tern
Ġf ont
Ġre du
co gn
Ġan ti
Ġoccur ren
p m
Ġf prime
ĠRe gex
Ġwe ighted
sub dir
malar Ä±na
Ġsa ved
J ohn
t Ã¥
err state
spe ed
sec ure
' ))
Ġf ree
Ã§ oc
may Ä±n
baÄŁ daÅŁ
t body
len de
ans Ä±z
lin ker
mad Ä±m
arbe ide
Ġbuild ing
AS CII
imz ala
C U
h und
Ġx id
Pro cess
mu la
kit ap
3 00
S ign
Ġp ay
ce za
Ġha ving
tÄ±r man
FF T
Ä±yor sa
tuple s
S ize
Ġf am
ay Ä±m
leri dir
TH ON
]] ),<
ĠPy OpenSSL
Ġhy brid
Ġcluster ing
Ġrot ation
Ġannot ation
g c
in el
Ġcon caten
der ing
ir y
Ġtran sition
Active FormattingElements
ri c
fi es
Co unter
Ġhe ight
mut ation
Frame set
W ith
h stack
m se
y ardÄ±m
ĠS parse
Ġor m
dÄ± lar
Ġcom ma
bind param
c nt
le i
pro ps
HTTP Exception
omin ator
in at
an ne
me trics
tion ed
ut c
pro of
kl ubb
mÃ¸ te
[ (
m im
ke sin
qu ential
us h
sor gula
imp urity
deg C
g nore
n att
y alan
Ġre sidual
ÅŁ am
cal led
Ġpar ses
si dir
Ġ3 1
lab il
net work
Ġincre asing
zay Ä±f
i al
s ye
Ġt y
di stri
Ġfor cing
tr Ã¸
Set up
yap Ä±
Ġnor med
e yle
ac cept
be in
Ġsy stems
diÄŁ ine
frameset OK
j ev
se le
Ġp assive
ot stra
Ġind ptr
Ġflatten ed
On ly
r fft
s Ã¸r
s Ä±ÄŁÄ±n
um ut
mÄ±ÅŁ tÄ±
diÄŁ iniz
Le vel
virksom het
he il
Ġre p
tr on
ĠUn supported
Ã¼m se
sp re
Ã§ Ã¼rÃ¼
Ġtre at
Th read
B F
U pdate
Ġe ager
Ġsub set
og raf
ĠCon nect
Ġchat terbot
Ġ ultroid
Ġp andas
ha ge
ĠP retty
() `
app arat
ĠG roup
Ġrot vecs
micro seconds
he sapla
Ġpre served
mamÄ±ÅŁ tÄ±r
B Y
O UT
j ub
Ġp atch
Ġm ut
sk re
ded ent
bileceÄŁ i
Ġseman tic
M MA
x e
comp atibility
Ġ< <
Ġdat atype
sm Ã¸
ite cture
ez ber
Ġspecifi cation
Pro ver
Ġconver ter
att ach
cla red
C alled
f lex
w el
on ce
Ġsub query
'] )
ĠEx pression
h id
p unkt
ha ve
arg min
qual ity
by gging
Ġextra cted
skip if
okup Error
w ind
an larÄ±n
sel ves
Ġimp orted
bound ary
aydÄ±n lat
hjem me
Ġimmedi ately
k ka
v ill
al p
ati f
ye ÅŁ
mb ig
Ä±nÄ±z a
Ġconver gence
Ġc fg
ve kt
ment al
ta j
olo j
ĠID NA
bu st
NG E
ba ke
rup t
bran n
f Ä±rla
co ÅŁ
Ġ: ]<
ĠP RO
tem izle
ss ue
asjon er
Mis sing
Ġener gy
) ``<
Ġ' (
Ġd raw
Ġof ten
ĠS U
con ne
Ġx s
Ġimport lib
til legg
vari ances
Type Engine
EN SION
Ġqu ad
Ġfra ction
se en
le gging
si der
ĠSt ream
pro fes
mat ches
ĠC O
be z
Con nect
gj el
ĠGener ate
F ilter
g ate
Ġde coder
su me
Ġrece ive
p late
s Ã¥
x or
in vester
re quired
Ġy b
ba seline
replace ment
//////////////////////////////// /<
ank Warning
marke ds
re construct
an lÄ±
pair wise
Z ip
[ <
_ :<
or ph
ĠC lause
Ġ{ {
ss y
process ors
Ġerr no
spil ler
O US
Ġre peated
ok ul
leÅŁ ti
eg ative
IG U
yÃ¶n lendir
r strip
al ker
tri vial
men et
Ġbot tom
c pp
Ã¶ f
Ġother s
ĠDe cimal
bru dd
9 1
t Ä±n
ha f
end re
mÄ±ÅŁ tÄ±r
hÃ¥ nds
mix ing
ĠAb stract
F ri
F LOAT
W ITH
v ning
as ker
Ã¸ s
baÅŁ kan
ro gram
un ary
tr uth
Ġde ci
Ġpoly val
AN D
bru ker
Ġtermin al
extrap olate
E E
w ol
Ġ jobs
(' -
mal loc
red det
** (
F lask
he y
Ġe mail
ci ÄŁ
sen ce
ĠH ow
Ġconfig ure
sal dÄ±r
temp orary
any array
div mod
hÃ¸ st
deli tem
S parse
ses len
dat asets
ÅŁe hir
onay la
Ġful ly
reg ne
tig het
ÅŁÃ¼ phe
) ')<
T emp
Ġt f
Ġn a
Ġapp lic
uture Warning
ĠMe ta
klas se
t head
t foot
ur lopen
ans var
Verb Form
> ,
d Ä±n
p ackaging
Ġn s
Ġm ix
po z
sy ns
Ġgener ates
sj uke
n m
t uÄŁ
st ur
te ts
is hed
Ġd ummy
Ġcon tiguous
ĠM IN
tra cker
bin om
Ġprocess ors
h om
at Ã§Ä±
pp c
Re cord
cur ren
mÃ¼ te
prefix es
thread ing
D R
g iv
ul ename
ther n
land Ä±ra
Ġlike ly
Ġprevious ly
meyeceÄŁ ini
Ġob serv
Ġwri ting
um mary
Ä±l Ä±ÅŁ
may abilir
Result Proxy
n od
Ġdi stances
(" '
== =
Ä±l Ä±ÄŁÄ±
ste ps
kj el
A fri
P ORT
[ ...]
g um
Ù ģ
te pe
lit ter
semb le
marg inal
Ã§Ä±r p
A MP
Ġs lices
ĠS R
Ġl st
ĠNo de
Ġdist fn
yan aÅŁ
Ġhttp lib
ĠPoly nomial
mik ro
otstra p
2 34
M em
ne tt
Ġ2 6
Ã¼r k
Ġest imated
liÄŁ inin
sÄ± Ã§
a po
s Ã¶n
v og
Ġ Ð
st Ã¸y
te kt
di y
ĠI NT
Ġst arts
get state
so sial
Con struct
G ER
l Ä±ÄŁÄ±mÄ±z
set t
RE MO
over rides
request ed
Ġchar s
Exec utionContext
ĠRETUR NING
l f
el y
Ġare a
regex p
ĠVER SION
B ind
R untimeError
al am
ex amples
hel lo
gen iÅŁle
ĠPro b
LA S
A ES
L azy
le z
Ġallow ing
yorum la
pipe line
D oc
P lease
si p
Ġfor mula
Ġ{ !
Ġarg v
fin der
)* (
ceks iniz
mili t
Hist ory
l v
} '
bileceÄŁ ini
din len
w idgets
se ks
ÅŁ et
ole sand
dig it
pid gins
cut off
Cre olesand
Creolesand pidgins
Ġs amp
ce back
ul uÄŁ
ĠP ackage
trans formation
sit u
ali ased
Ġeig BlockVector
karak ter
f ang
Ġre versed
ĠB in
tra verse
ko z
yi ci
cum sum
ĠCF G
Ġi ds
co pg
qu oted
ĠD on
copy right
dev let
Ġcho ice
ĠReg ression
M IN
c Ä±k
t rom
t ning
in o
si lah
ak Ä±l
am ing
ub a
den tial
sen de
su bj
Ġsy mbols
by rÃ¥
boÄŁ az
METHOD S
ĠMapp ing
ĠPR ON
Ġs che
Ã§ ala
ĠE X
sy sv
Fa il
MO DE
Ã¶ dÃ¼l
np ack
ay ak
Ä±s Ä±nÄ±z
lerimiz in
C M
Ġlower case
E vent
t Ã¶
ti fier
ac ing
id di
ĠE XT
Ġh ad
ig het
gr un
mel ding
iÃ§ er
Ġpop ul
Ġ//////////////////////////////// /////////////////////////////////<
I s
N ew
g is
p ast
ra pp
ate t
Ġimport ant
__( *
Ġset ter
Ġoption ally
gÃ¼ lÃ¼m
IG NO
CON F
Gener ator
" }<
ri st
ser te
Ġd ge
es s
ĠE d
stri de
neut ron
) [:,
. '<
se udo
ser vice
Ã¸ mme
men ter
doc test
check first
asjon en
asjon ene
kat lan
L in
Ġm arg
ĠP rint
ATE G
Ġinf inity
8 54
: ].
t j
en sor
st av
as Ä±z
Ġco o
ber ed
Ġcode cs
User Warning
ĠCalcul ate
) ',
m Ã¸r
Ġn x
Ġa ble
un link
bo ard
ran g
lu kt
yas al
rot vec
big ram
Ġcycle s
' }
M ore
ve ks
Ġlo ck
ĠRe quirement
AT T
Ä±ÄŁÄ±n dan
tan ford
gen el
sÃ¶ mÃ¼r
ĠHTTP Error
Ġinterpre ted
F loat
ur al
iz ing
Ä±ÄŁÄ±n Ä±n
Ġrel ations
net loc
Ġcli ck
]+ (?:
At tributes
Ġinstall ation
sÃ¼rÃ¼ kle
Ġcir cu
Ù ĩ
Ġin finite
Ġ' *
bi bli
AR M
bul k
FI X
Gloss ary
m ust
le lse
ti tre
il ds
ad ay
res ses
kw ds
=" %
LE MMA
ĠAl low
konkurran se
J ar
re h
le xi
co ord
Ġth ough
ĠM Y
Ġsu itable
abe tes
Ã§oÄŁ al
_ (<
iz ers
ĠE ngine
sk il
]) ),
produ ction
long double
tas ar
ama Ã§
>######################################################################## #######<
Ġcut off
p Ã¼r
Ġs ge
ot o
ĠT akes
Ġpro c
ĠM em
Ġnew er
Ã§Ä±k art
rin kage
disc ard
Ġpredi ctions
m org
al andÄ±r
ti ci
Ġor d
Ġqu adrature
indi cator
bind ings
Ġ ?
Ġ: :<
Ġl ate
ĠM ac
ĠV AR
Ex pr
mark ers
Do wnload
Ġhost name
Ġiniti ator
S PE
ĠS kip
vir tual
dist inct
sat is
rast la
c atch
l st
ad aÅŁ
ĠA uth
" ))
F DATA
S ource
b ort
Ġ gets
Ġde ep
col group
ogra fi
M arkup
s jo
w as
Ã¶ ld
key word
ump ro
'] ),
Ġtemplate s
ĠMathemati cal
C LASS
n atural
ra ppers
Ġin strument
co verage
ic ket
Ġmulti params
kav ra
mediÄŁ ini
Ġconstru cted
] **
si a
def s
ch ol
Ġde t
kon ser
LO CK
larÄ±nÄ±z Ä±
. ),
_ ))<
c python
g li
} '.
ge len
ĠR andomState
Lo ad
ud ent
sah ne
( ',
= (-
k od
u str
lÃ¸ nns
To ol
liÄŁ inden
last ic
N ull
h Ã¼k
Ġdialect s
Ġexec utor
meyeceÄŁ i
Gener ic
IGU OUS
E lse
h vit
r fc
Ġre entran
Ġth ing
us u
LI NE
kal e
Ġrefer red
Ġder iv
anti les
Ġserial ize
Ġw s
ĠF FT
Ġpro xied
Ġres pective
reg round
tan Ä±m
Pro tocol
kol on
Column Operators
Ġconsist ency
Ġ Query
on update
as hes
ĠS NI
from s
ĠR un
maz lÄ±k
retro flex
w alk
ma mak
so sy
suÃ§ la
Fe ature
IGNO RE
A ction
T emplate
ant en
tab lename
fÃ¸ l
ĠElement Tree
kuv vet
Ġs izes
00 01
Ã¶n gÃ¶r
Ġcho ose
Ġidenti cal
" %
J J
W indows
Ġ ]
Ġb las
con vers
Ġl mbda
ses s
MA P
oy un
Ġbuilt in
vek st
Ä±yors un
b unn
Ġw on
sk op
sy mbols
yi tir
Ġfit ted
Ġfilter s
y Ä±rt
Ġs itu
Ġe as
ĠS ET
ba st
Ġinitial ization
Ġ12 8
egacy Specifier
Ġ} }<
o od
lo ky
Ã¸ p
Ġrun s
meler ine
9999 9999
udi o
| |
ci m
to ks
kt Ã¸r
Ġman ually
ĠLI MIT
eÄŁ it
mey iÅŁ
Ä±ld Ä±z
i var
Ġ uri
Ġpro cessed
ze hir
fft w
Or dered
R un
b m
er tele
re str
Ġnot ation
Ġy data
gra de
maz lar
mamÄ±ÅŁ tÄ±
K G
x c
Ġ" ",
ken de
ik ti
Ġz ge
classi fication
ĠDo wnload
Ġre li
Ġa gg
ol gun
ent ries
Ġg ra
Ä±l da
over write
malar Ä±nÄ±n
fun ksjon
Ġmapp ings
li fied
set state
ĠL ink
ĠW ill
li on
ÅŁ if
ut s
ag ent
ĠO pen
square d
Ġcum ulative
id en
am o
Ġno ise
ump s
kabul len
h Ã¥r
ĠS V
Ġco s
kur u
ng lish
44 0
uÃ§ ur
f ran
Ġs ur
enti cate
Ġdecor ate
fot ball
CONT IGUOUS
Ġcircu it
Ġs can
Ġlist ed
doÄŁ ur
final ize
BI NARY
D Tree
F old
O ffset
_ `
g Ã¥r
} "
si cal
lat eral
Ġpr inted
may la
Mo de
dikler ini
O pen
an er
Ġsu bject
ach ing
Ġsource code
Ġob tained
vn class
bilin Ã§
] .<
d raw
ĠA p
ka f
Ġcheck first
uy uÅŁ
baÄŁ lan
yay Ä±mla
fin ans
Ġrender ed
= ["
ÅŁ u
Ġcon traction
bu gging
stan ford
Ġlo oks
vars all
Ġpri mitive
Ġc ge
ĠP P
im den
Ä±k lÄ±k
Ġle tter
uy du
ep hes
Pro vides
oper ation
PI PE
cer ts
f arts
Ġ lag
Ġo lder
gi fts
'] ),<
remain ing
sk ur
Ġpro jection
iy ors
Ã¼ÅŁ Ã¼
eig en
arith m
Ġp en
Ġsub tree
Ġindex ed
nal y
under sÃ¸
kÄ± skan
organ isasjon
3 86
k ve
r dt
Ġw arm
Ġfile system
Ġac cum
Ġper sistent
sak in
kont rol
BO SE
z ul
le dge
kw s
lÃ¸ n
TE D
vid ere
boÅŁ alt
STR ATEG
Ġmag net
STRATEG Y
F D
c mp
h Ã¸r
on a
ÅŁ ar
sk ar
Ġan s
ĠV alid
num mer
FF SET
Ä±lmas Ä±
s dist
me st
Ġd uplicate
ĠI mp
ed om
con s
ĠM askedArray
Ġmo ved
back ward
Ġlin ked
yay gÄ±n
pattern s
setup tools
bund le
Ġpro xies
ses ong
hi er
VER BOSE
AP P
Ġconven tion
cke ts
pre view
mar ks
ĠR o
Ġ8 0
fest e
Ġmagnet on
' "<
s dk
in complete
re si
LA GS
go al
Ġequ ation
Ġcl usters
Ġcomp arator
lay Ä±ÅŁ
Ġtrans formation
loc ations
yal Ä±
ska de
ĠGener ator
Ġorth ogonal
an cy
de vi
he sap
test e
den et
Ġnew ly
level s
88 59
1 0000
H S
y Ä±ldÄ±z
sel y
mal a
lat t
Iter ation
lis hed
nas al
" (?
al ko
Ġre peat
Ġw indows
ma ster
([ ^
Ġhas hes
Ġover wri
Ġtrans lation
Ġview s
Ġpri vate
m ir
s na
ĠC hat
ly d
kon sert
cor relate
sal t
Ext ra
Inf inity
L Y
c ere
e mbed
s for
pi e
yet in
true div
fre ds
ĠSp lit
ndi ter
john son
c ad
m uk
mat erial
pre fer
miÅŁ ler
ibr ary
y es
Ġa st
ver en
alar Ä±n
Value s
tekr arla
[ ^
`` :
00 000
den etle
ĠLinear Operator
e sir
n z
pe er
pro ver
rec all
Ġprefix es
En tity
Ã¶rgÃ¼ t
a ur
al ph
pe z
f ragment
n ord
st ok
ma ma
Ġk not
process EndTag
sm id
ĠPro tocol
Ġignore EndTag
Ġs im
di stances
Ġcon ditional
Ġ2 7
mi tian
sar s
` :
li z
est imate
mas Ä±nda
iler den
Ġcall er
mod ern
deÄŁ in
std lib
sw itch
dip lo
ALLOW ED
( .*
I V
se cu
di mensions
bil me
Ã¶n le
leg ge
kam er
Ġstrict ly
chan ics
secu tive
2 10
8 90
ME T
bo olean
Ġ{ })<
Ġpick ling
pick led
C ould
r ute
and an
Ġnp t
ek t
sl Ã¥
Ġgo ing
Ġhash lib
Ġlarge st
G ram
] ")<
x C
Ġde precation
gÃ¶ m
Ġmodi fier
dr s
ĠBase Estimator
REQU I
e ep
Ġ( ?<
ĠI mple
con trib
Ġpo six
Ġobj ective
Ġdisc ard
ĠCP U
M ax
on ar
__ ):<
Ġex ternal
lÄ± lar
e uler
or a
Ġm ul
sp eri
Ġun expected
Ä±y Ä±z
com ing
fÃ¸r ing
CER T
Ã ´
de ep
Ġd ays
Ġ' @
Ġ1 99
cal c
Ä±l dÄ±k
uÄŁ ur
Ġtit les
nod ot
R UN
T ran
le arning
Ġb lank
Ġne arest
fil led
go od
ND Array
Ġlisten ers
C ell
M icrosoft
h ind
Ġt w
ex tern
sk jer
() '
reg jer
my n
spa wn
Ġapprox imate
Ġep silon
6 1
st din
li ye
ab art
im le
ya v
yol la
ĠCont ent
h ac
o in
Ø ³
Ġe ye
Ġ""" *
ch in
ch ron
ch unks
per m
kap as
ned Sent
ĠCallable Operator
Ð °
or ke
Ġf er
li l
ge ce
ste mp
man ner
med lem
Ġcri teria
My SQL
kÃ¼Ã§ Ã¼l
ĠAp ache
B utton
s ult
ro wn
is digit
ĠI s
). \<
ay arla
ĠX t
vo ice
Ġsig ned
kalk Ä±ÅŁ
eof s
x d
ci p
Ã¸ st
ĠP O
ag g
:` \
Ġal gorithms
ger i
Ġtry ing
trans lation
ling er
acaÄŁ Ä±
ĠZ ero
Ġcho sen
Ġexce eds
ForeignKey Constraint
6 86
D K
e ager
k vit
} `
en abled
Ġe c
ch ole
set te
Ġvi si
]] ).
\. [
leÅŁtir me
chole sky
re en
en u
Ġp ack
sk ott
Ġun bounded
ĠB U
Ġsec ure
ced ent
swap axes
de bat
Ġ# ################################
is subdtype
ĠS ocket
imiz de
cs v
produ kt
IGNORE CASE
F A
k ket
Ġ ri
ma ps
ĠT arget
ĠM ARKER
ĠL E
mas a
Ġcom mit
en coder
st am
ch a
for k
ka ya
sm Ã¸r
UN CT
tek st
skj Ã¦r
>######################################################################## ######<
C hi
p kl
s Ã¦r
Ġe vi
ya h
UN I
k omite
l ular
Ġre start
ci an
Ġg unicorn
pre computed
ĠL ike
ref lect
cre ated
ĠTra ining
L abel
p li
s ut
ar ing
conj ugate
C ategory
z ir
Ø ¨
ĠC OM
ĠLA PACK
W OR
c wd
l strip
ĠC hebyshev
ho le
be handle
new byteorder
kan un
anlar a
fart Ã¸y
C opy
or ks
Ġp at
li an
li gg
__ '):<
ts ym
Ġsp acy
kan a
ĠRequest s
keÅŁ fet
syl lab
S cript
k ilen
log pdf
cision Tree
Ġdir name
Ġcalcul ation
dential s
st ig
bj Ã¸r
ĠB ut
ĠO ut
tom Up
ĠBase Exception
prop agate
S erial
m ol
Ġre str
with in
ceÄŁ ine
old ur
dur ation
ĠDi ctionary
F ield
g iz
ve sen
Ġdi ms
ĠS u
Ġname dtuple
dist fn
ormal ized
exp ressions
Ġdrop ped
me te
Ġf lo
Ġd ra
ab ilen
Test er
Ġvend ored
b Ä±k
e am
Ġth us
pro mpt
read ings
Ġpos sibly
dob bel
syllab ic
Ġdef er
ong o
sis jon
Ä±lab ilir
ĠTra ceback
flo or
ĠInter face
ĠConfig uration
n f
y ara
Ã¸ v
len en
inst it
nn z
ab et
Ġan chor
ist isk
Ġsub sequent
Ġ10 24
fra ction
plan la
larÄ±mÄ±z a
ja cobian
eÅŁ it
Ġstatic method
y adÄ±r
Ġn om
ne eds
Ġma ps
no tes
inter polate
dÃ¼ ÄŁÃ¼n
Ġfloat s
mel ke
bÃ¥ nd
Ġqui ck
Ġanti derivative
g ning
sh utdown
result at
ION S
Ġequal s
fÃ¸ re
byg ning
y o
Ġc ard
:` ._
ini ti
av or
tar ih
Ġbuffer ing
sidu als
/ {
E num
f fi
Ï Ħ
re aded
Ġr nd
RE MENT
ĠPar ameter
mez ler
Ġinter section
doc string
bili ties
br un
quire ments
day sa
Ġlin ker
Ġurl parse
cre ase
sÃ¼ re
Ġaff ect
mat mat
im de
load ing
AR T
Ġover head
tak i
TE ST
soy un
oton ic
E CT
G iven
p las
Ġt ell
ĠC ase
process SpaceCharacters
kay bol
ĠstartTag Table
Ġman ifest
ĠendTag Table
Ġinner HTML
Ġpur poses
forret ning
Ġrespon ses
aspir ated
Ã§oc uk
> "<
k ks
Ġp int
Ġs quares
av is
Ġbase s
dat ing
e h
f uz
h op
i sim
u sion
} ")<
la beled
Ġl s
Ã¼n Ã¼
ling en
kj Ã¦r
Ġprop ortion
Ġassign ment
for bund
ling ene
à¦ ¾
save point
bom bal
Ġbroadcast ing
S Q
ar able
rÃ¸ d
R U
ma ks
__ ``
is scalar
ĠN UM
sor um
Di ctionary
kjÃ¸ p
Ġob tain
n Ã¥
r z
er er
me lse
ĠF oreignKey
sen ding
Ġutil s
Vector izer
sapp arat
A spect
k vi
s je
y l
Ġa uthor
sp atial
Ġaut os
S ecurity
in place
laÅŁ t
dÃ¼ re
blo d
x D
in stances
ar ds
qu ir
Ġst o
Ġh alf
ĠThe y
ze te
Ġcurrent Node
active FormattingElements
Do uble
201 1
Search CV
nex pected
y urt
al one
op timal
tr l
equal ity
ho tell
RE N
lig hets
ĠOr der
EX PR
Î ½
Ġw erkzeug
um la
ation Error
ene ver
uz man
word net
Ġ\ *
syn c
ĠMeta Data
t up
al tÄ±
Ġp lan
to parla
reg ate
exp licit
Ġho oks
pos sible
halle t
CONF IG
' (?
N ULL
re form
Ġn m
Ġx data
sk ot
ste v
Pro p
medi a
Lo cation
89 3
Ġsum mary
Retry Error
Ġscal ed
> âĢ¢
] ]),
w ning
de termin
co d
Ġth ird
sp unkt
str Ã¥
ka ppa
Ġdown loaded
Ġmid dle
Fail ure
= "",
S CHE
c umpro
de tails
Ġre m
Ġg kde
ĠM SVC
wer kzeug
` ."""<
j ava
k Ä±m
k lÃ¸
ĠH A
Ġexp onential
geÃ§ iÅŁ
prob ability
Ġarch itecture
Ġmar ked
rest ype
EXT RA
ti s
per centile
fe at
sy ste
4 01
W orker
ul k
par k
Ġme ter
pol ation
CK ET
bas is
tran sition
lÃ¦r er
handel s
B al
N ext
l Ä±ÄŁÄ±nÄ±
er ator
Ġs pect
get value
Ġ3 3
lay er
lay abilir
late x
PE P
ah la
Ġappro ach
Ġderi ve
analy zer
A sia
g arn
m ate
r f
se mp
er ings
Ġr vs
mat mul
Ġkey words
kl Ã¦r
fors lag
Ã¶nem se
f eng
at Ä±l
ĠC ol
leÅŁ tiÄŁ
([[ [
z Ä±
sp am
Ġy ields
comp ressed
Ġv oid
ef fici
kon tak
tan n
Ġad ds
multi part
bot tom
bilir siniz
merke z
/ ~
it en
Ã§ ay
ces sible
Ġde composition
ca p
kl or
Ġplug in
( ":
k opy
t ta
Î ¼
ver ts
Ġover flow
leg ate
Ġlook ing
kiÅŁ i
S h
ak tig
00 2
may Ä±z
lerin izi
ny ms
case s
specifi ers
mbig uous
- \
H a
L ine
on tal
ct ree
ĠT emp
ĠC urrent
Ġun ne
ĠO P
Ġiter items
uy ors
ST AT
To o
baÄŁ Ä±m
NO T
h all
y dim
Î ¹
Ġn ul
ate ver
od d
ĠP Poly
Ä±y Ä±
Ġnon lin
DE T
06 2
soy ut
nÃ¸ d
gren se
Ġpublic Id
Ġs ite
ce sa
ol ated
ĠE mpty
mat ched
mo te
Ġno verlap
pi cal
ĠIn verse
reg n
SE SSION
Ġver bosity
Ġt ech
Ġc ent
ol ution
ÅŁ Ä±r
Ġ1 97
doc uments
poly mul
mÃ¼ s
bre tt
buffer ed
Ġautos ummary
a di
re ject
ĠI BMModel
Ã§ am
ction aries
Ġ` _
ard Ä±r
80 7
Ġoff sets
kut la
skif te
ABC Meta
P ackage
d Ä±nÄ±z
u funcs
se man
Ġe mp
Ġe insum
sp rin
pas sthrough
b land
i ker
Ġin correct
ch let
ÄŁ e
mal lest
iy se
)) ]<
ance d
Ġthere fore
TO KEN
Ã¼st len
prosjek t
convers ation
Ġre gion
Ġr d
ĠF ra
Ġsort ing
VAR CHAR
e poch
i ckle
k var
>< /
ro bj
sk Ã¥
ye ti
inn tekts
fore ning
full name
mac ro
Ġspecific ally
Ġcho ices
tara f
G raph
U se
mal Ä±ydÄ±
mas Ä±dÄ±r
Ġint ended
Ä±nÄ±z Ä±n
maz sa
CO PY
hal e
yr ke
Lo ck
kalk Ä±n
j k
j akt
r ub
t l
sk in
sk um
fo x
Ġal ph
Ġmo ve
man ent
ĠR ule
Ġz one
bilir ler
mini str
paz ar
c tive
u i
ak ar
od er
Ġr c
') [
gÃ¼ dÃ¼
Ã§e ÅŁit
anlar dan
t Ã¶r
an o
Ġd rs
Ġm utable
ĠS DK
til bake
lan acak
Ġoper ate
Par allel
kom itÃ©
last oper
Ġmy sql
064 4
yab ancÄ±
a max
f lÃ¸y
j ene
m ssql
de clarative
Ġ2 56
gÃ¶ l
ong a
local host
now ledge
uly kke
) }<
M D
P rs
c ru
x fail
as ures
um u
ĠA xis
ko le
gÃ¶ Ã§
ilen o
RE S
ĠFor mat
mid dle
skon tor
mjÃ¸l ke
( ""
. -
{ \
Ã ¤
es ki
Ġnew line
reg ul
new ton
err no
k ts
s vi
in herits
si vil
vis jon
200 2
bah Ã§e
B as
K E
` ::<
g izle
le ms
sp ri
comp osite
ara p
hi de
diÄŁ inde
uer re
V P
W AR
t tet
re a
is lam
ĠF lask
pre cisions
ho pp
Ġpoly morphic
hand lings
") [
kÃ¼ re
g lue
s ark
on d
sel ska
Ġco mes
struct ure
Ġreference d
ĠMe V
Ġhe ss
ani an
COM MA
reconstruct ActiveFormattingElements
S ome
k ule
ab sol
Ã§ in
cur ate
Ġuni on
77 5
war ded
conf str
b ik
re present
fi yat
ĠI nt
str umented
sk Ã¸y
min imize
ko val
auto increment
larÄ±m Ä±
kÄ±y as
App lication
< =
e asy
s ans
Ã§ uk
Ġac cessible
ml b
ĠSt ack
Ã§i Ã§ek
Inter val
Do wn
Create Drop
ony ms
CreateDrop Base
D DL
Ġ[ _
stra ined
Ġinter vals
hoÅŁ lan
S upp
e i
s ord
Ġt grep
ĠN Y
Ġpre sence
Ġla y
') ),
any thing
ĠEn try
un ix
et ree
ren te
Ġlin space
ĠDe termin
Ġca uses
Ġob served
Ġcombin ed
hyper geom
} }
br Ã¥
yÃ¼ rek
olo ad
Ġmultip lication
pez oid
w raps
pe s
Ġe di
Ġu funcs
Ġr ho
Ã¼n Ã¼z
dete ct
ciph ers
Ã¶f ke
REMO VE
` :<
al ive
Ġ' )<
Ġd p
Ġde limiter
Ġv ol
miÅŁ im
Ä±mÄ±z da
Par am
db c
mod ulename
ark adaÅŁ
Do ctype
comb ine
ĠBox er
st ad
ot om
ĠT hat
res holds
() ),
Ġ[" -
Ġclo sing
pl s
{} ".
ĠUN ION
S cal
r und
Ġi ll
te in
ĠF IX
py py
min ister
kon fer
Con vert
mÄ±ÅŁ Ä±m
eg ree
mel lom
internal s
Ġsq lite
R om
dir ler
Pro vider
CE PT
ani on
QU E
uro pe
Ġroll back
cesa ret
O p
g old
n bytes
Ġs ki
ya ptÄ±r
bin ator
lene bil
Connection Error
fÃ¸r er
Ġunpack er
Ġpredi cted
ĠBe cause
Ġvn class
M T
W hen
v p
me tic
ti fy
Ġf ac
>' <
Ġb g
By tesIO
i um
en in
sp l
mo s
ĠB ot
ceÄŁ iz
sv n
sn it
bot n
Request Exception
edi l
war m
ĠEd ward
ĠFIX ME
w ap
Ġm x
Ġ: ,
() ])<
kÃ¼ f
equ iv
B J
d or
e ty
f rel
bu z
unt u
vir ke
Ä±mÄ±z dan
Ġ9 0
malar Ä±n
landÄ±r Ä±l
k iler
l uster
Ġ ],
de lik
ini an
max size
Ġend s
Ġest imates
hj ul
>` _
teg ne
ĠInitial ize
hoc key
allo cate
C R
f isk
u cu
st ene
st udent
me asure
Ġen force
Ġfind ing
ĠApp lication
Ġlex ical
i info
Ġp u
un e
Ġw idgets
(" [
invalid ate
PA CE
DI ST
Ġear ly
l Ä±ÄŁa
ĠD O
dÃ¼ ÄŁ
Ġ| =
tak Ä±l
betal ing
D es
k ere
Ġs af
sp ot
to ctree
Ġwh atever
mas se
sen g
ven n
day Ä±z
Ġformat ted
bak an
go v
madÄ±k larÄ±
Ġlow est
vÃ¥ pen
ĠLe af
Ġdid n
b ag
i di
s var
v akt
Ġh idden
pre v
miÅŁ iz
pen ge
Ã§ek iÅŁ
tom l
0 63
h uk
| <
Ġ" $
Ġdi ctionaries
vo ke
MA L
kjÃ¸ tt
where clause
mamas Ä±nÄ±
ob served
olog y
z Ä±r
ing e
Ġe dit
ort ak
ĠS imilar
ĠG a
sak Ä±n
SER VER
Bi variateSpline
g ard
u sage
u laÅŁtÄ±r
comp ressor
den sity
ĠO FFSET
write able
Ġhand les
Ġmark ers
Ġmen tioned
Ġdiv mod
D rt
r r
ÅŁ ark
um ur
be yaz
ĠL oper
laÅŁ Ä±r
Ġ[[ (
krig s
Ġpay load
yeÅŁ il
en ke
pri vate
Ġcontin uous
ĠApp ly
remo ved
form id
ili m
Ġexp ort
ĠK EY
mis jon
hol der
orem Tool
e ter
f red
p si
Ġ" |
me se
ur g
ge Ã§e
ak tivi
by r
cur ity
Ã§ek in
Syn taxError
cumpro d
' '<
L ATE
R untimeWarning
Î »
Ġre ached
ch unked
ĠA LL
con ll
sen ti
In sert
iniz den
Un able
Ġref lect
Ġcop ies
` -
Ð ¸
de par
Ġm t
ĠP OS
file obj
tag set
BACK ENDS
de po
me kle
Ġin line
um b
ĠS ec
ĠS chema
ka ye
Ä±z Ä±n
ss am
ĠV IE
mÄ±ÅŁ lar
ydi k
Ġdep graph
Ġbyte order
ĠEn vironment
prod list
Ġatt ach
ategor ical
Predict Rule
th ough
arg types
ho urs
") ):<
gar anti
Iter ator
Ġdest ination
g la
p ub
z iy
an ger
me c
Ġin spection
un ify
la ste
Ġcon secutive
Ġpath lib
Ex p
Ã¶z le
Ġho ur
Ġlb nd
kÄ±z Ä±l
ele kt
Ġinterpre t
Ġimpro ve
C ur
k ine
pe ll
Ġme trics
Ġ{ },
valid ator
gi an
av ing
day at
enti cation
leg al
ĠSet ting
kork ut
ĠSte ven
Ġbra cket
cogn ized
g ut
g ap
de cl
and aÅŁ
Ġ2 8
bu la
DE F
]+ )*
Ġdesc r
Ġfinal ize
, "
B ar
ĠF a
ĠM enu
min utes
imat ing
LS B
yas akla
skj el
FUN CTION
: ")<
W arned
d Ã¼rÃ¼
de scriptor
Ġf i
ce m
ÅŁ Ä±m
ve gg
is sparse
Ġ[ ("
men ubar
ump er
In completeRead
Ġac tiv
MA NY
bilir di
Ġdis course
PA REN
Key Error
ceks in
ceva p
Ġstar ted
u de
u ve
Ġ radius
Ġa head
Ġm m
Ġco okies
Ä±ÅŁ Ä±n
gr upp
Un defined
Ġ: ])<
== <
gg ers
Ã§at Ä±ÅŁ
Ġcip hers
D DLE
at o
me sa
ass oc
ĠP hase
sk ud
Ġint ent
mez se
alt Ä±n
gÃ¶z et
Ġsepar ately
String IO
PRE FIX
ĠCS R
c dt
in x
ÅŁ amp
co okies
om ic
Ġ4 5
imp orter
cek ti
dev ret
Ġli ttle
sap ta
Ġresol ution
nasjon al
Ġ( ))<
Ġ3 6
kan al
mayacak tÄ±r
fot o
me kten
ÅŁ im
pro j
Ġg rad
sk am
Ġv data
over nor
maz dÄ±
rel ative
Co unt
dri ft
Found ation
mektedir ler
anything Else
t Ã¸
tur ist
ĠS ystem
lic ing
ÅŁe h
Ġapply ing
}) >".
'' '<
HT M
miy ors
" ^\
te se
Ã§ el
ise ct
tri k
laÅŁ ma
In spection
av rup
fa iled
sek ret
inte gers
Ġprop ag
Ġcoordin ates
Ġba seline
] ``<
_ \
f ren
p is
Ġp are
Ġp ending
from file
ht ar
DE X
Ġconstruct ing
As sertionError
scal ed
ĠMethod s
Ġconj unction
H N
R andom
h ili
', ),
ĠA nd
Ġh old
00 5
im er
pre st
ba har
ling a
message s
NO WN
Ġmeta class
rahat la
milit Ã¦r
b lan
s all
Ġ' |
ĠF rom
ĠW AR
kw arg
fig ure
ĠJ O
her tz
Ġbind param
PY THON
Ġbro ken
ĠMe chanics
Ġang les
ĠPer form
h ot
i Ã¸r
de kk
ge te
et ki
ump tion
ga zete
df lags
over vÃ¥
ĠZ ip
inform ative
ĠCont rol
h ul
i si
an ted
Ġwh enever
tri u
min al
Ġle xi
acaÄŁ Ä±nÄ±
Ġupdate s
Ġidenti fy
Arg s
A uth
M MIT
P ol
U nexpected
r Ã¼
iÅŁ it
In sensitive
Ġval uation
Ch ar
yor lar
cri pts
Ġtr g
leÅŁtiri le
ĠLo okupError
cum hur
TOCO MMIT
" (
U pper
f x
l lipsis
s inn
iÅŁ let
stri ded
kan Ä±tla
LO C
edi table
Ġminimiz er
Ġsmoo thing
W SGI
Î ĳ
an larÄ±
Ġf illed
Ġo dd
qu o
ed er
Ã§ or
Ġ`` -
set telse
no un
ĠL ine
Ġsu ite
Ġle ad
Con flict
back ground
Ġper m
CO L
Ġbig ram
samfun ns
Ġrespective ly
hier archy
absol ute
m w
s che
"" <
end ar
Ġpre cisions
Ġ4 40
Ġel lip
G HT
g ari
k Ã¥
x n
at in
st ip
ac curacy
ene k
tra iling
uz la
Ġsub ok
Ġsamp ling
C ha
p ress
st ik
le ke
NA L
ĠK eep
CO OK
Al g
AD J
EL FDATA
rin ks
ffici ency
FC LASS
COOK IE
c uk
f ru
LI B
lab or
den ge
diÄŁ inden
Ġindi cator
bro tt
ationship Property
Ġretri eve
à§ ĩ
numeric s
F em
j az
sv g
yay Ä±m
sÄ± ra
Ġali ased
Ġide a
/ #
C or
R aw
y oz
} ]
Ġp lat
ĠI ssue
ĠĠĠĠĠĠĠĠĠĠĠĠĠĠĠĠĠĠĠĠĠĠĠĠĠĠĠĠĠĠĠĠ ĠĠĠĠĠĠĠĠĠĠĠĠĠĠĠĠ
ard less
Ġsys config
pen sjon
14 2
Ġredirect s
grunn lag
Ġlu info
bla ck
dl mf
kontra kt
BLA CK
rab ic
b ask
re ction
ay e
ĠB Poly
leÅŁ ir
uz at
ga uss
san at
No te
Ġman ual
({ '
Ġsph erical
heye can
G a
c lib
d un
de len
sel en
Ġp iv
Ġto ol
ly n
ss jef
VER B
FUN C
Fri sian
b be
se ctions
Ã¼ ne
key words
Ġun supported
ĠM ach
may Ä±p
Ġshould n
ST ORE
ST AMP
RO OT
second ary
yÄ± ka
c m
g jer
g overnor
di kten
Ġw el
ÅŁ Ã¶
ci o
Ġlo ops
Ġso le
duce d
]* <
Header Dict
madÄ±ÄŁÄ±n Ä±z
Syn set
r ant
at trib
de mi
Ġis scalar
ha yal
od a
ĠS ing
py obj
kon to
") ),
) '<
Ġn atural
for hÃ¥nds
do st
ĠD el
># ----------------------------------------------------------------
Ġcomp ressed
Ġsub scripts
top lan
Ġfeature sets
rek ord
Ġacceler ator
FIEL DS
ĠProtocol Error
` ).<
h ang
Ġt up
Ġre produ
ĠA c
ĠF ound
are a
sing ular
sy k
ph rase
kan at
context lib
tut uÅŁ
dy b
dri fts
Ġactive BlockVector
Ġpur pose
perio dic
S dk
b g
x k
Ġt ensor
Ġp seudo
om l
str y
-------- ---<
ger ile
sh ard
tut un
55 55
meÅŁ ru
Ġam ong
b rans
b lank
ra c
bo xes
cur sors
liÄŁ inde
Lo cal
depend ency
callback s
othe sis
forsi kring
Ġsi des
ve ti
ĠV B
ĠW orker
ĠW RITE
uni versal
WH ITE
tegr ation
W ri
Ġc ython
il ler
Ġd g
ĠC R
fer d
our ier
Scal er
Ġsaf ely
me mek
Ġn c
be hov
py odbc
ay et
ans ke
ft ware
eÄŁ i
Ġattemp ting
kah ram
abspath s
Ġ(?: [
ultinomial NB
ĠBin ary
2 000
M ac
T rust
sp ir
bo ya
ĠM an
ĠL et
filename s
CT YPE
geÃ§ in
De coder
box cox
madÄ± lar
\ '
i ma
l Ä±ÄŁÄ±m
y un
re gistr
get attribute
ĠC A
sk or
Ġdo mains
Ġcol ors
lik le
ved tak
yn cio
tol l
post args
Ġ12 3
Ġbehavi our
forsk nings
gev ÅŁe
d uplicates
w rong
mple mented
pre t
has hes
RA W
Ġsc roll
inform asjons
Ne ighbors
VAL UE
] }
le dd
ot s
fi ÅŁ
iz asyon
be it
ind s
Ä±m dan
ba ge
Ġle ave
ek si
ĠJ ohn
Comp ile
Lo gging
Ã¸m mer
******** ********
Na T
svm light
( #
Ġin crement
co mple
ĠN egative
ĠM ore
ĠH z
]) [
Ġcom ments
rap or
Pro b
Ġad jac
bÃ¼ yÃ¼k
tic ally
skj Ã¸r
Ġclean up
Ã§iÄŁ ne
Pol arity
B IT
ra j
Ã§ ir
Ã§ iliÄŁ
ĠC lo
sl utt
mis sion
RA NGE
VAR S
forsi kre
kÄ±ÅŁ kÄ±r
te ki
fi d
qu eries
Ġh its
py x
Ġwe b
os sible
complex floating
dÃ¶ nd
nor sk
abileceÄŁ i
normp ath
I I
X Y
Ġx m
Ä±m da
ins pe
kle t
Ġinclu sive
Ġdist s
au c
Ġnecess arily
Ġcompil ation
= ("
Ġc r
ÅŁ ere
ta Ã§
end en
ĠC alled
Ġen coder
tra cted
mu ha
Ġfollow ed
Ġbro wn
forsi kr
anÄ±m sa
Ġsatis fy
Ġbeco mes
ĠSci Py
Ġw raps
ĠS imple
ĠF ourier
ko mple
kon ge
ĠH er
liÄŁ iyle
hal f
valu ation
hol ding
Ġtri angular
Session Events
fors var
M OD
c xx
f Ä±s
Ġ job
ti ker
pre fetch
RE G
ph en
12 0
ĠComp utes
Ġmany linux
TI FI
ĠWord Net
utdan ning
Ï Ģ
Ġp lus
Ġw ish
ol uÅŁtur
ci ble
Ġat las
gÃ¶ ÄŁÃ¼
Ġar ti
lot Set
kom bin
Ġshort cut
tili ties
Ġrestri ctions
Ġse ss
ka fe
ek on
Ġprint ing
Ġbin ned
Ġimp lies
AS CA
comb in
dj ango
aga inst
ĠHand le
ĠSpecifi es
ASCA DE
b Ã¼rÃ¼n
i or
s lÃ¸
u for
fi ser
el le
pre cedence
ini tions
va h
copy to
fall back
Mar ker
C UR
st able
he ime
ĠT hen
ler imize
ĠS tanford
ĠP repared
gÃ¼ neÅŁ
struct ures
Ġmom ents
Ġattemp ts
ĠMax RetryError
gÃ¼lÃ¼m se
] "<
k ors
on s
ti ces
Ġre use
ĠN umpy
Ġne ighbor
Ġtime d
Ġreg ardless
a o
f lÃ¸
Ġa dap
ĠE ither
du rak
Ġout file
ĠstartTag Html
De cimal
PRO B
Ġcri tical
Ġcombin ations
Col group
Ġmime type
' ")<
U SE
d ynam
Ġf compiler
mo us
Ġv an
Ġtoken ize
dist s
Ġqu oting
sec ret
! )?
. '
y iÅŁ
al at
Ã¸ re
tr m
Ġ3 4
ll ing
br on
non ym
iniz de
lass o
malÄ±y Ä±z
Ġcompil ers
8 000
U BLE
b dist
g s
Ġs ci
Ã¼ mit
for ma
ĠS ample
mez di
Com binator
]_ .<
skom itÃ©
Ġpen alty
? ",<
l ated
u si
Ġst e
type code
gram s
ven de
Ġconver ting
kÃ¶ k
ĠGener ic
Ġgu ide
month s
erci on
: ]:<
V M
Ġ !
re ÅŁ
Ġl sq
lig heter
Comp osite
lighet en
lighet ene
ĠInvalid Header
dÃ¸ ds
]+) |
ĠDetermin es
A IN
la z
ass ume
ch k
ka ke
ko b
mÄ±ÅŁ Ä±z
bili riz
ple x
Ġintegr ate
don at
Ġsec ret
" ^
} ({
Ġt ries
Ġre d
ma malÄ±
and Ä±k
ly st
pre processing
tri l
ill ing
lig heta
cor pora
ns kaps
oyn at
Ġatt ached
asso ci
pÃ¼ sk
L ong
k uz
o bs
he ss
ak ke
par ses
Ġse lector
Ġ== <
sc orer
IT Y
cre asing
Ġestab lish
b id
m x
| !=
Ï ĥ
ĠB ird
ko Ã§
gener ative
Ġ". "
Ġdecor ators
Ġ201 8
p u
Ġo pp
ma Ã§
leÅŁ miÅŁ
UN D
dis jon
abileceÄŁ ini
kad Ä±n
inform asjon
ĠNe ed
T ur
T AG
b ang
h eri
u dur
et kin
ili g
lan abil
han n
Ã§e vi
wh l
Ġref lected
spil le
Ġher me
coordin ate
Ġt ck
Ġe od
ĠN E
ye bil
ĠB ernoulli
ĠW erkzeug
sor uÅŁtur
bi rey
Ġver b
sum mary
madÄ±ÄŁÄ±n a
D at
n ere
me g
Ġd d
ad ministr
Ġpoly int
Ġtz info
I t
P P
Error s
Ġ3 5
che cked
py pi
Ġsen ts
Ġreduce d
: .
I gnore
L AT
o ked
r matvec
re load
at ar
la get
and re
ty v
ne sting
ĠF I
sk al
Ġ{} '.
cho ose
ske w
memiÅŁ tir
Ġrot ations
Ġexpect s
fyl kes
]+(?: \.[
f ener
s ne
Ġs cripts
Ġe V
qui ck
kt ene
ki ye
aÅŁ a
aÅŁ Ä±r
medi ate
ĠY ields
bes ky
Python Version
Ġrece ived
D TYPES
F irst
W heel
p ks
} :
st itu
Ġre store
Ġ: ]
for val
op ro
tr u
kon sul
bi ye
sal la
mad Ä±ÄŁÄ±m
backend s
TH READ
Al most
^^^^^^^^ ^^^^^^^^
Ġmer ge
SPE C
ĠL a
ings arbeid
may Ä±nca
fÃ¸ lelse
deg ree
Ġequ ations
Ã¶p Ã¼ÅŁ
G u
ing u
ĠM ar
Ġk de
Ġmo ck
Ġpoly der
dist ortion
non y
Ġcoef str
kol o
At tributeError
gjen opp
saÄŁ lam
Inter cept
Ġneg ate
raph s
hjer te
tutuk la
viz yon
Ġstand alone
sprin si
H o
l z
ur nal
ÅŁ an
ag ing
Ġla beled
top level
mamas Ä±na
poli tik
Ġinvo ke
kilo gram
Ġpow ers
b old
l n
Ġre served
Ã§ im
for handling
iy on
hs Ä±z
vas Widget
larÄ±mÄ±z dan
Ġpair wise
RI C
demokr atik
Platform Error
k ran
Ġb and
ut vi
Ġh i
du yar
gÃ¶ n
hand shake
337 20
beve gelse
Ġvisi ted
* $",
C ertificate
p on
se ier
Ġis intent
um f
Ġcon catenate
Re quires
var say
Ġ[' -
multi class
TE GER
Ġ(? :-
Ã¸ve lse
ĠMutable Mapping
undamental Rule
Ġdeci de
L M
g ili
v ig
cÄ± lar
yors un
undervis ning
T r
e gen
k siyon
m ult
m ine
an lam
il k
__ ':<
Ġd rinks
end point
ka ste
av an
Ġapp ended
ST ATE
day Ä±m
]* )?
bat Ä±r
flow Error
hay kÄ±r
ngram s
nul p
N LP
Z ER
b red
k ub
': '
pe ÅŁ
Ġd dof
ha kim
po isson
ks in
22 33720
mayacaÄŁ Ä±na
N OR
or test
st Ã¥l
pe ar
str path
ĠV AL
tra pezoid
nd aki
Ġsub stitution
kri se
T RE
c Ä±l
Ï ī
me kt
qu adrature
Ġx tol
bu y
sy r
aÄŁ aÃ§
mil let
refer ences
dol an
gro v
Ġestab lished
ĠControl s
>#---------------------------------------------------------------- ------------
) """<
al ong
te mel
ĠE valuate
ĠS Y
Ġg ar
pre n
ree k
Ã¼n Ã¼n
kar bon
Ġrange s
AL P
bit wise
Ġfeature set
block s
block Vector
ĠIP v
Almost Equal
' (
M a
R ange
Ġs alt
li si
li mited
ye ÄŁ
In itial
baÅŁ lat
Ġperform ing
fak ir
G rid
j p
m um
w orld
at Ã¸r
__ "):<
ad res
ac i
it ti
da mp
Ġen sures
reg nskap
mu on
]* )<
67 8
ĠPy PI
rozen Set
DI R
bÃ¸ lge
vise d
> ================
c lic
Ġp ortion
Ġin c
so li
Ġ4 6
Ġcomp osite
kler i
bÃ¼ ro
kn iv
ĠCo okie
Ã§alÄ±ÅŁ tÄ±r
Ã§Ã¶z Ã¼m
IF COPY
sÄ±y r
Ġhol ds
coord s
ot a
Ġ2 55
== |!=
Ġne ither
land Ä±k
EN CE
Ä±yor lardÄ±
ĠURL s
Ã¶l Ã§Ã¼
EXT ENSION
Ġtear down
ĠClause Element
d temp
g gest
g lob
Ġ" ~
Ä± ma
Ġc df
to z
RE P
Ġfe asible
tak Ä±n
dialect s
Connection Record
zip file
hiz met
Ġdevi ation
ĠJO IN
e mek
g as
g ne
de grees
am en
ĠS hape
set Parse
Ġstr ong
quest ion
"] ["
SSL Error
Ã§e te
Ġcorrespon d
pres se
setParse Action
E mpty
n ment
y Ä±ÄŁ
Ġi mmutable
ÅŁ ans
ĠD rop
dur ul
Ġchar det
Ġpla ces
paz arla
H Y
a str
n fev
Ġ' ?
__ ))<
ĠS pecify
len iyor
Ġde bugging
sk ul
ze v
und aki
bal Ä±k
ĠPro ver
kjÃ¸ kken
Def inition
asi bility
m ist
p am
Ġu tility
sy on
Ġro bust
Ġndarray s
IT ES
kr Ã¸
vid ing
dom mer
seri e
center ed
t ver
ar ded
lo y
lo per
ha ps
attr getter
ats Ä±z
ĠAl ternative
LT ER
Ġlike lihood
Ġher m
ĠStop Iteration
id a
Ġex hausted
sk omite
() ``,
ref resh
kÃ¼ s
ĠAR RAY
Ġinstrument ation
> =
A li
f Ã´
n ik
in ject
ge lin
Ġdi rected
Ġh ide
Ġ% }<
miÅŁ lerdir
ĠCo mplex
som ut
koÅŁ ul
rout ines
* "
K Fold
g id
g lÃ¸
g zip
g win
t Ã¼rÃ¼
z Ã¼
la pping
con cat
ise s
Ġmin utes
yor uz
Ġreq s
Pool Error
âĢ Į
Ġfig ure
= '<
B acked
U SER
] ``.<
k st
pp ar
sy kkel
av deling
Ġsho wn
ĠR el
mÃ¼ dÃ¼r
hi kaye
ĠEx ec
imiz le
34 5
sÃ¸ lv
Or More
ĠTI ME
Ġnom ask
Ġsole ly
Ġgar bage
$ ',
1 10
[ \
st ors
la ÄŁ
Ġth row
(" {
sk ing
app engine
Ġv ander
inter faces
dition ally
ydi ler
lÄ±ÄŁÄ±n a
ĠNe arest
Ġke pt
ĠIDNA Error
) [-_\.]?[
W rite
` _
d ya
t ul
y ad
in Head
on er
Ġso cks
lik ler
ĠR untimeWarning
LS QP
]+ !)?
ĠTree Estimator
original Phase
ky st
(?: [-_\.]?
take while
Ġ(?: [-_\.]?
Ä±yord um
paren ts
Ca ption
]+)| (?:[-_\.]?
Ġ(?:- [
]+)|(?:[-_\.]? (
F orest
b iz
Ġc wd
>' )<
Ä±r lar
po sed
comp il
ĠL ibrary
ĠV ocab
las hes
diÄŁ inin
36 854
Ġmag ic
Ġtrust ed
Ġmicro second
M askedArray
N i
] ",
ra dy
Ġg a
lab ile
ĠO bject
LE D
exec utemany
spe l
ĠDe precated
yaz ar
Ġlimit s
prop ag
ĠAd ditional
Install Requirement
ĠAD J
Linear Operator
Ã¸kon om
= ('
i fft
he k
Ġc aching
si stem
Ġto ols
ha ÅŁ
lib Exception
)) ?
kar deÅŁ
arr ange
kre ts
Ġstatistic s
Ġpare ns
I mportError
i ff
ri e
il jÃ¸
Ġcon cept
ĠE M
ĠS pecial
tri ct
tri bs
bili m
Ġdistribu ted
xx x
Inter face
lÃ¸s ning
executable s
y s
Ġin p
od ak
Re ce
list ens
var m
os man
dÃ¼ ÄŁÃ¼
mÃ¼ ze
ceÄŁ im
ĠCore Foundation
2233720 36854
) ._
/ %
N LTK
at lan
Ġn k
pe kiÅŁ
ka re
sc reen
tra fik
ĠIn sert
Ġorder s
Ġsh rinkage
initial ized
iri cal
iliÅŁ kilen
[ ~
ab o
ci rc
sk jen
Ġbo ok
day ken
kÃ¼ lt
bas db
b iter
b lÃ¸
d Ä±ÄŁÄ±
d Ä±ÅŁla
Ġt weets
ed loper
ug ht
St andard
peri od
kro pp
A NT
at ak
Ġf low
Ġp ca
is a
ho de
ho pping
iter ate
Ġcor relation
Ġpos ses
Ã¶ÄŁ re
ksjon s
9999 99
ptr on
Rel ationshipProperty
narko ti
naly sis
3 84
M on
[ ,
b Ã¸y
Ġun ary
lin kage
leÅŁ iyor
Ġca path
edu ce
ceva pla
he v
Ġg lue
inter sect
ang a
lÃ¥ ne
aff inity
Ġplace d
separ ated
curren cy
M ath
at Struct
me h
ve ct
Ġme asure
Ġcomp utes
vir kning
az a
sÃ¶ k
3 90
v Ã¥r
ha vi
Ġch unked
read write
Ġpot entially
F ind
T op
W ORD
h on
le ts
Ġc as
ra dd
Ġw ays
Ġif ft
Ġ{ %
(( -
tex trm
Ġagg regate
1 12
N om
W RITE
f are
v ul
re sim
id na
Ġat oms
av ut
ĠĠĠĠĠĠĠĠĠĠĠĠĠĠĠĠĠĠĠĠĠĠĠĠĠĠĠĠĠĠĠĠ ĠĠĠĠĠĠĠĠĠĠĠĠĠĠĠĠĠĠ
bi ri
kab el
ĠTO KEN
mun ic
Ġbutton s
THREAD S
t end
Ġp ackaging
ek sport
pol ar
Ġtrans late
Ġunit test
Sp lit
ĠOR DER
contin uous
fabri kk
d oldur
f Ã¼
f rak
i val
ac cum
ĠA V
Ġh stack
ste ven
In it
ko ble
Ġrun ner
ru h
kn app
spli text
kra v
Exec ute
sevi ÅŁ
Ġdynam ically
Ġshe ll
223372036854 775
G en
r l
Î º
ge de
`` ``
ĠS erver
to y
list ic
ĠL im
Ġen dian
ĠU npack
ĠSe ction
jÃ¸ re
ide al
Lo op
radio button
zayÄ±f la
ĠVAR CHAR
B ER
Ġf c
Ġ' +
Ġw n
ke z
ĠS calar
Ġde velopment
bil gilen
mer ak
MA IN
UN T
malar Ä±ndan
kayn aÅŁ
histor ie
Ġcoordin ate
Ġspli tting
eam Ultroid
= (),
P rep
w g
Ġf ar
ve is
ĠT RA
Ġdi rective
ĠA ss
Ä±z a
Ġl p
ĠRe place
Ä±s la
pri mitive
kul Ã¼
à¦ ¿
plan te
fam ily
ĠSupp ort
kÄ±pÄ±r da
re kke
sp are
Ġse ctions
Ġh or
Ġho urs
... ")<
Ġspace Characters
rer aise
F etch
F undamentalRule
e uclidean
ty le
ab is
ir ti
list boxes
Ġon to
ĠIn f
emp lars
Ġmin ute
move s
Ġread sav
san ay
ĠY ork
Ġ". ".
Ġref resh
fin ansi
madÄ±k larÄ±nÄ±
ĠBo th
endi ÅŁ
maktadÄ±r lar
Ġmen u
Ġpot ential
Ġreprodu cible
heri ted
] ',<
Ġt s
li dir
Ġ' \\
Ġr p
mo ck
lik k
inn en
cul uÄŁ
ĠLo ad
gÃ¶z le
Ã§Ã¶z Ã¼mle
ĠWord net
Ġstrip ped
Ġsi mplex
d ut
s ver
| \
al b
Ġf lexi
Ġ' ,<
bil mek
Ġcor pora
Ġindi cated
tÃ¼ m
Ġ[[ [
Ġig nor
site ts
Invalid ELFFileHeader
Gener ate
ĠDoc ument
ĠDel ta
WHITE LIST
) {
4 00
f rÃ¸
ol u
Ġco effs
Ġg zip
Ġl d
opp ing
sum s
201 4
Scheme Unknown
lastic Net
d Ã¸r
f lu
de vir
he ste
Ġ' {}
ta ze
Ġde tail
po mp
ek stra
jen te
Ġretri e
Ġconnect ing
fut ures
Ġfam ily
j ap
s ch
Ġ .<
in sa
me dim
Ġp print
Ġs dist
den k
lik leri
lay Ä±cÄ±
baÅŁ Ä±
Ġli fe
Ġsystem Id
Ġpie ces
ĠAuth ors
c frame
Ġc m
ti ed
ak sa
es k
Ġj ar
check out
assert AlmostEqual
Ġnon linear
stÃ¸ v
Ġanaly sis
Vo ice
Ġhier archy
ĠVer ify
) ]:<
F utureWarning
_ "
f lapack
n dtype
la me
ser ving
om en
be g
lib eral
IN E
filter warnings
rep ort
Connection Pool
doÄŁ r
Ġes caped
Ġaccess or
ĠResponse Error
Ã¶y kÃ¼
t jeneste
Ġo set
ver sity
ĠT EST
gi de
ku ra
rot vecs
BLACK LIST
steven bird
U PDATE
f ks
g ger
j n
re in
Ġc type
Ã§ Ä±ÄŁ
bo ks
ye ars
mal ara
Ġfile path
tan Ä±t
tim iz
LO G
dire ction
deste k
tekr ar
Ġapplic able
. ".
al dÄ±r
as anyarray
is close
ler ce
der i
iy ordu
Ä±s Ä±t
sm r
Ġdist inct
top lum
vas ke
kÄ±r p
vat n
Backed CorpusView
W I
h in
Ä±r ken
Ġlo cate
># :
ko ordin
miÅŁ siniz
trans formed
Ġper mitted
Ġexten ded
Ġassoci ation
Exec utable
ĠInstall Requirement
ĠVAL UES
f get
t ju
di sh
ĠN PY
sp rÃ¸y
end rogram
ĠF it
ay es
ĠV P
alle t
ĠPro duction
full text
sil ke
Ġfail ures
ĠCan didate
lÃ¸y sing
p lik
al en
te v
ra kt
Ġp opt
Ġe tag
Ġe lapsed
ka per
mat rices
do ktor
gin ary
dÃ¶ ÅŁe
Ġab ort
mamas Ä±nÄ±n
Ġoccurren ces
alph as
A nd
A lt
] /
m ime
s cope
Ġw anted
type codes
Ġget ting
reate st
RO UP
De codeError
taÅŁ Ä±n
Ã¼l ke
dar win
annot ations
Mapper Property
doy ur
reading Backend
Z ero
as jer
te h
NAME S
no kt
ust ur
iy ileÅŁ
cor ner
final ized
ĠNaN s
Ġconveni ence
7 07
B LOCK
T han
k all
n args
di abetes
Ġin vert
ut gift
im mutable
Ġal beit
ĠD rt
Ex it
ĠCon structor
rec v
tÃ¼ ken
bul an
van ns
din am
Ġli mited
gang s
Ġexce eded
Ġfir win
e quivalent
} _{
al man
end t
Ã¥ t
pla cian
MA LI
Ġsing leton
bel Ã¸p
AU TOCOMMIT
extra cted
unit test
boÅŁ a
Ġhandler s
Ġappe ars
separ ator
orth o
Ã§ev re
cod ings
w t
at an
Ã¶ lÃ¼
ĠC le
ĠD ROP
du al
leÅŁ en
iter s
Ġuni mplemented
qua ux
Ġmac ros
Ġparen ts
N X
P arent
m uyor
z ih
ut co
is ine
ad Ä±k
ak Ä±t
el f
Ġpro mpt
Ġspec s
Ġaccept ing
Ä±ld Ä±ÄŁÄ±
Ġtrigger ed
FORM AT
utco ffset
F ortran
n Ã¸y
n deki
o johnson
t um
in p
ro le
and box
Ġun used
fe ed
10 24
Con structor
kay g
Ġmis match
lerimiz den
Ġforce d
mÃ¼z ik
>######################################################################## <
dÃ¶v Ã¼ÅŁ
Ġobserv ations
G e
P CA
y oks
Ġ ),
ar ve
Ġs v
Ġb order
par ag
Ch inese
Ġdatabase s
Ġimp uter
trust ed
conv olve
nite len
ciph er
Sign ature
satis fied
Ġeas ier
L anguage
_ ',
g nored
k ta
t roll
he ves
Ġ2 9
od akla
ĠS AN
ka pla
til bud
Ġpoly div
sub set
yap Ä±l
blo kk
styr ke
W alker
n Ä±z
at tempt
ter ed
ve ter
ff el
() :
ny m
tak Ä±m
Ġprocess SpaceCharacters
ĠY A
No script
script Data
Py Array
sÄ±n Ä±rla
ĠMo di
le ir
Ġo ps
li ver
fe asibility
kar ab
ĠSe arch
LA B
Co mplex
ĠPy test
orary File
064 6
mati zer
Ġinherit ance
H as
U Func
h uy
i fied
Ġn ice
Ġs mallest
def inite
sp rÃ¸
'] ],<
lÃ¥ g
Exec Error
Ġimplicit ly
bÃ¶ lÃ¼m
kuÅŁ at
1234567 890
yÄ±pr at
elekt ro
d g
| %
de si
ri t
ĠN ull
ed en
ĠE dge
pro sent
ME RIC
Ġun like
min ne
kon sol
index ing
Ġqu adratic
sum ing
Ã¶n ce
á´ ĩ
kad ro
piÅŁ ir
ĠUT C
balance d
HTM LE
Inspection Attr
N umpy
_ ((
b order
Ð ½
me le
for fat
Ġname spaces
ĠM ultinomialNB
app s
mes se
') ):<
Ġword net
tiri le
kol mo
kÄ±s al
yans Ä±t
kÄ±v Ä±r
Ġbox cox
fut bol
A bo
Î ķ
Ġt au
Ġi er
co bi
Ġ[ ]).
par Ã§ala
get set
so ver
() [:
ok ut
meli yiz
g av
s Ä±rt
se i
me yle
il p
Ġd u
am d
tem sil
kt an
Ä±mÄ±z la
20 10
EN TIFI
tÄ± ka
acak tÄ±r
Ġca used
ĠCo unter
lendiri le
Ġrelationship s
' %
a pe
} ),
Ġ- (
str ong
int ensive
Ġun signed
Ġinter faces
Ġsee ms
madÄ±k Ã§a
kjÃ¸r ing
bab a
OFF SET
forsÃ¸ k
RUN NING
STAT US
HTMLE lements
L u
m unn
m rp
s ni
Ġc ar
xt ures
use ne
Ġla m
ĠG radient
ml Ã¼
Ã¶r Ã¼
aÅŁ Ä±n
kÃ¼ tÃ¼
mon str
hy tte
ĠComp are
oy unc
Ġresol ved
brÃ¸ d
WH ITES
WHITES PACE
8 75
j ango
l dflags
m n
re di
te laÅŁ
Ġb az
ĠT yp
ĠB I
ĠĠĠĠĠĠĠĠĠĠĠĠĠĠĠĠĠĠĠĠĠĠĠĠĠĠĠĠĠĠĠĠ ĠĠĠĠĠĠĠĠĠĠĠĠĠĠĠĠĠĠĠ
sam arbeid
polyval fromroots
bÃ¶l ge
oremTool Command
" ])
A F
bu tikk
Ġtest ed
pus h
Pro vide
dÃ¶ ne
kjÃ¸ re
Ġge om
inclu ding
Out put
Ġspli ts
undersÃ¸ kelse
ĠAlternative ly
c tivity
{ {
ol um
Ġd ask
ort a
Ä±r da
aÄŁ Ä±
em on
uni ver
Ã¼z Ã¼
bay Ä±l
ÅŁek er
Ġmodify ing
ĠWh ere
Ġquo tes
jub ile
ĠSV D
Ġwel ch
] ["
b od
c us
j es
t k
re vision
Ġto do
var sel
Ġun changed
may alÄ±m
com ma
write only
25 5
dot s
LO NG
ende ks
bl ue
pa ket
Ġparenthe ses
amb da
Î¿ Ï
M in
M al
R o
g ly
se x
er man
ar ist
ra ft
op le
Ġcomp ression
fer ds
req Dist
IG N
Ġcombin ator
ĠDistutils ExecError
Ã§Ã¶ ker
karÅŁÄ± laÅŁtÄ±r
Edge I
Ġfo reground
Ġfrequ encies
Ġfron tier
Ġposses ses
ENTIFI ER
A uthor
v or
y dÃ¼
re gel
Ġp join
Ġe ta
ci si
ry gg
file list
iy er
01 5
met all
fj Ã¦r
sip lin
Ġans wer
c ython
y eler
ol ver
Ġdef ining
ĠI gnored
ati fied
ap days
iniz le
Ġrender ing
1111 1111
ĠNormal ized
Ġignor ing
L arge
Ġ ult
pe g
si la
co var
Ġm s
Ġne ar
ep silon
log istic
stem me
Ġgener ating
ie u
filter s
giy in
Ã¶v Ã¼n
Ġguarante ed
E CD
S afe
o tek
al er
un ay
ate gies
Ġm ol
() ``<
pr Ã¸
av la
poly div
bes Ã¸k
mag ic
Ġregular ization
mysql db
Variable Expression
ĠRegex p
A cc
F OR
Q R
b d
g lo
k ny
t Ã¸y
__ ",
Ġr er
Ġh ref
Ġpro ceed
bÃ¼ s
Ġden ominator
vocab ulary
alk Ä±ÅŁla
Ġdescri bing
jaz z
NOR MALI
G aussian
b ist
l uluk
un ge
ma ginary
## <
Ã¼ ret
ĠT hus
el lip
ist ih
ĠW rite
ii ii
boÅŁ al
peri mental
pick ling
Ġparenthe sized
Ġweek day
Next Token
f late
Ð ¼
max iter
multi params
Ġthem selves
sÃ¼r Ã¼n
cent r
Ne ut
C urrent
f inger
k arg
s ats
~ <
ce v
// <
ed man
so v
Ġ` (
ba de
fer tility
Ġos name
inn tekt
gÃ¼ reÅŁ
kap an
dev ral
DO UBLE
dÃ¶ kÃ¼
handler s
lÃ¸s het
App ly
3333 3333
fron tier
ĠCli ent
sci kit
Ġpiece wise
m ation
p ist
Ġ" @
or ized
es ine
Ġh int
ram me
laÅŁ mÄ±ÅŁ
gi re
11 1
yÃ¼ cel
DE LETE
Ġreason s
vek il
istic Regression
ĠTrans form
(". "):<
) `.<
] ]])<
s ang
w rappers
Ġn t
pe te
Ġp rom
Ã§ o
00 4
00 6
Ġde que
(' "
vi e
Ġun igram
ĠM O
stra ff
kal aÅŁ
ĠK nown
tan rÄ±
assert NextToken
medi ler
yr kes
ĠData Frame
Ġannot ations
Ġsuccess fully
aks je
sosy al
esir ge
h ala
k Ã¸
as Ä±nÄ±
Ġf l
Ġa max
`` ::<
bu ÄŁ
Ġv ir
group ing
fy r
Ã§e liÅŁ
Ġimplement ing
cri ption
Ġcir cular
teÅŁ kil
ĠMY PY
plex ity
_ :
Ġc e
Ġf t
ke tt
Ġcon sole
ĠX y
av gift
Ġsub script
Ġover t
") ]<
FF IX
tre kk
sn ivÃ¥
En try
kaÄŁ Ä±t
Ġreentran ces
Ġnul lable
Ã ¡
in vert
li der
() ).
Ä±l tÄ±
gra f
vur gula
Ġsw itch
Ġserial izer
Ã¶rgÃ¼ tle
d yn
k andÄ±r
s as
Ġ' '.
Ġd uration
pre senter
Ä±ÅŁ Ä±
ĠM S
doc sign
sor g
obj ek
Ġ"% (
Ã¼z Ã¼n
spro du
sÄ±k Ä±l
memiÅŁ ti
Ġdot s
Ġclose st
Drt Tokens
pÃ¼sk Ã¼r
n l
se il
si yet
fi lo
it ing
lar Ä±ydÄ±
ĠP eter
Re quirements
ĠD ET
code cs
iy im
cre ation
mesi ydi
sha res
kas se
Oper ation
tas arla
Ä±ÄŁÄ±mÄ±z Ä±
ĠCh ange
boy ut
Ġear lier
doÄŁru la
NORMALI ZE
l ata
s log
al um
de lig
Ġs b
ce ler
Ġst able
to bytes
Ġde coding
do ble
ĠM I
bin count
gÃ¼ t
ST ART
Ġdoc tests
scalar s
range s
lap se
pay load
SU FFIX
vog n
havi or
A xis
C alcul
l ange
Ġ" !=
ar ff
st ab
de uter
Ġp ure
Ġs lo
Ġbe long
Ġres hape
fer i
em ir
larÄ±mÄ±z la
Fa ctory
('. ')<
salg s
tÃ¼rk Ã§e
inclu des
gÃ¶rÃ¼ntÃ¼ le
what wg
ĠSocket Error
, .
B ATCH
f ac
k Ä±na
at ches
ar pack
Ġre size
Ġre call
ers kap
ĠO SS
kt Ã¼
sal ar
pop Ã¼
sv art
Ġsome times
extra ction
IO Error
hyp othesis
Iden tifier
ĠCli ck
ĠGram mar
B P
e ier
.< /
Ġfor mul
Ġ2 000
ĠC ustom
code point
25 4
ĠLI GHT
Ġeig vals
cent ral
_ #
m art
Ġa vo
si ld
Ġr an
con sist
//// //<
pre serve
und ant
red ning
fer ie
las yon
yan Ä±tla
27 3
Ġdis co
bay ram
mm ing
bevis st
deuter on
) ``.
j an
t one
Ġe mul
Ġ== ========
do i
ya maz
Ġsome how
inte l
Ġ20 10
ĠBas ic
pie ces
: "
P art
h ud
n per
p ure
t us
Ġ" ?
in np
st rek
as f
di siplin
ot al
Ã¸ kning
ĠP G
Ġpath name
Ġtemp dir
larÄ±mÄ±z da
round trip
mey iz
}) ".
hay van
nÃ¦r ing
kast et
mev z
arÅŁ iv
Ġcas cade
D A
K A
P ass
Ġf type
ÄŁ i
32 4
Ġtree builder
yen il
LA CE
PY PY
Ġass umption
Ġlanguage s
yarar lan
ĠSub Class
kÃ¼Ã§ Ã¼mse
Ġswap ped
ĠCase Insensitive
Alg Error
C ent
in en
Ġf r
Ġ' >
ver ker
am Ä±yor
ler imi
Ä±r tÄ±
ist ek
Ġl m
ĠRe ader
assert Token
our nal
refer red
lÄ±ÄŁÄ±n Ä±n
madÄ±ÄŁÄ±n dan
Ġchat bot
inci r
Ã§ir kin
, :]
h ver
p ala
Î ¬
in se
ri sk
ch dir
ĠC Compiler
Ġno un
iÅŁ e
Ġcallable s
abi listic
Dis position
zan net
E B
[ {
in nt
on ur
Ġp id
sk at
ĠIn di
back slash
kal Ä±n
tÃ¼ l
hy sical
cer tificate
asi ent
Ġmy kb
fest ival
Ġoptim izer
Ġconsist s
kommun e
ick ler
Attr Dict
F oreign
[ ()]
a mayacak
m ange
Ġin fer
si ye
Ġdef initions
lan es
Con version
Ä±s Ä±nÄ±
Ġnet cdf
dok ument
samfun n
WOR DS
ĠTyp ically
A K
l int
m icrosoft
v Ã¦re
y re
ke li
ĠĠĠĠĠĠĠĠĠĠĠĠĠĠĠĠ ĠĠĠĠĠĠĠĠĠĠĠĠĠĠĠĠĠĠĠĠĠĠĠĠĠĠĠĠĠĠĠĠĠĠĠĠĠĠĠ
su bject
av tale
if ted
iter ation
base s
inf j
ĠAl ways
Ġignore keys
ĠTree Edge
ĠCo effici
soÄŁ ut
seman tics
O f
f lÃ¥
Ġre ach
Ġre tain
la u
bu da
Ġen semble
ap an
Type Decorator
vo wel
22 22
doÄŁ u
={ "
larÄ±nÄ±z Ä±n
ĠAd ditionally
JSON B
Ġpick led
Ġmac ro
Ġsto res
e ta
f ase
l Ã¦re
ĠM is
lic ations
sub trees
sor un
CON ST
medikler i
Ġscor ing
C ustom
T ry
j Ã¥
ar ding
un get
ĠC TE
Ġstr ategies
Ġcol lected
sy re
gÃ¶ lge
IN SERT
multi label
kor un
Ġauth entication
Poly nomial
Ġcontrol s
implement ing
fab rik
ĠGaussian NB
ĠAlig nment
C li
n lanes
u opp
00 3
key if
ure ne
gg le
To Table
Ġsepar ated
Index Error
Ġmen ubar
Th ere
kili tle
Stack ToTable
Ã§Ä±l dÄ±r
ĠSy base
ÅŁÄ±m ar
Ġadjac ent
a ux
at as
sel ig
la f
Ġsu fficient
sor gan
yar ala
auto escape
iÃ§ sel
.* ?
blo b
Ġjoin ed
bek len
Ġtrim med
kurum sal
kredi tt
# ,
B royden
k inden
Ñ Ģ
re stri
ra mes
Ġre cursion
Ġs sy
si sk
Ġd sy
Ġfor med
Ġ1 01
Ġst opping
ta iled
stan e
Ġ5 5
poly add
Ġfa iry
mak am
mis a
Ġnormal ization
cekler ini
go ogle
ĠGener al
Ã§Ã¶ k
Chart Rule
1234567 89
snit ts
re pository
st ands
Ġf loc
get ters
Ã¶ zer
ĠA BC
Ġlo gical
Ġ"< =":
Ġbu ilds
Ä±s Ä±na
Ġnon zero
ple ier
duy um
Specifier Set
Ġ"> ":
Ġ"> =":
Ġ"== ":
bÃ¶lÃ¼ ÅŁ
situ asjon
Ġ"!= ":
r text
st asjon
al la
Ġf lask
Ġb l
Ã¼ ye
ab ort
ĠS ch
pro ve
Ġlo cale
Ġlo bp
//////////////// //////<
Ġfin ish
lerimiz de
hjel p
Ä±yord uk
cycle s
Ġdra wn
Ġlobp cg
A lig
f ing
Ġc sd
Ġp lease
"" ")<
ise n
00 7
pro cessed
pro vider
ry d
ĠJ ournal
Ġho me
makt Ä±
Ġca file
mayacaÄŁ Ä±m
RS A
Ġprepare d
inherit ance
h store
Ġimport s
sk ala
ork ing
gÃ¼ lÃ¼
pri vat
DE D
bÃ¼ k
yas ak
pat ron
Ġassu mes
Option s
ĠNO TE
ÅŁir ket
mÃ¸n ster
ezber le
k ata
l Ä±l
z A
st ak
Ġs ke
ct ools
ke e
ab ling
ME S
ener gi
Ġsupp ly
config uration
fun ctools
Ġload s
mme try
lÄ±ÄŁÄ±n dan
morg en
ĠSkip Test
UNI CODE
P ickle
e se
p ng
on ym
Ġo wning
Ġe li
la place
ĠI den
ĠA BI
con stru
Ġ` '
ĠK DTree
sÃ¼ s
baÄŁ Ä±ÅŁ
cheb pts
Ġdimension ality
kÄ±s Ä±tla
Ġpop ulation
bry ter
restr s
ar bitrary
st ikk
con sole
vi a
Ġv isual
)) [
sin ler
Ġ", ".
Inter rupt
atist ical
vide o
ĠReg ular
tren d
hafi fle
ÅŁif re
l r
n yn
p andas
pe y
Ġin ds
ve x
value d
). """<
ĠM W
ans Ä±n
ĠB LAS
ctor s
)) ])<
ĠR et
Ġexp ensive
IN C
kom mand
Ġexc info
kjÃ¸ nns
bro ken
fÃ¸ dsel
Ã§arp Ä±ÅŁ
g at
Ġ" &
mp y
arg partition
ye ter
Ã¼n de
kar Ä±ÅŁtÄ±r
gn u
keep dims
pare to
orig in
Ġpredi ction
integr al
Ġincre ase
assign ment
cez alandÄ±r
SC RI
fuz z
8 17
b am
j ur
r db
Ġ })<
ad en
men n
jo urnal
ret val
bil led
gÃ¼ ney
the st
ingen iÃ¸r
sev ne
spro sjek
MENT S
aren ted
invester ings
= ""
f ant
k kene
l mbda
t test
st ort
Ġi maginary
Ġp cov
di e
Ġ' !
ge gv
ol un
fi ye
ĠC ategorical
py openssl
Ġcomp osed
av del
xy z
yak alan
pan el
Ġpost gresql
CE SS
Ġmain tained
ĠArray s
sli pp
ĠMem ory
Rece ive
A H
l sq
Ġ 63
te ment
th resholds
Ġas yncio
Ġ1 20
pro xies
ag enda
Ġ4 4
Ġ"< {
open blas
sig ns
Ġformat ter
mek ti
medi e
Ġshort en
Ġgot ten
gÃ¼Ã§ len
ÅŁi kay
NUM BER
trunc ate
Serial izer
O W
Y es
] -
t uÅŁ
ak at
Ġcon sumed
Ġpre ce
Ġpre processor
men i
com ments
mer t
pend ing
medi sin
meyecek tir
Option Error
scal ing
Ġna ive
S w
te ct
Ġp ush
Ġw ants
Ġas suming
Ġm ixin
ĠF all
Ġlo oked
ft ene
may arak
gr as
can not
Ġdiffer enti
Ġopen ed
Ġstri de
foo bar
bat Ä±
deg F
fors vars
moo th
gÃ¶zlem le
aur ant
cru d
enke lt
Ġcr ash
Ġsci kit
ÅŁikay et
p assive
t m
ar ki
ser ves
ver ted
pro test
Re ference
== '
Ġun safe
ĠĠĠĠĠĠĠĠĠĠĠĠĠĠĠĠĠĠĠĠĠĠĠĠĠĠĠĠĠĠĠĠ ĠĠĠĠĠĠĠĠĠĠĠĠĠĠĠĠĠ
ĠIn formation
]) ")<
Ä±s Ä±z
baÄŁ Ä±ÅŁla
say dÄ±
HTTP Response
Ġtri u
rb f
dynam ic
S P
Ġt weet
to par
ĠD es
ĠRe quires
clo sing
OR Y
gener ated
ĠDe cisionTree
DO CTYPE
sÄ± v
lÃ¥ n
vers ally
verk sted
milli yet
aÅŁaÄŁ Ä±la
* /
C he
h ints
x FFFF
y per
re use
re duction
ma vi
il ti
Ġd m
Ġ[ .
`` )<
par Ã§al
Ġde sign
ff ff
ren se
ret ter
scri min
exp on
over ride
tÃ¼ ke
sav ur
mayacaÄŁ Ä±z
yal var
Dist utils
umuz u
white space
cay a
Tra iner
Ġentire ly
hedef le
sila hsÄ±z
M ark
Ñ ģ
Ġ ~~~~~~~~
Ġt t
`` )
Ã§ ik
len g
path sep
su k
################ ########
ĠĠĠĠĠĠĠĠĠĠĠĠĠĠĠĠĠĠĠĠĠĠĠĠĠĠĠĠĠĠĠĠ ĠĠĠĠĠĠĠĠĠĠĠĠĠĠĠĠĠĠĠĠ
bs r
Name space
reve t
bro wn
leÅŁtiri r
mac Ä±lÄ±k
ĠCo unt
still ings
maktay dÄ±
Iden tity
Date Time
Tran sport
alum ini
' ``,
( """
x FF
Ġ quality
ĠA nalysis
tan ke
late st
Ġqu eries
Ġmsg pack
CO UNT
Po st
kir let
sey ir
Ġtak ing
Ġconcaten ation
H AN
S A
Ġs ane
ce il
__ )
ch en
ĠC ython
Ġun parsed
format ted
Ġpoly fit
Ġca pt
manÄ±z Ä±
betal ings
ĠExtra ct
interes se
marginal s
b ac
p ud
Ġfile obj
ĠG unicorn
Ã¸r er
sin de
kor n
daÄŁ Ä±l
sty kke
ori enter
Ġtermin ate
wol fe
K W
L oc
ÅŁ em
um pe
str uk
pre cedent
vi sible
bil miÅŁ
exp anded
multi variate
yan l
Not Implemented
lÃ¦r ing
clean up
Ġtrunc ated
ĠConnect TimeoutError
yoks ul
h ass
p c
y ine
Ġ ME
li ts
Ġd a
ĠT w
ed y
sp y
res pect
ker en
ard aki
)) ):<
Ġmake file
Ġbin om
064 5
kim lik
Ġhypothe sized
coordin ates
ĠSec ure
n Ã¶
': ['
Ġre vision
Ġin coming
ĠE lasticNet
ĠA N
ĠF rozenSet
do s
be li
ili yor
iÅŁ lev
sig ning
IN IT
kan Ä±t
Ä±nÄ±z dan
bel le
Ġremo ving
mamÄ±z Ä±
ĠHo oks
ĠSub classes
ĠMySQL Dialect
ĠDis play
Es caped
ĠRO OT
= {}
z r
~ =
la in
Ã¼ cÃ¼
ad Ä±m
one sided
ord en
Ġ"< ":
mÄ±ÅŁ sÄ±nÄ±z
check point
kat Ä±l
alar Ä±nÄ±
yan Ä±t
State ment
sjon s
E urope
c compiler
e ge
al uation
Ġn dtype
Ġre loader
Ġa set
ke me
is subclass
Ä±n t
Ġx n
Ġl work
ili es
ĠO K
ba p
ĠIn cremental
ved like
ense mb
ĠPro vides
bas ket
kÄ± ra
gj est
Ã§aÄŁ daÅŁ
Res ults
hyper nyms
seydi k
199 37
bestem melse
ĠPretty List
debat t
kÄ±ÅŁkÄ±r t
REP LACE
_ [-
l al
Ġc ephes
la ce
ve v
iz ontal
sa plan
ĠD T
Ġwe ird
mu hab
gÃ¶z Ã¼k
sab Ä±r
ĠVER B
Ġlexi con
SCRI PT
F ROM
d us
t weets
x z
Ġi c
di dat
ent ly
__ [
is inin
ĠT G
Ã§ asÄ±na
ĠL egacySpecifier
file object
ĠU ses
inter active
kal ar
Ġpy openssl
update s
Ã¦r er
Ġuni versally
Ġmulti variate
led ning
opt group
dis course
kav ram
dep df
Ġauto commit
Ġspe aker
Be fore
Ġpipe line
manage d
Ġrepla cing
, ...
: '
e ach
h uz
at ene
Ġn args
ati ter
ĠS MA
ine t
Ġl atter
Ġare n
Ġac curate
top rak
har man
mam Ä±
real path
hav ne
Ġtur n
eÄŁi tim
kahram an
ĠPytest Tester
f prime
is patla
Ã§ em
all ar
ĠC ache
fo red
ic iler
lan ma
kt Ã¸y
lag a
tan Ä±n
imple ments
Ġsha re
ĠLin ux
dobbel t
3 55
en het
de lir
Ġs f
and erson
Ġ[ [-
ub er
Ġ4 1
ber et
12 4
Ġact s
ĠInvalid Requirement
gun icorn
Bas ic
" ``
. (
0 33
C REATE
P ort
R ankWarning
T Y
Ã¼ c
Ġm d
ak set
am Ä±ÅŁ
Ġcon tingency
ss ak
atch ing
""" ))<
Ġsecond ary
fel les
BLA S
Over ride
Ġtex tids
ĠCategorical NB
f Ä±
i req
n ne
ut a
ĠN I
Ã¸ ren
ĠA li
(" *
ĠF orm
py malloc
aÄŁ rÄ±
Ġtra ined
lÄ±k la
Ġpy project
bÃ¼ z
EL FCLASS
kir ala
refer ential
dele tes
fetch one
protocol s
>` _<
PRE TER
spoli tikk
alko hol
M ix
h val
Î ³
Ġt an
st alled
de clared
Ġ( ),
Ġ' [-
fi df
Ġcon fidence
to file
Ġy w
ind x
ĠM on
() ._
uy ord
mÃ¼ ste
') ))<
Ġcast s
lov giv
Ġcenter ed
bedri fts
plug ins
Ġembed ding
Ġflo or
TRE ES
consist ency
O O
_ ("
p ik
ar man
li fe
Ã¸ rene
Ġpro ve
ho ve
Ġ` ~
AR D
Ä±nÄ±z da
ĠAn si
Es cape
misa fir
G ood
v old
z z
ar ound
Ġx k
iy at
fri c
cekler i
egg s
yal nÄ±z
ĠUni versity
oy la
larÄ±nÄ±z a
nÃ¸ kkel
Ġnor ms
nex tsym
fug le
Ġ"" ":
7 89
F ragment
d Ã¥
i u
i ene
Ġs gd
di rek
ver iÅŁ
pro file
ĠF loat
LI C
pla st
lÃ¸ yse
aÅŁ Ä±la
lied EndTag
vis or
Imp liedEndTag
indir ge
nul lable
eyle m
Ġknot s
chron ize
endiÅŁ elen
ImpliedEndTag s
F Compiler
M N
e e
t ls
u FF
Ġf id
ma ca
Ġcon texts
ast ern
uy arla
input sizes
Ġadd resses
IG HT
vc varsall
Ġtran spo
Builder Command
kinter basdb
ĠInstall ationError
blom ster
ĠDependency Graph
Ġbeco me
speri ode
ĠZero OrMore
doÄŁr ult
L G
S ou
g m
st eri
me ci
ri ll
ĠF ast
til tak
sing leton
ker ne
') ],<
abili riz
sm ug
acaÄŁ Ä±z
Cookie Jar
Ġintro duced
bibli otek
Ġtw ice
Security Warning
Ġvir tual
D og
O pt
j ected
z ed
an te
lse n
ĠO F
ĠU RI
mÃ¼ j
RA CKET
sÃ¼ pÃ¼r
Ġkind s
dire ktÃ¸r
Ġseg ments
generate ImpliedEndTags
diz gin
sÄ±r ala
sah te
Ġdynam ic
Ġlate st
ĠVIE W
accum ulate
d op
g b
u ped
v g
il le
Ġ: -
sk att
Ġno tes
sc ott
ph y
met ro
Ä±s Ä±nÄ±n
sol uk
Ġsh r
Ġmon key
ayr Ä±ÅŁ
Sing le
polynomial s
Ġpa per
k uy
t uz
de kor
Ġc sv
lo d
__ ),
con tingency
der s
lar ca
bu ss
ĠG E
Ġ/ <
lay an
ĠK ernel
gra fi
bas it
//////////////////////////////// //////////////////////<
ĠLo cation
gar ip
Ġmain tain
Ġqui te
Ä±lar ak
Ġcomple ted
Ùģ Ø¹
hÃ¼k met
mÃ¼s lÃ¼
huk uk
ÅŁere f
L ib
R educe
s ctype
Ġ rid
se lected
Ġre quir
lo cale
co variances
om it
Ġcon current
es caped
bo otstrap
no script
men izi
Ġcol name
Ġ[' /
Pro jection
cre ds
ctx s
radi kal
yaÅŁ ay
Format ter
ignore EndTag
gam mal
mamÄ±z a
ij k
Tur k
P KG
v Ã¸r
Ġ" ":<
re loaded
st est
me to
Ġf avor
ser best
tr g
vi er
Ġpo or
file path
ko re
]) ):<
aÄŁ Ä±rla
sal Ä±ver
Ġmulti dimensional
Ġrow count
AD ATA
Ġbind ing
yaÅŁ at
meyeceÄŁ ine
cel le
Ġconflict ing
MET ADATA
orke ster
, '
H um
M i
S ocket
t ung
or sk
ra mp
Ġre ply
ad ers
id o
con fidence
Ġg ain
sk r
Ġan ce
pre c
so mething
ye m
ĠL asso
Ġch anging
dÃ¼ÅŁ man
doÄŁ rul
Ġwrite able
forsk er
fÃ¸r ste
kÄ±z ar
Ġnest ing
fyl ke
k Ä±la
se mi
he lik
as Ä±nÄ±n
Ġf resh
__ ['
op ter
es in
ko s
stri d
pla ined
not ated
Ã¦ rene
Ġsupport ing
bin omial
Ġconver ge
Name State
ĠUse ful
HO ST
Ã¸kon omi
sprinsi pp
M I
S u
f us
u ver
iter items
ĠJ J
nak let
Ġflexi ble
K al
te ker
Ġs an
lo s
ter api
is complex
unc u
ĠB ind
Ġ5 17
miÅŁ sin
Ġtra cing
bel er
cast ing
kaz Ä±
vat andaÅŁ
larÄ±m Ä±n
Ġtermin ation
Ġperiod ogram
OPEN SSL
Ġ ì
Ã¼ f
um mer
am ba
() ``.<
mas Ä±ydÄ±
mÃ¼ da
bili rim
ned rust
Request s
haz met
job b
kÄ±s Ä±t
PR ON
tez gah
arbeide t
Axis Error
H er
W hat
h ant
i qr
k not
s lan
t jenest
Ġf rag
Ġb box
ge ter
ver im
ver ks
ha va
ak al
ata ÅŁ
no ise
ĠW heel
av gifts
LE S
ceÄŁ inden
alar Ä±nÄ±n
fici al
tire bil
sem type
ĠMy Array
ib ull
ĠBo olean
Ġbit wise
hÃ¥nd ball
Ġtear off
seter r
Ġsitu ations
yadÄ±r ga
ĠTRA IN
= .
A rabic
C trl
U A
co uld
ne tice
it le
Ġu a
Ã¶ te
ka ff
sk and
mÄ±ÅŁ sÄ±n
sj uk
SQL Alchemy
Ġwidth s
suz luÄŁ
IL D
conne cted
hesap laÅŁ
Ġproportion al
K ab
U sed
re ds
re start
de sired
ra v
Ġa ch
ĠA T
Ġup dating
sv x
---------------- -----------<
malar Ä±yla
RA N
rÃ¥ de
86 6
cho ices
ĠLo ok
ib m
Ġdetermin es
Ġusu al
("- ",
Ġpersist ence
We ak
arented Tree
B R
M ake
se min
as Ä±nÄ±z
lo ve
iz len
ĠS IG
con crete
ger gin
Pro gram
Ġ7 5
alar la
Ġcre dentials
fon d
thread local
tÄ±k la
cos x
gur ur
Ã¶rtÃ¼ ÅŁ
yavaÅŁ la
Zip File
eh li
Ġgeom space
H ash
a ile
k ha
k rom
Ä±n ar
get cwd
Ġcon cepts
ir an
######## <
Ã¼n iver
Ġj ava
inter pret
inn vand
laÅŁtÄ±r Ä±lmas
mid t
ĠRequest Error
alk Ä±ÅŁ
Ġfk c
,)) *.
aci fic
" ;
G R
K ur
an al
ver gi
ĠD ATA
Ġtoken ized
we gian
ret tet
log sf
kÃ¼ Ã§Ã¼
air y
lÄ± dÄ±r
system Id
kri minal
fÃ¸r ings
siy aset
skÃ¸y te
. ]),
B oo
M H
] `
d uplicate
p ca
w al
in hopping
st u
di vision
ab on
ha w
Ã§ ok
cal a
Ġlo t
ast ro
ceÄŁ inin
dÃ¶ nem
stil le
Ġsc en
Ġprotocol s
ĠName Error
Ä±yord ur
kÃ¼r t
Ġconf usion
haval an
myn dighet
D B
I ABLE
Z a
get timeout
mal e
ili z
fa ke
Ġvari ety
malar la
malar Ä±nda
sign atures
dik Ã§e
daÄŁ Ä±
ĠMo ck
OP T
cla re
Ġcell s
Per sian
Ã¶ÄŁret men
fron t
Ġph rase
psy copg
smid del
2 24
E C
le se
lo bj
and ar
ĠT HE
Ġde ps
py parsing
Ġ4 7
In ternal
Ġ\ "
Ġlog arithm
stack trace
Ġaff ects
Ã¥p ning
Ġvn frame
Temp oraryFile
G erman
S c
[ %
Ġ sel
un la
ri si
is inf
par sity
tr al
Ġg iving
ist if
jo ins
ĠĠĠĠĠĠĠĠĠĠĠĠĠĠĠĠĠĠĠĠĠĠĠĠĠĠĠĠĠĠĠĠ ĠĠĠĠĠĠĠĠĠĠĠĠĠĠĠĠĠĠĠĠĠ
kal em
Ġcount ing
Ġdevi ance
u var
me lerinin
Ġc i
ct an
lo cate
Ã¼ lÃ¼
ĠN IST
id ge
ĠE nd
ĠS I
ĠS afe
ck nowledge
ĠM etadata
iÅŁ are
(( ),
'] ]<
Ġnd min
nel s
kom st
Ġtop level
iki pedia
AM S
kayn ak
she ll
ĠOption s
ĠWh ich
Ġparti tion
ila Ã§
bered skap
REQUI RED
L V
S IG
k jerne
Ġp as
Ġw ide
is insert
ĠT icket
ta ct
mat er
ir dele
bu har
ĠV S
his se
10 7
ev ren
sÃ¼ sle
ĠDef inition
mamas Ä±ndan
mag as
Ġta ps
ĠBack wards
optim izer
Ġtex ts
centr ation
mÃ¼slÃ¼ man
, \
> ")<
H IG
N ep
T Z
o ser
at on
en ch
st Ã¸r
Ġ( {}
Ġre siduals
id f
ler iydi
ka pp
Ġ== ============
Ġde clared
fe ber
Ġout mess
Ġiter values
mÃ¼ ca
sol ation
Ch u
pol o
tiri r
ĠCheck s
Ġrec v
ĠComp ile
fin ished
Ġwheel s
Clause Element
micro second
kontak t
Ã¼c ret
' ><
B L
V er
_ .__
m ute
v inner
Ġi x
Ġin sensitive
arg check
im g
cal cul
EN ER
temp er
sv c
alar dan
Ġsign s
ĠHTTP HeaderDict
mey ip
signed integer
deÄŁiÅŁ tir
Ġmarg inal
Ã¶ld Ã¼r
8 00
K ash
T ig
s lot
st ub
ve li
sp reng
ĠD at
() ['
del s
Ġcheck out
diÄŁ in
post fetch
Ġdisp ose
kÃ¶ ÅŁe
yaÅŁ an
lerimiz le
bileceÄŁ ine
kry ss
kommun ik
Nor thern
l li
Ã ³
Ġin ject
ul muÅŁ
qu ency
ne p
ĠB royden
ĠV i
"] ),<
Co de
Ġintegr ations
mey in
Ä±yors anÄ±z
Ġcomparison s
mesa j
H EL
K L
_ ()<
c double
m den
m ises
Ġ" +
Ġre si
Ġdef inite
am an
iÅŁ aret
Ġout liers
by tte
fig ur
Con caten
Ġexp an
reg ular
Ġpy lint
Ġcopy ing
Ġsh ard
sar ay
anlar la
rot ations
Ġmy py
vol ds
VAL UES
PAR AMS
ensemb le
ser er
Ġas k
Ġm orph
ĠA F
Ġde lay
Ġpro viding
bo lic
Ġsp matrix
Ġdict s
sal low
hold ning
Ġ200 2
dar alt
Ġtri l
Ġsimp lified
ĠHTML Parser
umur sa
ĠAss ume
yanl Ä±ÅŁ
G H
G ali
M alay
T atar
k d
k ter
m ro
Ġe ver
ÅŁ ef
lo ye
be de
ĠD ES
lab ilir
kt Ã¼r
ren lp
ara Ã§
log pmf
lerin ize
ĠAt tempt
Ġ"- "
List box
ĠHTTP Exception
fetch all
Sy ri
ĠCS C
Sou thern
c Ä±m
n ically
si ydi
is m
ÄŁ lu
Ġ- .
col um
ek lem
spon sor
uz un
ĠG rid
iter al
ĠK A
spe ll
Ġconver ts
Mo ck
Ġ'- '
Nor wegian
A cknowledge
F x
G E
J ude
L uba
N de
T ense
T onga
` )<
z in
Ġb al
ul duÄŁ
Ġis complex
all en
for sy
mar ket
red nings
RE T
Ã¦ res
hi an
oper asjon
larÄ± ma
kab ar
Inter ling
Ġtri ple
Ġ"' %
fast clip
ĠBA CK
fru kt
Dog ri
Syri ac
Jude o
Nde bele
> ,<
C N
P UNCT
S Y
g Ä±c
re wind
Ġb isect
ol erance
ve le
Ġnp y
ĠS c
Ġr db
ĠP ri
Ġwh y
ast ext
mÃ¼ hÃ¼r
kucak la
zÄ± pla
G CM
st ren
ge bra
ÅŁ ap
Ġdi vide
Ġg nu
kon tr
lag t
item config
sig nificant
exp ort
pri m
yen i
imple mented
andÄ±r Ä±l
Ġses sions
konuÅŁ lan
Ġdete ction
rul le
Ġfall s
ĠSSL Error
mus Ã©
arrange ment
C Compiler
E nglish
G D
j ent
k no
re ter
Ġs dk
Ġe tree
Ġse curity
Ġde tailed
be hand
Ġpar ag
comp ose
Ġno tice
') ],
check s
lerin izin
multi p
ru hs
oÄŁ ul
bre vi
dri v
My Array
hap set
elek tron
A X
m ors
Ġin feasible
Ġin consistent
ser vi
ser tifi
Ġto t
ha yat
tr d
() }<
format ting
sl uk
post release
AD DR
Com mon
064 8
cert file
page s
STR U
ĠLU s
Ġround ing
Ã§aÄŁr Ä±l
gelen ek
Ġfer el
konsul ent
* .<
L B
g ym
t me
} ",
} ')<
at tÄ±r
ar it
pp rint
Ġ3 9
ĠD ST
min ist
Ġ\ **
') :
Ġhe x
ĠSSL Context
tap Ä±n
Ġmi xture
+ <
. """))<
/ ',
C ore
u ity
y tter
z ap
| >
ra ma
Ġa i
ver g
Ġse mi
Re move
sk ue
ist em
be last
ĠR ankWarning
work ing
mez siniz
kol le
selfClosing Acknowledge
yuvar la
muha faz
selfClosingAcknowledge d
h ic
j inja
p ull
s Ã¦
ad v
lar ken
pro te
ĠP ad
sk rÃ¥
Ġ3 00
Ã¥ nd
ĠIn stead
inter v
Ġsp acing
cor r
eg o
mah kum
null s
Ġspe ech
aye sian
nony ms
I mport
p th
p ig
re me
ti yat
Ġd s
Ġ1 80
># ---------------------------<
ans wer
Ġ5 000
Ġiter ated
sam ling
yat Ä±ÅŁ
amp ere
dicate s
EX CEPT
kut up
template s
ĠArray Like
Ġhyper parameter
Ġfur thest
Ġ": "
eti ket
tasar Ä±m
, :],
> {
a iter
j dbc
Ġ radi
de precation
is inde
ĠI mport
ab lish
ch is
it z
iz de
ken di
Ġy a
ĠV ol
bi o
tan k
rc all
Ġextra ction
doÄŁ an
anti derivative
stil tak
fic ations
ĠCom mon
Ġconsist ing
Ġcertificate s
=| <
Ã§Ä±rp Ä±n
uFF FD
S kip
l ub
Ġt ies
te cr
fi kir
ab a
ts hift
end om
vi olation
be yan
Ġ4 9
Ġinter active
miÅŁ lerdi
AR Y
dur um
ĠComp arator
ĠSt udio
kjÃ¸ ps
Ġperi o
LOB AL
litter atur
tecr Ã¼
k ver
ty sk
Ä±r Ä±l
der le
sk urs
ag ers
sen der
bil dir
kap it
acaÄŁ Ä±na
ĠAl gorithm
RA INT
kol lek
}) "<
Ġloc ations
Ġoptim ized
Ã§er Ã§e
fed er
niÅŁ an
Ġshorten ed
) `.
, [
S LSQP
d andÄ±
à ¸
te dir
Ġin file
si kt
il me
ĠT otal
fi li
ac quire
ĠA NY
up er
Ġimport ing
Ġ3 7
Ġpar a
meye bilir
mem izi
insert Text
full argspec
skri v
dri ve
ĠPy Array
dÃ¼ÅŁÃ¼n ce
ĠNum eric
hex digest
temporary Buffer
kvar ter
depar tement
=|< |>
, (
en n
te gn
ĠM essage
iy miÅŁ
ph ane
mes indeki
IN ST
mem ur
30 6
stats d
Ġtr uth
Mapper Events
Mutable Mapping
Ac cept
$ ")<
k Ã¥r
r Ã¼z
Ä± h
ur len
ul as
ĠN gram
par sel
ĠS ame
ĠC DF
.. /
ĠF ix
ya pt
Ġfile menu
lag ene
ĠIn ternal
land bruks
LO SE
bet ong
Ġ"\ \
Name s
ĠDef ine
ĠPy Py
hay Ä±r
ĠTh readingBackend
ĠBo unds
ĠFe atStruct
ÅŁi ir
kili t
defer red
erke k
ĠSyn set
Ġrer aise
) ^
b art
m ultinomial
p ag
er es
at lat
de crease
Ġ' '))<
Ġb ulk
um an
tr insi
ĠS eries
sk ilt
be tim
Ġal most
ĠO per
ll Ã¼
lem mas
run ning
tÃ¼r kiye
shared mem
ĠToken s
Ġconne cted
R R
V ari
v im
at tribs
ro ids
Ġr m
sy copg
Ġtext ual
sin ce
yak alay
lem iyor
alg Ä±
Tree Builder
File s
ĠUni x
stÃ¸ t
yum ruk
Ä±ld Ä±ÄŁÄ±nÄ±
fail ure
Ġdetermin istic
defer rable
flas ke
ĠPO INTER
Ġlay out
compil ers
p resolve
} '<
er stat
ra pping
pe ti
__ ",<
", )<
Ġun specified
Ġpre condition
my k
uy gu
Ġz lib
01 4
Ġvari ances
siz liÄŁ
sol u
kat let
Ġinstall er
sÄ± fÄ±r
Imp uter
Child ren
E astern
st ue
Ġc ubic
di ge
di rective
si yasal
ri v
ÅŁ Ã¼k
is intent
Ġm b
Ġ_ (
ler ek
SO CKS
comp onent
import ances
ni a
tern ate
process Characters
bak Ä±ÅŁ
Ġlast Node
ĠendTag Html
ĠendTag Ignore
Ġ(( ("
hay ran
Str ategy
cell s
ĠRes ult
startTag Html
Ġta il
Sec Trust
Ġfraction al
ĠStream BackedCorpusView
Raw text
tegration Point
Init Rule
h Ã¼zÃ¼n
s lu
ur u
`` :<
ĠH ash
kar ri
ormal ize
ten de
pen ded
TE MP
bed en
Ġshow s
Ġcondition ed
kli ma
hafi f
Valid ator
ĠMapper Property
yumuÅŁ a
W W
s lek
v ag
x m
Ġ ulti
se pt
or man
si bility
Ġis olated
ver ktÃ¸y
ĠT op
Ġ: :-
Ġse ar
es inde
Re gex
so c
art ree
po eng
In cremental
Ġj umps
inn hold
Ġz i
disp atched
yÃ¼ kÃ¼
ny tt
mu sik
sv in
The oremToolCommand
alar Ä±na
kl on
inte g
bl ind
ppe t
ĠCo de
fli kt
limit s
ĠCh inese
Ġauto escape
Ġauto increment
dam la
Ġcookie jar
wri ter
Ġprior ity
skjÃ¸ nn
kval itets
ĠImple ments
ĠMach ine
ĠTw itter
T ri
a ug
b acked
r k
r ings
ar p
de tay
un wrap
ĠI solation
Ġth inks
am ir
Ġan gle
su ite
iy ord
Ġsign atures
Ġwor ld
meli ydi
1234 5
ĠPre di
Ġ'" %
Ġach ie
E llipsis
k lat
Ã¼ le
Ġ""" "
sp al
Ã§ an
ĠF ORE
Ġma ster
ĠB unch
jo ule
)) :
]) ')<
ni kah
yÃ¼ ce
ĠPro cess
make dirs
ĠTree bank
sÄ± cak
Pre parer
stre kk
bom be
Ġmanage d
istik rar
kÄ±yas la
stitu tions
gÃ¶n Ã¼l
P M
a pt
b Ã¼r
d Ä±ÄŁÄ±nÄ±z
n ip
o val
z im
or ch
tr us
per manent
ay aklan
Ġlo cated
no st
ĠB ro
mes lek
_( *
gre en
geÃ§ iri
yaz Ä±
ear ly
akt Ã¶r
ĠDBAPI s
annot ate
IF Y
tit les
gum bel
> =|<|>
d ub
f ileno
g Ä±r
m c
p un
v ac
te sis
la unay
Ã¼ tÃ¼
is yen
ord inal
bo b
Ã¼r per
ĠW IN
rig h
ON YM
kur ÅŁ
maz sÄ±nÄ±z
hy dro
De lete
oo b
ayd Ä±m
Ġdot ted
Text IO
Res ource
adap ters
Ġfre edom
decor ate
Ġfo od
Ġannot ated
=| >=|<|>
ĠBas ically
U sage
te ti
Ġfor tran
pro je
ĠM odule
Ġbo otstrap
laÅŁ an
ĠSe ts
Ġcur sors
mad Ä±nÄ±z
acaÄŁ Ä±m
Ġexec uting
Comp arison
19 2
eps abs
dek iler
eÅŁ leÅŁ
ĠDistutils Error
MIT TED
Ġnet work
deep copy
" ><
> ~~~~~~~~
P UT
g cc
ÅŁ id
is f
ĠP ress
du a
ry lov
sing er
sing en
ĠG U
Ġsub domain
Ġback port
hel veti
bÃ¼ t
leg endre
loc ked
ĠAt tr
PY OPENSSL
sport s
++ ++
zam an
Ġiniti ally
ĠSpecifi c
loye e
helveti ca
Ġt d
pe m
ma dÄ±r
Ġd c
ad min
sp is
con ven
Ġpro g
unc a
sen se
mÃ¼ kem
br ud
tak er
gen iÅŁ
... `")<
seg ment
UR I
gri ty
NS Name
medikler ini
yatÄ±r Ä±m
Ġsilent ly
Ġvol t
Wri ter
NotImplemented Error
' ',
2 11
L C
d ame
k ini
v cs
à °
Ġc contig
Ġf contig
ing iliz
Ġs s
si ge
is le
Ġm ini
ak lÄ±k
for ge
Ġse em
ĠE quivalent
up pe
ise d
Ġx y
et ched
from records
Ä±y sanÄ±z
ĠW rap
ĠH as
Ġ7 0
Ġread s
med lems
cÄ± v
arr s
Base Specifier
unuz u
ĠLo ader
ska ps
spro sess
belir gin
Do main
olog isk
yarg Ä±
ÅŁiÅŁ man
character Offset
bedri ft
deriv ation
smirno v
Ġ################################# ########<
Ġtech nically
ĠSing le
ĠPrepared Constraint
ECD HE
_ ``
i ka
u ge
v le
re loader
it or
SH ORT
be grep
ĠD ummy
ĠM ap
su la
lic ated
gÃ¶ stere
pan ik
Ġclassi fiers
ĠDistutils Setup
Function s
gev Ã¦r
umf pack
ĠDistutilsSetup Error
' ``.<
i fication
ge m
for met
Ġh ack
con tained
able s
Ã¥ re
Ã¥ nds
test er
ft ar
pr insi
10 678
mar ka
ref le
Ġar ity
ix el
length s
mayacaÄŁ Ä±nÄ±n
oy ala
classi f
condition ally
gul v
dak iler
helik opter
c te
d Ä±ÄŁÄ±mÄ±z
l j
y d
Ġ" ").
ar row
Ġp val
di yet
Ġa ug
ab er
Ġ* /<
Ġch an
man ual
64 8
uk la
Ġcoef s
malar dan
mÃ¥ ne
ORT RAN
Sec ure
Ð¾ Ð
sÄ±Ã§ ra
ĠCurrent ly
sans Ã¼r
avrup a
+ ',
a wait
k ader
n app
Ġt kinter
pe ek
ma hs
is ini
len s
ka fat
Ġac c
Ġmin imal
Ä±s mar
kr one
kay Ä±t
cri teria
diri chlet
kam mer
Ġbas inhopping
Ġbad ly
madÄ±ÄŁÄ±n Ä±n
Ġlex pr
ENT ITY
Ġspa wn
clone d
>## //////////////////////////////////////////////////////<
Match er
ĠAN SI
d ent
f ay
k Ã¼n
l Ä±ÄŁÄ±yla
Ġi req
Ġd ct
om uz
den gele
ek ip
acak lar
ametri c
Ġperform s
derivative s
spÃ¸r smÃ¥
Ġpointer s
hast alan
Over flowError
resol ver
AssociationProxy Instance
alp n
Doc ument
sche mas
pear son
KW Args
) ::<
P G
_ *
a ze
h ile
p dist
w p
Ġp sycopg
def ter
el eri
ĠM LE
Ġk d
Ġpre tend
ren aming
sent inel
Set tings
Ġtri ed
take lse
á´ Ģ
dere ce
ĠTime stamp
CODE S
bus day
Ġrepla ces
NDArray Equal
ĠOut put
ÅŁamp iyon
) [-
2 17
> /
B LOB
G LOBAL
j inal
p ant
sel s
Ġst ra
ha kk
Ã¶ ks
up grade
do ku
sen di
Con sole
arch ical
cur dir
Ã§e ke
ben ch
kÃ¶ le
Ġ'. '<
ow ning
sey dim
ĠLe ast
Ġaff inity
Ġfo x
Ġatt ack
Ġmac OS
^{ -
Instance State
Ġty pical
223372036854775 807
i ra
on oi
Ġt imer
pe ats
Ġcon s
be vil
tem mer
AR CH
sin in
No Value
à¦ ª
bes kat
auto step
Data Frame
mekte ydi
meler inden
Ġloc ally
inc it
kontra kts
TIME OUT
Na N
Ġwild card
CU MENT
sÃ¶mÃ¼r ge
ĠBot tomUp
==|!= |<
univer sitets
Ġske w
! !
* -
p j
y seniz
Ġf reqs
is abs
ac tiv
con ns
pro vides
Ġde clar
(' \\
Ġinter mediate
dÃ¼ ze
Ġcom b
land slag
mu lighet
fun n
sÃ¶ nd
Ġ'. '
Ġmodi fiers
kla ge
Ġsuccess ful
Ã§ev ril
tegr al
ĠLin AlgError
ĠEst imator
+ [
C BC
a hi
rom anti
all Ä±k
Ġdi f
nt opro
Ġpro ba
den de
Ġcol lect
bil di
dÃ¼ k
split ter
OR P
15 0
kr at
18 0
Ġ'. ',
.* "):<
Ġhigh light
boÄŁ uÅŁ
Ġpunct uation
ĠSo ftware
beÅŁ ik
Ã¼niver site
colum ntopro
ĠGrid SearchCV
columntopro perty
H ot
a var
e fe
i ent
r split
Ġn ump
Ġa min
si ka
lo pp
ĠS hift
(' (
comp ression
Ġsy nt
ant Ä±
RE GI
Ġsub tract
kal Ä±
kap Ä±ÅŁ
Ã¶r nek
Ġread able
our sql
ben sin
Lo wer
Ġsyn sets
ĠIN DEX
bon de
Ġeigen value
public Id
dj up
demokr at
fug l
ĠTimeout Error
P acific
o sa
Ġ ?<
Ġ question
Ġn r
ra ses
Ġp ixel
Ġs parsity
Ġcon tra
ĠS H
up dated
read the
32 7
ĠEx pected
exp onential
let ter
imp lies
mon op
ĠWe ights
Ġpad x
simp lify
medik Ã§e
readthe docs
3 75
N ONE
t Ä±nÄ±z
u sel
v ot
ur n
si yas
is hockey
id are
#### #<
am big
Ġcon ll
Ġdi sk
pro ble
im kan
ĠV ander
32 5
ache s
mem ize
db name
bul undur
alar da
OD BC
Ġcallback s
SHA RED
kvel ds
zehir le
ĠTemp Directory
Ġunne eded
Hot Encoder
E rr
d z
te ar
li days
Ġa pi
ĠT EXT
sa pt
pro cesses
ĠB E
ef endi
kol la
Ġpop ulate
Ġdisc us
kamp an
Path Pointer
zey tin
arti cle
ĠProb ability
pub lik
ĠNegative Infinity
A I
M ain
] ]:<
i ba
l or
in voke
re j
Ġs light
Ġin form
is update
Ġh atch
path name
men de
gg a
ant ren
Ġprocess or
30 9
active BlockVector
pa ste
lov ak
Ġnamespace HTMLElements
ony mous
fang st
Ġband width
C C
D egree
^ (
f av
z x
Ġ qual
st orm
ma cosx
ad vok
able Attribute
et name
ĠD ecor
() ==
min imiz
Ġnum erator
hi Ã§
has attr
Ã¶z Ã¼mse
") ])<
ĠFor ward
indi ter
sys log
sÄ±k Ä±ÅŁtÄ±r
kÄ±s Ä±r
Ġsmoo th
ÅŁÃ¼phe len
Afri ca
(""" \<
tiyat ro
A CT
H EN
k jer
t res
Ġn ex
ur istic
si mplex
th o
ad j
sa de
Ġg am
Ġg rand
Ġpr inci
kat la
math ml
source forge
arbeid a
Ġ". *
kol og
bat ches
Ġcho o
Check s
ĠNormal ize
giriÅŁ im
gÃ¼ncel le
Ġrequir ing
rÃ¼z gar
F RA
i en
k ategor
v r
} ',
st one
st el
Ġf ire
Ã¼ mÃ¼z
co sh
Ã¶ lÃ¼m
(' *
vi ser
mal Ä±sÄ±nÄ±z
RE NT
Ġsub s
Ġ. *<
Ġ\ \<
gre edy
ĠPro cessing
norm case
mayacak tÄ±
classi fiers
ĠSte pping
vind u
ĠOp tim
Cookie Session
Ġexpi res
dalg alan
Alig nedSent
b rent
Î ¸
Ġ Quantity
Ġt ele
st iv
es ne
Ã¸ ns
ka pt
Ġ% .
man a
assert NDArrayEqual
cek se
dimension ality
Ġbyte array
studi e
ALI D
sÃ¶y len
Ġformul as
: "<
G radient
n Ã¼n
z un
z incir
se be
re cognized
at Ä±ÅŁ
__ ")<
(" .*"):<
ĠC lassifier
Ä±m dÄ±r
Ġun k
ĠM AT
ss lobj
ca ping
av tal
kon stru
uk luk
mes h
bil lett
lu fts
sh ielded
dur dur
van ta
sav deling
sem types
mayacak larÄ±nÄ±
inan Ã§
cas Ä±na
Ġproduct s
sph inx
haber leÅŁ
~= )
==|!=|< =|>=|<|>
D D
S hape
T eamUltroid
i ted
Ġ um
le velse
ce ful
si bilities
Ġe i
ma malÄ±dÄ±r
ter t
ĠI II
ĠE nglish
ĠU sage
Ġcomp ound
kon j
Ġmatch er
meye lim
kr u
rol le
Ġ-- -
Ġsign er
produ sent
yaÅŁ am
Ġgo es
Ġaut oload
ome ter
dene yim
rot ation
.... ....
ĠPRO TOCOL
Ġevi cted
kiÅŁi sel
brans je
G NU
k ate
r mul
he kim
as lan
con tain
min kowski
Ġkey file
ko la
Ġsub stitutions
mad Ä±n
cheb der
dis abled
List ener
feature sets
fj Ã¸r
Ġinsert s
instrument ation
yord um
TRA IN
ĠAlig nedSent
EG G
ikti dar
kÃ¼lt Ã¼r
) [:
S ph
d Ã¶rt
h ati
k ati
p Ä±nar
y ene
Ġ( .
Ġbe gins
Ġbe hind
con centration
([ .
Ġpro to
try kks
Ä±s Ä±ndan
Ġad v
abc de
Ã¶ÄŁ rene
lak se
Create s
ori al
Ã§Ã¶ p
ĠStandard Scaler
v l
v ura
re is
Ġf ine
di len
Ã§ ile
ak iler
par mak
Ä±r dÄ±
ĠC or
Ġl r
ust a
mÄ±ÅŁ lardÄ±r
miÅŁ se
Ġitem size
context filter
Al low
sem Types
ppe l
kok la
(% (
Ġdisc arded
uc uz
annotation Set
kostnad s
BF GS
rapp ort
chin ery
Ġretrie ved
W IN
f rag
o sting
t ac
Ġ },
al dan
Ġc b
li yat
Ġb ag
ter le
Ġ1 10
par l
ĠS olve
Ä±l Ä±yor
ĠL SQ
Ġsu ggest
laÅŁ tÄ±
reg ressor
Ġz r
20 4
let te
Par sing
mi h
15 9
Ġsh utdown
bak ke
sek reter
rek lam
linear operator
Ġhist or
ula cak
rm tree
zik ret
plug in
bombal a
REGI STR
+ '
k nings
re name
on en
Ġf ace
il cox
ot or
cl ong
for um
ze dele
ust e
ok y
leÅŁ mesi
maz ken
mel lo
44 5
\. (\
ĠDist libException
RI ME
sab ah
Ġcharacter istic
umuz un
Ġopt parse
stand art
Clo se
Form ula
ĠOp timize
fro mpy
WA RE
Mem ory
j uni
m end
n ya
Î ļ
re po
as p
Ġp asses
ri ce
Ġ[ %
pp ene
ak tif
pre p
py c
In stalled
alle ts
mÄ±ÅŁ lardÄ±
LE G
cate gor
baÅŁ kaldÄ±r
mu hal
han eler
kay Ä±r
sak at
kÄ±r mÄ±z
neg ate
olo gical
coded ata
tz mann
ear u
lÄ±ÄŁÄ±n Ä±z
auth enticate
bry st
Ø´ Ø§ÙĨ
BLA NK
Ġabstract method
Ġefficient ly
senti ally
ziy aret
Ġred undant
ĠPeter son
asf alt
- ',<
C y
C lassi
X t
b ant
c iddi
d ad
e lif
f inditer
l uluÄŁ
p te
x id
": "
as Ä±ndan
ti ck
ma i
ke sim
ĠI ts
all s
Ġl z
ext ended
Ġ4 3
if ade
bil mesi
AT OR
ĠK B
bar het
indi re
insert s
mamÄ±ÅŁ lar
prob dist
spro ble
Def aults
Ġsen sitive
Ã§at la
alÄ±k oy
kunst ner
ĠToken izer
Ġalign ments
persist ed
Ġembed ded
ĠZip File
> -<
P U
Ġa mbiguous
ge ze
ent rant
Ġd sye
Ġm ult
ac celer
pp en
Ġu id
Ġdi vided
Ġg rp
ĠC re
ĠP air
vi si
ff ins
po h
ĠU p
Ġ-------- --------------------------------
lag uerre
ang rep
uy dur
miÅŁ tim
IN CT
Ġexclu ded
Ġvi sible
ose conds
Ġdist ingu
mon de
Ġexec utemany
tic ket
bel te
hist ori
kjÃ¸ le
ĠDi alect
Hel p
á´ ı
Ġdescri be
biliyor lar
Sub class
ĠWh ile
dtr c
ĠCON T
ĠProxy Error
Ġstd lib
leÅŁti ren
EXTENSION S
S tyle
an ay
', )<
Ġs co
Ġs lash
Ġ' ',<
un do
il des
is jon
fi yet
ĠA ccess
Ġg ues
mal eri
kar lÄ±k
Ġpoly add
Ġpoly mul
Ã¦ ra
tan e
spe k
pol arity
script ors
byg d
mamÄ±z Ä±n
ĠDistutils OptionError
ĠFe atures
SV D
Ġdescri bes
Ġcert file
trunc ated
Ġtrunc ate
biÃ§im len
Ġbigram s
konsol os
ĠKnown Failure
U sr
se fer
de yim
un st
ul ur
qu antiles
ts vx
ĠP CA
Ġpo licy
Ġpre vents
Ġ4 00
mb das
Ġ5 6
use rid
uz an
Ġtra cker
mez ken
abilir ler
sim ge
au di
kuÅŁ kul
Ġsend Usr
menne sker
Buffer ed
Ġscor er
ĠsendUsr Message
= \
A m
C Y
D ROP
M id
M ON
V isual
n ap
o si
r x
st jerne
al ak
Ġf used
ro sen
Ġo auth
mp f
Ġ: ],
ch y
Ä±n la
om mer
im ul
pre served
ord re
ĠB lock
sen ary
lay ers
mÃ¼ hen
kap Ä±
Ġmulti ply
14 74
Ġparser s
Ġdimension al
Ġkernel s
etk ilen
Install Dir
Ġsem type
AC Y
DDLE lement
Sdk Dir
. '.
> --------
D id
S eg
i Ã§e
Ġt icket
Ġi l
pe tan
Ġe igh
ut sty
Ġ1 27
ck y
LI MIT
ĠW in
Ġro c
Ġro ugh
Ã¦ ren
my table
eng ines
dev rim
bul ut
supp lied
malar da
bak Ä±r
mor al
sav rul
ura ged
take step
endi f
Ġplan e
komple ks
ĠRel ative
ÅŁid det
e lev
en na
as ser
di lek
ne den
Ġex emp
ĠC ha
ĠC CG
__( )
ĠD ATE
comp anion
ye de
man Ä±
Pro gress
imp uter
66 6
cekler dir
mayacak lar
mediÄŁ ine
ring e
gj Ã¦r
kÄ±v r
high light
hun de
Ġsatis fied
Ã§u val
tÃ¸r r
ipe line
expi res
Ġoccurren ce
chin ken
instit usjon
feder asyon
tear down
. :<
y ang
in Select
as Ä±nda
Ġin vol
Ġcon strained
to s
lse ne
ger en
In tel
Ġiter keys
sub plot
Ġpy py
") ],<
cek miÅŁ
NO DE
kÄ± ya
fre quency
cer tain
clear StackToTable
Body Phase
Ġserial ized
Row Group
ĠINT ER
skud ds
% %
1 64
> ================================
Z ES
] '))<
d ct
f Ã¸y
s co
s lak
t li
x in
Î Ń
se ktor
Ġt xt
Ġ( ('
Ġn y
ke skin
par ker
int ro
== =<
du le
Ġcomp ressor
In an
sub scripts
ap ir
Ġpy malloc
IT EM
bre m
Me asures
fat tig
INTER PRETER
ĠEL F
profes y
sume xp
Ġmul til
huz ur
g lad
r inger
t Ã¸mmer
re es
al ad
>' ''<
Ġr fft
to csr
et ters
key file
Ġme chan
Ġun conditionally
alar Ä±ndan
yap Ä±m
Ġsum mation
aydÄ±n lan
BACK END
yÄ±pr an
otom o
Ġopp osite
( .
s ler
ri ve
Ġun link
du ct
ĠB OM
ĠG ROUP
"] [
ven til
Ġsent inel
bet ween
compare d
XX X
kah ve
Ġdiagonal s
gjennom snitts
exclu sions
regjer ing
Ø³ Øª
Op timize
r nd
v on
y ou
Ð ²
de tal
Ġre mains
ur d
ĠC Y
10 4
back track
:// /
Ġrefer ring
sÃ¶ v
seg l
ĠPo isson
Ġdesc ent
fly tte
QU ENCE
ĠNa ive
Ġconveni ent
Ġwave lets
soyut la
tÃ¶r pÃ¼
mekt up
trinsi c
REGISTR Y
" ',
> .<
F N
M ARG
W ant
as j
Ġc nx
Ġf rel
and ing
__ ',<
fi sere
iz able
mo ti
app ar
Ġsu bj
ĠR A
Ġ... )
group by
VER IFY
kre ft
tele vizyon
tas ks
tÄ±ra cak
Ġfra menet
dÃ¼n ya
Ġmer ged
ĠUnsupported Extension
Ġdefer rable
MARG IN
S W
T z
a ul
t Ã¼rÃ¼l
as Ä±yla
Ġin herited
Ġb us
Ġb ench
lo ven
Ġex e
mat eri
us able
lat ing
ren n
pla k
kar am
Ġ7 2
Ġright most
hal k
mean ing
fin ish
stil bud
)** (
fan cy
kem ik
predi ction
labor ator
ĠUnpack er
K ernel
W in
h ad
j est
r st
s ot
t red
x b
al Ã§al
Ġ( *
te b
di str
ma maktadÄ±r
ve y
Ä±n dÄ±r
Ã§ et
Ã§ eler
id rett
ast er
sub s
sub tract
bi bel
han di
50 4
Ġ'. '.
Ġview menu
pÃ¥ ske
FT ER
Ġinstanti ated
EG IN
>`_ .<
Than ks
) ]*
W ol
k lik
w itch
ĉ ĉ
-- -
Ġse ek
ay la
ĠM ary
Ġ5 8
=" )
kar ound
bil gis
bs olute
Al ternative
ĠCheck ing
yi ÄŁ
ud pickle
HTTP Warning
abilir siniz
kri st
Ġel lipsis
don dur
fd tr
manÄ±z a
Ġ"/ "
ĠLog isticRegression
ĠRes ource
Ġmarg in
board Interrupt
yine le
Ġscen ari
b are
m ig
u en
Ġb atches
ke mal
Ã¼ kle
ve te
fi zik
(" #
ĠP AR
data structures
Ġpre computed
kon ses
]) ])<
tek stil
Ġclo sure
kÃ¶ pr
taÅŁ Ä±y
kel le
cÃ¼ lÃ¼k
reduce at
PRO XY
caÄŁ Ä±z
Ã§Ã¶ ze
Ġupper case
kÄ±y met
fl or
yalan la
baÄŁÄ±m sÄ±z
kÃ¼re sel
ĠVocab ulary
) $",
c ubic
o ji
Ġc ros
um ped
for bin
for bruk
ex hausted
Ġdi sallow
ĠA vailable
pro vided
Ã¥ n
Ġ4 8
ĠV ector
sub stitute
Ġback track
mi jo
Ä±nÄ±z la
ark iv
Ġbreak s
80 9
say Ä±
\\ \
commit ted
send file
Ġ"[ %
)/ (
ĠNO UN
hort um
Per form
ĠAllow s
ĠSu bject
3 14
? \
D BAPI
I ALI
d ram
h ent
ti tte
Ġb w
ol mo
ma maya
lo ts
Ġ""" .
`` ).<
ak Ã§Ä±
ler ken
Ġx b
ĠC HE
per form
im k
ust es
du ck
ĠW orld
Ġ5 4
Ġac cessing
uy gulan
poly vander
Ex ample
Ġsh ifted
mediÄŁ imiz
Ġes sentially
kernel s
ĠChart Parser
, "<
h g
i fe
Ġc n
ra ck
Ġp us
ro c
li lerin
li ydi
ri ye
par as
ler en
ĠP lot
LI BC
ist ene
sy nt
hand les
Ã¶z etle
malar Ä±dÄ±r
24 4
kÄ±r Ä±k
Ġmemory view
SI ZES
tah ri
parla ment
Chunk Length
Ġsche mas
Ġsitu ation
ĠCookie Jar
" ([
O BJ
b ene
e man
g ala
h artree
m ord
un igram
Ġas from
ke se
ac a
for deling
Ġr bm
Ġpro vider
Ä±l dÄ±
ko lek
poly sub
Ġlog file
trans fer
mu hase
call fortran
compile s
hy phen
dep graph
Ġgeneral ized
Ġprogram ming
ann en
Bot tomUp
fjern syns
iliÅŁkilen dir
Ro ot
( ([
. ]))<
1 90
e a
i B
he p
me gam
Ġc d
Ġe diff
def or
(" (
set field
che t
Ġpo ols
ok ing
Ġcol lation
gi ver
ast ing
ast ic
lik tir
Ġexp l
ĠPar sing
ĠDe bug
sÃ¼ t
tut tur
gel s
Se ts
For ward
pat ent
mey ince
ĠRE AD
meyen ler
Ġclone d
miyor uz
Ã§arp Ä±t
fÄ±r lat
super set
ungdom s
hatÄ±r lat
Ġcip her
initi ator
nper seg
ambig uous
s unuz
x min
er ivative
an to
Ġo l
ser p
ab alÄ±k
sp lass
col lapsed
dÃ¼ kler
Ġuni codedata
fre edom
best e
erce ptron
sÄ±k Ä±
Iter ate
hite space
Ġpad y
Ġhypothe ses
Ä±f lan
alaÅŁ tÄ±r
Ġinherit ing
Lin prog
Ġoverwri tten
dÃ¼ÄŁ Ã¼m
707 10678
) |
1 63
e mb
h v
p f
p cg
p uan
t ad
t ang
an ser
Ġa ge
"" ",<
ĠS trict
(' ...
NG TH
be low
bo s
ger ing
Ġ5 2
Ġv cs
In d
ĠIn secure
Ġsp ans
lÄ±k tan
ĠJ inja
temp o
han Ä±m
leg get
pl uk
Ġ-- >
Ġparticular ly
ayr Ä±m
bun al
ĠThere fore
Prop Comparator
koval a
cumhur iyet
ruhs at
> .
S ki
U ID
g ry
i lah
j Ã¼
ti ler
un used
Ã§ av
ĠP allets
Ġ3 8
var char
ĠM AN
Ġk lass
app lies
ĠRe cord
lan de
time zone
ko ca
** <
bs v
Ġdoc strings
Ġmulti part
tak sit
kay Ä±n
dev re
qr f
yÃ¼k sek
tep ki
free ze
strate gies
Connect able
ĠAttr Dict
d Ä±ÄŁÄ±nÄ±
e vi
Î ¯
Ġre load
Ġp dist
Ġa mt
`` '
Ġse quential
ĠS lotSet
da vet
tri angular
art tÄ±r
ger il
Ã¼r kÃ¼
Ġget list
kon flikt
we ak
LE NGTH
Ġrandom ly
tÃ¼ y
Ġcal c
fol low
Connection Events
kn ip
ĠLI KE
kre m
deÄŁer lendir
center s
Ġrece iving
expi re
Ġexpi red
sÄ±yr Ä±l
A FTER
b vp
f iler
h its
n ast
s op
me ce
un quote
ma malarÄ±
Ġis sparse
Ġd endrogram
til l
ye ÅŁer
ĠV aro
ni tele
gr uve
Ġpy tz
match er
mod er
hal s
rol la
fri het
bytes wap
DO WS
tig hets
ih ra
Uni que
ĠIN TEGER
mediÄŁ inden
HE ST
Ã§ar ÅŁ
ĠTable s
ju ke
Ġhyper geom
Ġaff ected
Ġresol ver
Tra ining
yord uk
ced ure
Ġmut ual
lf w
amaÃ§ la
bast Ä±r
Ã¶fke len
142 13
SUFFIX ES
Ġresi ds
ĠVaro quaux
A ss
B r
e ur
t ts
v ask
Ġn bytes
Ġin cremental
Ġb d
ter ne
il li
co me
Ġu int
der ne
Ġl l
Ġout lier
gÃ¼ mÃ¼ÅŁ
met al
can cel
Pro perties
Ã§e lik
indi ri
Ġtrans actions
leg gelse
à¦ ķ
Ġprodu cing
Ġinvalid ated
dar al
Ġmain tains
miyor um
Ä±lmÄ±ÅŁ tÄ±r
ĠOne HotEncoder
L egacySpecifier
d ns
n ut
Ġ ])
ti ge
': [
ol as
Ġ0 01
Ã§ are
ex emplars
ĠS ave
Ġh ence
ĠB LA
ek sil
Ġnew ton
Ã¦ l
dÃ¼ kk
Ġup grade
abili rim
return code
mon i
dat o
frame Rel
ince l
yaz Ä±ÅŁ
stop words
à§ Ģ
Ġeigen vectors
ĠCore NLP
danÄ±ÅŁ man
zar ar
depo la
8 57
f rans
Ġ hes
se ktÃ¶r
ti ren
Ġre po
Ġp key
ter en
Ã¼ rete
co p
Ġ1 0000
Ä±n caya
con omic
Ġco ercion
Ġx e
int en
Ġ` __
ok sid
ĠO li
mas ke
tt p
Ġsy nonym
gi f
mÄ±ÅŁ tÄ±m
32 3
eri or
kur tu
ven v
Ġrel s
bÃ¼ l
bel gele
yi ye
kl ub
sev gili
OS Error
bir lik
kit le
freq s
Ġlem mas
ÅŁiÅŁ ir
Ġplug ins
Bind Parameter
determin ed
LOC AL
ĠABC Meta
( ':
f lam
an j
le delse
me ga
Ġn aming
Ġre construct
il gi
um un
per mutation
Ġtype d
Ġl smr
Ã¥ d
ĠD et
lan ck
ini on
stra uss
fix es
mad de
context ual
spe si
30 7
eff ek
rek lame
ĠDistutils PlatformError
ĠBack ward
Ġtur ns
Ġmime types
ssy ste
haf Ä±z
ĠLim it
irti bat
iting mixing
profesy onel
? ?
C ASCADE
F ER
M asked
p d
s Ä±na
v ins
en dian
st res
Ġi st
ate x
Ġd ates
Ġu tilities
ler ne
ler miÅŁ
ĠF ol
pre args
ĠL eg
iÅŁ lem
Ġcheck er
Ġsub path
orm on
Ã¶r ne
liÄŁ im
Ġcre ds
abc def
poli s
syke hus
altern ativ
tver r
[ ['
d yp
le apdays
Ġc f
Ġf z
Ġa str
ÅŁ eff
ĠT weet
ne st
ĠC ho
set nings
ind re
ger ne
ĠW hat
dd cup
Ġexp anded
tree bank
kal a
Ġper mutation
bet on
skip sf
cheb vander
sav tale
De precated
miyor lar
ick ling
yÃ¶net men
him mel
ĠMar ker
Alt Name
ĠVander monde
' -
C luster
C LOSE
x data
ar Ä±z
de limiter
me mekte
Ġre name
Ġin stru
Ġe f
Ã¼ zer
Ġex pose
ĠS ign
Ġpre pend
den ominator
mas al
Ġsub type
Ġexp lo
new s
LE X
") ;<
gu ide
tre ning
uÄŁ rat
gn oring
Ġscal er
ĠNew ton
Ġcenter s
tekn ik
Ġra ising
teti kle
: ',
F LAGS
F airy
P attern
S hift
b Ä±ra
mp math
ge tire
pre sents
ĠRe al
sing ene
Ġmat vec
(( ?
Ġ"< %
stru ve
ĠR ect
ĠSe quential
gr and
Ã¶z et
90 6
tut ar
22 31
Ã¼l kÃ¼
Ġnext token
Ġevalu ations
36 5
sÃ¶yle ye
cr ustes
Ġdispatch er
COM MENT
ĠStr uct
Ġconne ctivity
REF COUNT
ateÅŁ le
cheby t
' ^
) ]))<
S er
] {
e leÅŁtiri
i ret
É ´
Ġ" !
en te
Ġi bm
Ġn fft
di yar
Ġex tre
ĠS hort
len mesi
Ä±r sa
et c
(' #
Ġal ternate
Ġ5 1
Ġhas her
kur gula
lÃ¸ ps
cy gwin
") ))<
EN V
unk tur
Ġman ip
Ġour selves
ĠAs sert
larÄ±m dan
luÄŁ u
bilecekler i
Ġorigin ally
hole sky
ĠMis sing
meto de
clong double
` ;
f arget
g vd
g reatest
h h
v ad
w coef
Ġ" ("
Ġc python
ti der
Ġa vg
Ġw coef
Ġd jango
Ġun ify
kar ikat
Ġ"< /
Ã¸r ne
kal ite
ST RI
Ġlog istic
Ġ8 5
acak tÄ±
her re
dÃ¼ÅŁ Ã¼ne
gel ss
IO NAL
UR ATION
Ġissue d
lÄ±ÄŁÄ±n da
Ġdest roy
Ġdb name
cep ted
ĠMulti ple
arz ula
: ])
G amma
] '
a ften
g kde
j un
er ende
de ydi
di yse
ce eds
la ck
ch astic
ts v
sa at
ĠF ull
Ġ3 02
ds n
out liers
hy l
ĠUn like
sn itt
syn tax
Co dec
yors anÄ±z
keÅŁ fe
Num Py
istan bul
Ġtur ned
Random Projection
Ġstra ight
categor ical
f jÃ¸
en et
al em
an imating
me mesini
te tt
un supported
ver ir
ĠT S
str f
tri ton
ĠM ON
ze de
are al
ph ens
Ġexp lan
va i
kal dÄ±ra
gÃ¼ cen
St mt
az alt
say dam
Ġmodi fication
rev ol
Ġevalu ates
feature set
HE EL
Ġpage s
nas ip
Ġpredicate s
grÃ¸ nn
orage Adapter
Ġimpro ved
built in
Ġzhe ev
Cur sor
Ġadap ted
struk tur
ÅŁeff af
( (<
F i
P repared
] ``,
i lo
n ende
p asient
Ġ kappa
an layÄ±ÅŁ
Ġn th
lo bs
ak ut
pre mi
lan e
bug s
ple ie
Ġclo ses
19 6
sar Ä±
duy gus
umuz a
Ġminimiz ation
Ġcoerce d
tÃ¥ ke
kopy ala
scrimin ator
Ġpoor ly
iÅŁare tle
kollek tiv
' {
] [-
k ass
w orks
al im
le ading
de but
Ġp ast
il ke
ab ey
for hand
es se
Ġ2 50
Ã¸ ver
ata y
set Filter
Ġl max
ber noulli
av fall
pi lot
ms Ã¼z
ĠIn stance
11 4
spar ti
call er
kom isyon
print f
bre vs
ĠAr biter
diag s
Ġstop words
Backend Base
strict ly
skon to
Edge FundamentalRule
ileÅŁ tir
Ġ201 7
bilecekler ini
Ġconst itu
hid ro
Ġprimitive s
REPLACE MENTS
C ls
F ilename
k und
w av
Ġre lies
Ġ' *(
ĠI EE
Ġst ick
ka u
(" @
et tir
ans att
test ed
mas aydÄ±
ich r
ko de
fig Ã¼r
may be
des in
ni fi
kal p
log cdf
cor rectly
ga zi
0000 000
model l
50 5
]* (
Po ints
à¦ ¤
bilir se
leme yen
Ġnumeric ally
fl atiter
ĠArg uments
plain text
Ġhier archical
Ġguarante e
Ġperio dic
1 34
2 80
b ild
c map
t atus
al ara
Ġ( ):<
Ġn f
Ġs ay
Ġs sye
si tet
ut stilling
ut slipp
ak ÅŁam
iz ations
Ġco sine
Ġx r
pre ste
10 9
info s
"] ):<
dÃ¼ zey
Ġexclu ding
siz in
SSL Set
kat alog
kaz andÄ±r
Ġche ev
seg ments
stat Ã¼
dam ar
sysv x
("" .
ĠInf inity
Ġavo ids
STRU CT
slek ts
S calar
S pan
X ML
] }<
m kl
s dag
in stru
ar ac
al izm
te y
Ġw alk
ver dig
ĠT oml
get fullargspec
arg on
(" \\
ag onal
sing a
ik on
log space
gor ov
liÄŁ imiz
eg in
ĠComp utation
kl ings
tat lÄ±
seler di
Schema Item
Ġfron t
SCHE MA
Ġrm tree
4 33
i us
j ener
p lu
in u
Ġn n
Ġn iter
di kk
ge tiri
ge byr
ter ci
Ġg y
ĠC luster
ĠD umper
men ize
sc oring
[' _
Ġsub queries
lay abileceÄŁ
Ġfe ed
opp tak
spe ctor
yor sa
inde k
tar iff
tek in
gel sd
Ġframe set
kav ray
step size
oyn ay
mayan larÄ±n
Ab brevs
hjer ne
proto kol
ĠFra menet
Ġarti cle
Ġfr info
+ \
. ':
T A
m ere
v ri
x label
y ud
an ad
Ġ( :
ti ger
Ġo dr
ha u
Ġcon tract
Ġco variances
ĠC ertificate
ĠP ron
Ġde trend
pre cate
Ġl c
tt Ã¼
inn a
mer te
". *
Ġent ropy
Def ine
sq p
Ø§ ÙĦ
CHAR S
sli ces
blom st
FA IL
Ã¶zer k
hass as
1474 83
- ':
9 20
G o
b ue
b ent
di yal
si ms
Ġe fficiency
un ts
lo mme
Ġdef ects
Ġas matrix
ve Ã§
ch mod
end ants
ff ective
ĠD IST
ĠRe set
ili kler
den sed
add resses
)) *
ĠR BF
ĠR Lock
Ġover all
Ġmin kowski
Ġrec array
Ġ-- ,
hold nings
tmp file
ĠPy Object
tab an
mamas Ä±dÄ±r
Ġinner most
bÃ¸ l
ĠCan vasWidget
bra cket
pin o
contiguous array
cep he
"} :<
moo thing
kot ar
distri kt
tÃ¶ kez
Ġpopul ated
Ġste ms
Has her
ĠFORE IGN
2 90
B ul
I SO
b sp
m ers
m Ä±yordu
p value
} })<
an chor
"" .
es sian
pre m
sy base
tra kt
ĠG ot
nd x
Ġ6 6
lay Ä±c
bi ra
land a
land Ä±
mem izin
hen syn
ID ENTIFIER
sÄ±z la
54 9
bay rak
alÄ± lar
listen ers
politi kk
TIME STAMP
gol v
ĠIEE E
F B
at en
le ilig
Ġc nt
Ġb sr
Ġto ks
qu ats
Ã§ en
Ġor acle
ff tshift
ok ur
diÄŁ imi
pri ce
mad aki
inden strauss
bet ing
bes Ã¸
dy k
iÃ§ ir
linear mixing
lÃ¥ s
Function Element
Ġ"> ":<
fk c
gÃ¥r d
combin ator
frompy obj
H KEY
T wo
a vi
h ref
i tes
k ill
Ġ" ,<
re kk
at Ä±
st et
Ġcon crete
pro fil
ay dÄ±k
ĠW arning
RE C
lÄ±k larÄ±
Ġ[' --
Ġho le
Ġsome one
geÃ§ ire
bel en
syn sets
fil tre
Ġinvalid ate
mann en
gerÃ§ek leÅŁtire
ĠPool Error
Connect TimeoutError
Ġderiv ation
>#---------------------------------------------------------------------------- --<
sprosjek t
0 86
E nsure
I M
g p
in serted
Ġm n
ĠN EP
it ten
get field
con ver
sa ue
ĠC ephes
et ab
peci ally
ok un
mas Ä±ndaki
Ġsy mmetry
"] ]<
kal d
ular Ä±n
Ġread ings
kom ut
ĠAn der
kjÃ¸ pe
{} '.
vious ly
saÄŁ lÄ±k
sky l
Read TimeoutError
analy se
Ġcomple tion
Ġobserv ation
rz f
Ġdisco uraged
Ġpus hed
Ġre pl
ser vis
ke di
one ll
ne z
da ger
ip s
ek sik
my r
Ġup gra
lÃ¸ per
day mÄ±ÅŁ
day dÄ±m
tÃ¼ kÃ¼r
math rm
ban ded
yap Ä±ÅŁtÄ±r
lex pr
mah alle
ĠEn tity
Ġ', '.
ici ent
miy ordu
forsikr ings
4 13
D URATION
N R
g af
g iving
h ik
Ï Ĩ
st atist
Ġre tracted
ut bygging
Ġas anyarray
Ġst age
ak ing
to ggle
ME MB
fo ur
be cere
ĠU su
sen s
kon uk
reg uler
hel per
pri v
kÃ¼ st
san legg
mem le
Ġprocess Comment
kat Ä±
qr fp
insert Comment
kom me
Un directed
bak anlÄ±k
ĠstartTag Head
replace ments
ĠSet up
Request History
Ġtmp l
mey erek
retry able
ĠApp ro
Ġbroadcast ed
endTag P
endTag Cache
startTag Cache
Ġvc varsall
Ġshe bang
Ġrep orted
REQUI REMENT
EXTRA S
RAW TEXT
Math M
HAN UM
formatting Element
D ar
E VAL
c f
j umps
Ġt orch
Ġd dl
ad o
ĠT ran
Ġ[ ])
Ġh dr
([ ]),
so si
be si
su it
Ġdoc umented
Ġmay be
pop t
sl sqp
kÃ¶ ÅŁ
Ġca pi
Ġiterable s
Ġhash able
uffle Split
kayn a
yel ten
amin ation
ĠGa uss
' """<
) ".
t ask
u ar
le sky
me Ã§
me meleri
Ġre cover
for bud
ig hets
Re direct
Ġme et
Ġl as
Ġle gal
ĠIn tern
gr q
gr upper
Ġword num
fa h
Ġover lapping
Ġar c
tak ip
han i
Ġli m
DO CUMENT
En codeError
Ġspecial ized
meyeceÄŁ iz
Ġcho lesky
flow s
ĠSE QUENCE
barne hage
sentr um
BACK IFCOPY
demokr ati
Ġpersist ed
masÄ±n lar
sahne le
mater iel
ĠMAT LAB
H ost
c and
f ange
j em
k len
k atet
he ve
ti st
Ġf orest
is delete
ĠA ct
po tet
red de
uy gar
las ses
br s
Ġar ith
imp arator
Ġqu antiles
cre ating
tre nings
zip File
erce Unicode
ĠAPI s
Ä±lmas Ä±nÄ±
fes het
Ġfactor ization
lug in
Ġtz name
lerim in
ĠblockVector B
Ġide al
kucak laÅŁ
stopp ing
hÃ¼kÃ¼ met
Ġsche mes
kaf Ã©
Ġslight ly
) ()<
5 000
G RE
M U
Ġ" (%
an non
Ġ' ='
ter ti
Ã¼ fle
is ra
ip lik
ĠW rapper
url uk
RE TUR
ors ke
log y
kur ut
lem matizer
Base Estimator
termin ate
mamÄ±ÅŁ sa
Ġneg ation
ĠCreate s
HA SH
tun nel
allo cated
;\ \<
kÃ¶y lÃ¼
ciÄŁ er
ĠImp ossible
ĠGa el
kata stro
N ET
P N
V ENT
h d
Ġ" )"<
st if
Ġa way
for stÃ¥
am or
ci liÄŁi
Re cursive
im ren
ĠM ask
10 2
av n
ĠH idden
log file
bin de
ceÄŁ imiz
Ġhead ing
Ġ7 7
kj emp
LA BLE
ku lak
yet ki
26 5
Dis play
mut ations
Col or
kry lov
ĠUnicode DecodeError
mv sk
ihti yar
sekret Ã¦r
ĠHer mitian
narkoti ka
H i
s no
z ah
ÅŁ ev
ak ter
ĠS witch
Ä±r k
(" ==
ĠF utureWarning
Ġy y
ye ojohnson
men nene
ba Ã§
Ġ5 03
Ġsub trees
reg ning
uy sa
uy ordu
lig ste
lay am
default dict
tal ih
Ġurl s
sam le
Ġtree bank
Ġsample d
gel sy
vis ual
ĠMy Class
ĠException s
por ter
sab it
sab ret
BU ILD
VAR IABLE
Ġcolor ama
floor div
magas in
É ª
ar ka
st ap
Ä± rak
di stan
Ġe g
Ġto wards
ot u
Ä±r Ä±z
Ġpar alle
gg amma
uk at
mer ged
af ri
start ing
yon d
DE S
fet het
iyor lar
sw ig
syk dom
kayg Ä±lan
Ġdistingu ish
P Poly
Ġf its
Ġw rapping
ĠT olerance
Ġth readed
ran dev
las jon
sig ner
Ġcor rection
Ġwhere as
acak sÄ±nÄ±z
Ġcal endar
ben zer
]+ \
sat t
59 6
31 337
ĠMA C
tin y
hap is
gv x
ĠHel p
sÃ¶z cÃ¼
jÃ¸r ing
Ġws gi
Open Key
bilinÃ§ len
besky tte
Vari ant
D et
e pi
f Ä±ÅŁ
g st
h ut
v data
as contiguousarray
Ġre wind
di um
lo j
is inden
fi xtures
est r
(" {}
([ ['
__( **
ĠL ag
iÅŁ ti
Ä±y ken
ang re
Ġmin res
Ã§e le
Ã§Ä±k Ä±ÅŁ
pos sibly
kÄ±r Ä±l
Connection Fairy
tÃ¼r kÃ¼
ska per
ĠDi ffer
part man
Ġloc ked
gez in
klo kke
Ġsatis fies
IST S
skra v
sÄ±ra dan
arman r
ĠCompile Error
muhafaz akar
B egin
c ami
e tag
f usjon
t nings
se ta
re map
al bÃ¼
Ġf ancy
Ġas linearoperator
ne ighbor
ĠN U
iz den
ĠS VC
con sequent
ly se
ĠP UNCT
us an
ay Ä±kla
Ġen codings
qui et
Con sumed
ĠH igh
bi rim
kap sa
Ġ7 6
sh r
err ing
Ġvalid ated
yak ar
ĠSt atistical
bl ings
fg s
bÃ¼yÃ¼ kel
herit ance
Ġfall ing
Ġhistogram med
kv art
lazy module
Ġglob ally
ĠSelect F
Ã§ab ala
Ġtransition al
ĠYA ML
ĠFall back
TEMP LATE
ĠKnownFailure Exception
Ġgy ro
, %
> ============
K DTree
V ALID
h ormon
n iz
u labil
in ki
er f
at lÄ±
Ġc tes
Ġin ac
ter biye
ke der
is yan
Ġst uff
ka ptÄ±r
Ġg pr
ĠC holesky
mo ke
set flags
dir ty
ec z
skri ver
-> ...
ĠTh read
Ġregular ized
6666 67
________ ________
sÃ¶y leÅŁ
Ġapplic ations
ÅŁark Ä±
HEL P
righ ts
" },
M M
R D
m uz
n taps
t Py
Ġ" )
re pl
re store
ti ent
pe de
ce t
la ik
ol er
ul lah
is se
Ġd ashes
ord ne
fe ats
lib name
pr inted
out ine
In s
mÄ±ÅŁ tÄ±k
uy muÅŁ
Ġany way
Ġad vanta
ali sering
Po wer
DO T
sev im
Tree Edge
Co x
forsk ing
ĠEn able
kop le
gri se
ĠLe ft
bilecek tir
ibr aries
mix ed
Ġfam ilies
devi ance
kapas ite
Ġbg mm
ALP HA
Ġeli min
prinsi pp
bilgis ayar
A Y
D ING
h p
y ala
z m
Î ²
in feasible
Ġf get
Ġis spmatrix
Ġm it
ĠT EM
fi liz
ĠS uch
fo ster
bo yn
ĠL egacy
mal t
doc str
diÄŁ imizi
11 8
gu ds
arbeid ene
tz name
ens kap
yÃ¶ne tim
Ġag ree
kÃ¼Ã§ Ã¼k
ĠHe ader
utvi klings
conven tion
Parsing Error
ĠUsu ally
Ġarith metic
S am
W rap
ĠN orm
om sorg
equal s
ans Ä±zlÄ±k
Ġk ill
comp ati
Ġmo des
Ġro les
ĠIn tel
lig ere
Ä±mÄ±z dÄ±r
can ce
br ing
lerin ce
DE C
[:, :,
abil mek
exc itingmixing
meyeceÄŁ im
seÃ§ il
ND Interpolator
}{ \
ĠAdd ress
miljÃ¸ vern
Ġtar file
Ġhyper geometric
PAT TER
fk cs
1 999
D BC
g ig
n ag
me melidir
ha kem
for ure
ĠS amples
sor gu
base sample
num erator
fa ct
Ä±s Ä±yla
ped Socket
Ġ(" -
run de
De termine
ĠComp iler
ĠCo erceUnicode
gam mel
Ġwri ter
yarg Ä±lan
ĠBe low
ĠBe fore
manns kap
narko tik
Ordered Set
sult an
muhase be
S end
W arnings
] _.
c pls
i sering
s we
t c
} ](
re pla
de se
si o
ue se
lo dd
ĠT qdm
Ġst oring
ĠE R
ĠF in
sk val
text file
test One
ste le
Ġlist ing
del ser
ime t
ĠR est
scri be
ĠCon stant
her o
spe lle
Ġfol ds
Ġarr s
pat lat
mediÄŁ im
gÃ¼n ah
meyeceÄŁ inin
fj el
band width
ges dd
Ġmonth s
VB Z
fjern syn
Gram mar
press ure
+ (
j ell
st ag
te bil
te tik
lo z
ak as
Ġan alog
() """<
Ġpre parer
Ġset default
laÅŁ Ä±yor
ko pp
ug uese
80 8
bes lut
fel se
visit or
tiÄŁ i
vak Ä±f
cr t
Ä±ÄŁÄ±nÄ±z Ä±
tara ftar
Ġrestri ction
persist ence
kÃ¼f ret
nost ic
detal j
C at
c Ä±lÄ±ÄŁÄ±n
d ft
e ser
k ings
er inger
er ingen
er ingene
or onoi
Ġt e
de kke
as ke
Ġc xx
ti fied
Ġf cluster
pe ls
si ent
un bounded
ri chlet
ĠT wo
ĠA LP
ĠF IN
py exe
ary a
Ġ5 9
=' ',
larÄ±n ca
ant ene
Ġsub dir
uy gul
gÃ¼ le
25 0
Ġ() ):<
laÅŁtÄ±r ma
Ġ'% '
fin an
vur der
abilir di
vit amin
dÃ¸ d
hjel ps
hazÄ±r lan
maÅŁ Ä±k
Ġperson a
sÄ±y Ä±r
Event Target
(": ",
gÃ¶ÄŁÃ¼ s
bid rag
avan taj
taze le
Î¿Ï Ĥ
Ġsdk dir
LEG ACY
compati bilities
PATTER N
e po
re per
st ell
de coded
Ġi e
Ġp v
ne val
Ġst din
id Ã©
od aklan
ĠS trip
up load
con traction
Ġal though
col on
dan nelse
bil diri
fore ld
ĠJ oin
MA SK
kom utan
hal an
mez lik
Ġab spath
En abled
kun de
seÃ§ im
caÄŁ Ä±
mÄ±yor lar
ĠUnicode Error
ĠFeature Hasher
iÄŁ ren
tvang s
buk se
Ġexplan ation
9 18
= [-
D ummy
e valu
st jeneste
al and
un du
la pp
is pat
for ut
Ġbe yond
ise ne
Ġde signed
Ġy e
mo bil
til lits
Ġ< ->
Ġmat ter
Ġget mask
mar aton
ret ning
iter ations
IN Y
bal tal
kat Ä±lÄ±m
alar Ä±yla
enti fic
kÃ¶ pÃ¼r
http url
edi ff
diag broyden
Ġfin ished
grammar box
lendiri r
yum urt
064 3
Ġinterpol ator
Ġnu clear
kull andÄ±r
ĠExp licit
kjÃ¦r lighets
konfer anse
Ġski pper
Initial ize
Abo ve
nifi cance
> }
G N
S how
\ )
one t
ta rea
sa hi
ĠC ent
ĠP ip
laÅŁ tÄ±k
ĠG raph
Ġiter ative
aÄŁ a
sin f
move axis
sm us
=[ <
ĠType Var
lam pe
Ġspecific ations
Ä±lmas Ä±na
Ġwri table
kaÅŁ Ä±
arti st
Ġpe ak
ÅŁey tan
cheby u
diplo mat
yav ru
Ġunne cess
Grid Interpolator
Foreign Attributes
="" ):<
Ġpas sthrough
chis quare
tecrÃ¼ be
forbin delse
3 17
B ro
P air
d Ã¶r
e ce
y ste
er inga
re sidual
an sik
ra ÄŁ
Ġre ci
Ġs ps
di lim
ent a
ve de
Ã§ ul
Ġu d
om kost
am atÃ¸r
ĠS PE
con ditional
ĠP M
Ġ== ================================
(' --
py n
ĠD raw
ĠU K
laÅŁ masÄ±
Con crete
reg ist
miÅŁ tik
lig st
AR C
sv ing
kom Ã¼n
yat ak
UT C
fly plass
vit en
Ġcontrol led
ciler in
Ġtermin ated
sand box
nav ne
Ã¥p nings
gaz in
Ġsuc ceed
Ġpropag ated
abo ve
yiÄŁ it
* [
C ES
e be
e conomic
de b
for del
mat plotlib
Ġg ro
ly r
Ġy s
ĠU NI
Ä±y dÄ±m
iy ormuÅŁ
com mod
Ġup load
lÃ¸ fte
kÃ¼ me
inf ty
tÃ¼ k
à¦ ²
à¦ ĩ
Lo ss
Dist ribu
ja cobi
Read Error
undervis nings
Supp orts
ĠSecure Transport
ĠVi ew
mÃ¼kem mel
) "),<
b lin
b Ã¦
h ere
p z
ge lir
ĠT kinter
Ã¶ ze
to ol
Re quired
key transform
be fol
Ã¼n den
ĠG o
iter keys
reg nskaps
ting er
ey di
hen ge
call params
mez sin
sav gift
Ġ200 7
sÄ±z dÄ±r
Ġsearch word
Ġpost fix
ĠCh unk
bor ger
ĠAs sociation
Ġlu Name
mk path
mk dtemp
mir as
Ġspect rum
# \
S YM
f res
n af
s ven
Ġc adata
Ġf old
te sp
Ġre ly
mp ing
si le
Ġe lect
lo k
ac Ä±m
ab out
to hum
no verlap
no kta
ok si
Ġkey ed
av slut
kur al
kan Ä±k
tÄ± la
pol ated
Ġimp orter
invalid ated
ĠTra in
kÄ±v ran
tekn ologi
elek trik
Ġposix path
] |
e lite
o lay
Ġ ravel
me mektedir
ti lse
di van
di visjon
ce xt
Ġw rappers
la ve
ha red
iz leye
ĠS ort
ĠC Python
et ts
per f
ĠF ont
(' __
vi an
av ukat
ĠH essian
Ġsub routine
ore ne
lÄ±k lar
Ã¶r tÃ¼n
sal der
ĠPro cesses
66 67
Ġ) :
Ġ200 6
Ġbeha ves
29 4
Mo di
tÄ±k an
larÄ±nÄ±z dan
caÄŁ Ä±nÄ±
Ġcalcul ations
Ġcomplete ly
arm v
BO M
wri ting
hr d
Ġliteral s
sid ent
verden s
forret nings
meyecekler ini
gere ksin
arz u
poz isyon
yun an
Cent ral
Mi xture
mÃ¼hen dis
" (\
: ]))<
A gg
f type
f uk
k inger
k ingen
k ingene
r ingen
r inga
s lashes
ac cessed
Ġst ability
ak ra
ĠS tur
ĠS ent
(" ("
py pa
lan an
10 5
ON LY
opp lys
sal on
acak sÄ±n
config s
kor rup
Ġfull name
Ġab brevi
dr ing
sf x
go ing
Query ableAttribute
BO O
maÄŁ a
uÄŁur la
kÄ±m Ä±lda
munic ate
+ ",
P retty
S pec
g ag
k inga
u met
re ci
or skip
st age
me tri
me mesine
Ġf min
Ġre used
Ġp resolve
Ġ# :<
ri kk
Ġdef s
ut for
Ġst ft
to bak
im l
ff ers
ĠD imensionality
Ġdo ctype
ĠU SE
Ġcomp aring
clu des
inter vals
inn sats
Ġback ref
Ġvari ants
20 12
Ġcontext manager
Ġsuper class
Lo okup
Ġ200 8
kun nskap
deÄŁer lendire
ĠCan onical
Ã§ak Ä±ÅŁ
ĠTag ger
Ã¶ÄŁren ci
Ġtrig ram
tam ir
kÃ¶r Ã¼kle
invester ing
HIG HEST
interv ju
ĠNU MERIC
7 18
E fficiency
T er
Î Ķ
Ġi j
Ġi r
he lt
Ġn ans
Ġf spath
te ppe
Ġs ctype
Ġo mit
Ġa a
un parse
Ġw x
th a
ol anak
all eri
iz ma
), )<
ta z
ĠA xes
sk ik
(' [
leÅŁ meye
new line
ting ene
ev rim
uni q
siz liÄŁi
Ġest imation
Ch ange
18 3
meli siniz
Ġ20 20
sÃ¼r dÃ¼re
meler iyle
soft max
kry s
custom ize
bere g
}' ".
Ali as
kuÅŁkul an
# !
L PAREN
j av
p Ã¸
r Ã¼ÅŁ
as se
te kel
li ttle
un til
ma cer
ma makta
Ġ[ ]))<
qu ist
ne ctor
mo tiv
im dir
pre processors
ĠD egree
ĠL ex
ĠB rowser
Ġcol specs
Ġv v
red raw
iy iz
ĠĠĠĠĠĠĠĠĠĠĠĠĠĠĠĠĠĠĠĠĠĠĠĠĠĠĠĠĠĠĠĠ ĠĠĠĠĠĠĠĠĠĠĠĠĠĠĠĠĠĠĠĠĠĠ
kal abalÄ±k
tan h
can landÄ±r
Ġ8 7
kan on
Ġsh uff
Comp ressor
alar Ä±nda
inger print
ĠTo o
\. \
Ã§Ä± lar
boÅŁ an
hÃ¼ cre
Ġeps abs
miy ord
Ġvc runtime
Ġbran ches
devset box
Ġph rases
Ġsoft ware
ĠEXT ENSION
lst sq
Compile Error
ĠTIME STAMP
rady o
sprodu kt
ĠStur ges
" >
B E
a ust
b trs
f inn
k lass
r ug
ar ctan
as ak
ur sun
Ġs k
Ġs licing
mp en
mp to
ma ye
Ġd ll
Ġ[ ^
ler ime
ĠA ST
po ols
Ġun certain
comp act
lan et
import orskip
tra ined
Ġexp onent
load txt
sub mit
Ġmulti class
To ols
14 9
sit or
Ġimp ly
Ġsol vers
ku zey
77 3
uÃ§ uÅŁ
59 4
Ġbas ically
Ġcustom ized
zor lan
Ġadjust ed
ĠParse Exception
ĠDependency Warning
ĠCA ST
CUR RENT
ĠCoeffici ents
Ġsan ity
risi ko
rolla xis
Efficiency Warning
a det
d ret
d Ä±ÄŁÄ±m
n O
Ġ utter
ar di
Ġf v
Ġthe str
li se
Ġto add
Ġh ull
vi st
Ġma gn
ho ca
ze ta
ĠV base
dan ger
by n
we ibull
kar art
Ġpoly sub
bi si
St atus
lÃ¼ t
ĠCon straint
non linear
pop ulate
mis yon
LO P
hol de
dikler ine
Ġoverri ding
Ġmod name
mati k
Ġweight ing
ede biy
Ġegg s
ÅŁah in
Sy mbol
Instance Events
bele diye
Produce d
ĠSyn taxError
7 32
B ernoulli
K NOWN
L ast
N ormalized
_ |
b Ã¼n
d tri
k ult
k ard
ti ver
Ġthe orem
Ġ' ':<
ul an
is men
fi ber
ab an
el ses
63 6
so s
ĠD NS
stra ffe
01 8
az arla
baÅŁ arÄ±
rak ip
LA PACK
yer el
depend s
Ġmod ern
ĠMA X
FFT Base
hey kel
Ġ197 0
associ ation
ĠCaseInsensitive Dict
B is
E valuate
w ich
x ff
de ler
Ġc ateg
Ġf ileno
Ġp rac
Ġ1 999
ne ural
ta ket
Ä±r Ä±m
ĠP ER
ĠF OR
Ġl w
be m
Ã¥ s
Ġun quote
Ġlist box
man ne
ĠSe cond
Ġover load
Ġuni fied
group counter
gen de
=[ (
Ã§ek ir
Ã§ek im
sys config
Column Property
Ġbeha ve
57 6
yÃ¼k len
Ġmy table
Ġmon ic
SD K
fak tor
SV G
Bo x
pointer s
Mutable Dict
nav n
gay ret
Ġquo tient
Nor ms
MODE L
embed ding
Down PredictRule
ĠJohn son
ZER O
Boo sting
Ġtele thon
f jer
f rek
m Ä±rÄ±l
p ragma
in ch
un luk
Ġas ked
Ġm utation
am men
el s
Ġde liver
ĠF A
ĠF uture
so und
col specs
Ġ5 08
we edi
ĠH ist
lik lerini
Ġla z
try kke
em zir
ore set
multi output
tÄ± cÄ±
mak ine
maz sÄ±n
ban ka
bet en
Ġtrain er
dÃ¼ÅŁ le
kl ini
hol da
hol det
Ġsearch ing
Ġunique s
ayr Ä±l
Ġmultip lied
Ġ'* '
tju v
ĠSpecific ally
weedi e
$ ')<
: /
C ri
_ '
d dof
f b
x bf
} ',<
re zer
at fet
ar mijo
ur um
un ker
Ġd NSName
qu ant
sp las
Ġdi abetes
(" ;
Ġcan cel
Ġcomp osition
mÃ¼ fet
Ġcur r
sm u
mad Ä±ysa
fy ll
ny tte
Ġnon c
ote l
bre mse
For warded
anlar da
87 4
Ġmar ks
bÄ± Ã§
LOW ER
reading List
spoli tik
vergence Warning
Prover Command
Ġemp irical
governor Gloss
ĠNormalized Name
phy sical
ĠSc roll
BLANK LINE
I mmutable
J acobian
e verse
n olog
s cl
} ",<
Ġi rfft
Ġre view
Ġo bs
di al
la ge
ol tzmann
ue t
is mer
is mene
Ġ[ ]:<
Ġg row
per est
vi Ã§
app le
ĠB ar
ya Ã§
ĠU P
sc ene
gÃ¶ ze
ket ch
va de
lay Ä±ver
ting a
ting en
hi j
16 9
Ġqu antile
Ġfunc s
ali ser
thread pool
File Error
84 1
tu key
byg de
deÄŁiÅŁ ik
por no
lob pcg
yaÄŁ mur
ĠBu ffer
retri eve
contin ue
lun ge
Ã§erÃ§e ve
2 27
] ?
k end
l dots
z Ä±t
ð Ł
Ġ lar
al ready
Ġ( #
Ġf ri
Ġre cycle
th ogonal
Ġd l
ĠT weets
ne fes
len di
ĠP ublic
be te
form Ã¥l
ĠM AG
Ġdo k
Ġv o
Ġv stack
pi ke
Ġj acobian
ph an
Ġback slash
of week
han Ã§er
sj u
à¦ ®
ĠUn der
abc d
Ã¶ÄŁ Ã¼t
AN CE
Ġchar ge
ĠOn ce
condition ed
Info Distribution
yÃ¶ne tici
KEY NAME
milli on
NU L
ĠCall back
kjel ler
revol usjon
mÃ¼fet tiÅŁ
everse en
0 24
1 32
D M
F S
a ste
b likk
e sp
m irno
r ingene
t Ã¥r
ar izer
te f
ut ch
est er
sk ive
im an
Ġwh o
ĠD ate
lin in
av g
size of
fa ÅŁ
Po ss
ish art
belir t
ĠRead TimeoutError
Ġinterpol ate
ĠNew ConnectionError
sevi ye
ĠProxy Scheme
iyors unuz
Ġcent roid
âĢĮ ",
alumini um
ĠProxyScheme Unsupported
" (?:
B ound
b ise
t nc
se ren
ti mer
Ġf info
ÅŁ of
ak Ä±
ĠS un
con strained
set inputsizes
fo reground
kar Ä±n
Ġstring End
Ġstring Start
check in
sol vers
dev am
Ġmodel builder
Ġreg ressor
Ġopen blas
à¦ ·
uÄŁ u
ah lak
sn ak
sem Type
Ġhash ing
mayacak larÄ±
sky ld
Can vas
lex Unit
stre ike
Ø§ ÛĮ
Frame Name
gam main
Ġrelative delta
Gener ates
tw itter
bey in
Group s
Ġqui et
skje ma
Abstract ChartRule
stev ne
teÅŁkil at
ĠMI ME
ĠOSS tatus
ĠRegular GridInterpolator
Concaten ation
Ġnex tsym
ĠER ROR
GN ED
/ *
b alle
g las
s val
Ê Ģ
Ð »
ti tiz
ci al
sk yn
Ġpro ton
ist is
stan g
Ġun sorted
ans vars
ĠRe gistry
ok ÅŁa
lin prog
av un
gÃ¶ tÃ¼re
ĠG RE
ĠR ange
bil diÄŁi
]) /
sub ay
cor respon
order able
IT ER
dev ril
abil me
sn ur
quival ents
ski ft
Ä±yors ak
kÄ±l Ä±Ã§
sÃ¼z lÃ¼k
CONT ENT
uten riks
kurul uÅŁ
Ġdeal ing
sanay i
pure lib
ĠDecisionTree Classifier
minimiz er
G re
L im
U npack
] ._
f Ä±k
j pg
o sc
o auth
s mel
t bl
in andÄ±r
Ġf g
te c
ra cket
ĠA LTER
LI P
ub untu
py sqlite
bo er
form Pointer
no br
Ġne igh
mal er
tra bz
kt ing
gi velse
ko ke
Ġsub list
uy ormuÅŁ
em ret
Ġcor ner
15 7
Ġreg arding
Ġdecimal s
Ġtri ggers
Ġmost ly
As soc
ĠMe an
yum ur
oid al
jern ban
ciler i
ĠCom bine
Ġus able
skje gg
fen omen
malÄ±y Ä±m
Ġmix ed
vÃ¦re lse
kolek siyon
trabz on
H ARD
h orn
j argon
an on
as hi
di visor
ol on
ma ve
ul ated
ab br
sp ite
name dtuple
ĠE ven
ĠS erial
ĠP ack
xt ol
Ġlo st
Ġun packed
fe ti
ms d
ĠIn completeRead
br ut
tol erance
rap a
tal ent
mam Ä±n
yaz dÄ±r
]] ]
kav uÅŁtur
vin kel
Uni variateSpline
kaÃ§ ak
sok ak
aut oload
kus ur
perio de
gjel d
Alternative Name
Ġadvanta ge
" |
' [
4 14213
J K
Ð ´
re i
an ker
Ġ(' ',
Ġp t
ro se
Ġ' ').
ma chinery
ter ror
Ġd om
ĠN S
), )
Ġr matvec
ka fa
ye tim
col lation
ss on
man tÄ±k
gg lse
fer dsel
)) ],
)) ).
'] ]*
mÄ±ÅŁ sa
Ġtra versal
eng lish
Di vision
unk ter
86 7
Base d
Ġli l
Ġbreak ing
DO MAIN
59 7
tab lo
nor ms
ĠCh ild
Trans form
vek sel
gal atas
kli ppe
hÄ±r pala
maktan sa
Ġ[{ '
Ġreport ing
fark lÄ±
Ġ## ////////////////////////////////
uren kov
ĠLE FT
HY P
ĠIndi ces
ĠBACK ENDS
EXCEPT IONS
kÃ¶pr Ã¼
T oml
e o
e te
i bo
s len
Ġ" ;
Ġt l
al ene
de composition
he lion
me lo
ti da
Ġs g
ge o
ÅŁ air
ĠT urn
ÄŁ an
ĠS can
Ġco eff
Ġg aussian
mo id
SH TTP
cal endar
no frames
() ["
ker i
append Child
In tegrationPoint
ble ik
sent ra
inn ene
opp drag
sal Ä±n
her mite
ole ans
Ġprocess EndTag
CK SHTTP
90 9
install er
Ġpost fetch
Ġmeta var
Ġyour self
modi fiers
reference d
ĠSO CKSHTTP
Ġformatting Element
inTable Body
Struct ure
RC Data
mesin ler
peer cert
Ġfurthest Block
galatas aray
! \
C ho
G G
S um
_ ['
a hat
e an
f min
in ene
al ve
ol ds
ut ations
Ġd uplicates
Ġth ink
Ġu uid
ted Error
ĠF ake
da h
Ġl bl
ĠM ath
ĠV C
su kker
kon akla
uy andÄ±r
mÃ¼ kafat
Ä±s Ä±dÄ±r
Ġfa ke
Ġmulti label
Ġho lidays
mi ri
maz sak
Ã§ek il
Comp iled
filter variant
TE S
meli ler
dik ter
Ġcli p
pat ches
Ġclassi fy
wheel s
ĠFunction al
ORD ER
ĠCorpus Reader
Ġmanage ment
Ġmicro seconds
+) \.(\
Ġuow commit
FIEL D
veks ling
yah udi
regul ering
selska per
cev her
silahsÄ±z lan
frans Ä±z
Assoc Measures
> ------------
c Ã¼mle
k raf
u lo
u med
Î ´
st ram
as Ä±l
Ġf scale
li leri
si den
lo ft
Ġfor mer
iz let
ĠS ph
** (-
ran lib
sh tein
sh ortest
sak atla
yas la
mayacaÄŁ Ä±ndan
Ġbound aries
hÃ¸ v
UM N
tu val
Vi sitor
vaz geÃ§ir
bÃ¸ ye
mus kel
iliÅŁ ki
Ġbrowser s
orph an
prefer red
Des cription
Ġce il
beÅŁik taÅŁ
Ġextre me
" **
8 34
L em
S UP
Y Y
f pe
p sik
an sen
sel le
Ġc mp
Ġ(' (?
Ġp res
di ret
Ġb dist
ut ures
is ation
Ġex am
res sive
Ġcon ds
el li
ĠS TO
per sistent
ĠF reqDist
Ġan on
Ġal lo
ber aber
man g
64 7
kle dd
fore stilling
ular Ä±
Ä±s al
fy lle
Version Error
spe armanr
inde dir
yar Ä±
bind params
Un mapped
abil mesi
kÃ¶ ste
best yr
iyor uz
CA CHE
Ġlib s
miyor sa
iÄŁ ne
acc ard
ĠInt Var
ĠEntry Point
fÄ±ÅŁ kÄ±r
W el
t het
Ġ vec
ar ke
si lin
## #<
ve m
ad det
ak lÄ±
Ġcon densed
ĠE F
from txt
Ġun ix
mar a
(( (
if copy
Ġapp arent
fore st
Ġkw ds
kay dol
kom petan
tut ul
unuz a
Ġretri eval
RI M
Ġchunk size
seq s
modi fy
utdan nings
sÄ±r Ä±t
Ġcir cum
kele p
John son
sjo kk
ĠCle ar
ege men
Ġexpan sion
Ġdeclar ation
D on
b ill
h f
i fftn
p iv
} :<
} }<
ã ģ
Ġc te
pe lle
Ġin ver
ate lli
is ol
for hÃ¥nd
ci ye
ĠA B
be gre
ĠV ari
ĠW H
kar ala
ev cil
Ġfe at
ix x
gra ds
ĠJ o
Ġsh ortest
tar if
rÃ¥ ds
Ġinstall ing
bÄ± Ã§ak
Ġlib name
Ġcy clic
Ä±ÄŁÄ±nÄ±z da
bren ne
insensitive ly
ARG ET
cursion Error
Ġwave length
Ġreli ef
ĠBI NARY
Ġemul ate
414213 56
> ]
A vailable
I ES
M ATCH
a ps
g ender
s vo
x ec
z ab
Ã ¨
ar u
as ource
me mesinin
Ġf ashi
Ġre cognized
Ġa f
ge ber
ri yet
ter te
ot hed
ĠI gnore
ch r
sk ort
(' {
Ġpro cedure
be ze
ĠH yper
)) /
ĠG IL
ĠR ight
"] ))<
Ġad min
gu i
bas Ä±n
fet t
Ġca using
leÅŁtir mek
pass asjer
Ġden ormalized
gan lÄ±k
My Class
biliyor uz
expand user
Ġexecutable s
All Integer
resol ution
fren le
administr asjon
jap on
Division Error
Ġfashi on
B EGIN
J ECT
P ush
S an
f args
l Ä±ydÄ±
o ft
in ÅŁa
re cursion
ar Ä±t
ro gate
Ġin s
ac tic
sa z
so h
comp arable
Ġpre pended
ca ps
Ä±y Ä±k
mas um
my nt
ug u
kur ban
Pro blem
Pro cessing
ner ve
tÄ± lar
The se
mem mapping
Ġbin omial
sam lings
acaÄŁ Ä±ndan
fol lower
mil yon
tmp fp
duy gu
rev y
37 4
Ġwarn s
larÄ±nÄ±z la
ĠDE BUG
Ġmon otonic
tat il
>######################################################################## ##<
lerim den
cour ses
(", ")
kvel d
ĠEXT RA
Ġsim ulate
skot ts
noun ce
ekon om
bold font
kulÃ¼ p
FORMAT S
ĠDES CR
> :<
G lobal
V I
] _<
b n
d ue
h Ã¦r
q s
s one
s ataÅŁ
z Ä±p
Ġw al
la kk
ma den
ul ere
Ġas ser
sp ise
sp iker
om at
am il
pre par
vi ÅŁ
Ġme ant
Ġl an
be ho
py project
Ã¥ pen
Ġk th
iÅŁ Ã§i
ĠO b
ug a
ĠSe par
ved alaÅŁ
Ġpost process
gj eng
kommun ist
kÄ±n lÄ±k
FUN CS
kÃ¶tÃ¼ le
erci se
built ins
Ġeas ily
Ġpropag ation
3 32
P lugin
p cov
t ent
t ret
u A
z at
an del
ge y
qu antile
), (
ir fft
Ġx a
per e
Ġun seen
text widget
ĠM ain
Ġpre ci
ĠB ody
ĠB ayesian
Ġch ance
ps d
ĠIn clude
ĠPar sed
doc info
tan r
lu ks
stem pel
nan j
Ġunder stand
sj ub
RA NT
wh iten
Ġgram X
dire ktor
tab i
ome tri
konuÅŁ tur
Ġhe uristic
ĠDo es
vok al
Or der
teg ning
sopp gave
Ġnull s
studi um
fry se
Ġlst sq
ayak kab
gÃ¶ÄŁÃ¼ sle
combin ations
restri ctions
` {
a er
d ning
f arg
g oc
i Ã§i
k omi
l ale
m ong
s Ã¥r
te e
th readed
ch er
est ern
ci ties
ly ng
ĠP rep
per plexity
bo re
ĠL ambda
ĠRe quired
ili ty
lan masÄ±
kar i
Ġinter net
'] ],
ev li
Ġbase string
df n
Ġcode c
gn b
bre w
Ġ20 12
ĠLo wer
ĠRefer ence
mah vet
Ã¶de ye
frem med
abiliyor lar
car ds
Ġmk dtemp
elek tri
Ã§aÄŁr Ä±ÅŁ
Ġacceler ation
amerik an
kesi ÅŁ
Ġlay ers
DDLE vents
Ġslo pe
Ġlaz ily
' })<
I mage
g ray
o io
r div
or tid
st on
th ree
ser in
ty pen
ha ses
Ġu cs
get ri
LI KE
ay Ä±k
Ã¥ ker
form en
form ula
ĠO UT
ĠW ikipedia
kon ak
lit z
sub sample
Ġrandom ized
kan didat
Ġqu anti
med iniz
cheb mul
mor let
yet enek
fra drag
lad Ä±ÄŁÄ±
84 9
byg nings
vil la
Ġdebug ger
mk dir
sul an
CF G
FILE NAME
bren n
saÃ§ mal
("_ ",
ĠBack end
Ġcare fully
Ġreentran ce
maks Ä±zÄ±n
fener bahÃ§e
Numpy Version
Ġstick y
S PA
c rypto
d der
e sen
w ad
y label
} ]<
Ġ joint
or an
Ġo ob
Ġto y
ve kal
ĠS h
up a
NA BLE
vi te
Ã¥ le
Ġun set
men gde
ni que
mÃ¼ tte
AR GS
can avar
has ret
20 7
Ġuni q
pri ors
Ġkw arg
san tr
mem nun
Ġtrans lated
sj akk
ĠPro p
13 9
lene cek
kj ef
De cisionTree
ĠTo ols
Ġtri vial
tiÅŁ im
200 3
Ġvisit ors
âĢ Ļ
('. ')
yoÄŁ ur
ĠEst imated
ĠHe aders
Ġ? (.*
Mac Version
ĠCent OS
* )
X A
a mak
d TemporaryFile
k ret
r asy
ar te
Ġt rial
Ġre ct
pe di
ĠT k
sp arent
Ã§ esine
for bed
am fi
est ed
ĠE lse
sa ved
ĠC ategories
da gen
lic ative
ara j
ten sord
eng ali
15 2
sql cipher
No des
Ġclo sures
Ġdis cover
ĠKey boardInterrupt
200 6
NB it
conf usion
naz i
HEAD ER
ĠNon terminal
ĠCommand Error
merge sort
stur ges
ATT R
cap ital
Port uguese
tensord ot
1 33
ar ter
Ġa ctions
si yah
ter cÃ¼
ve tt
ak ere
ith u
Ġor ient
con sume
bu a
ste kn
like s
gi fte
av l
Ġcheck sum
ĠG amma
og ene
kap ak
") .<
imp uted
med in
non mult
sl ur
Base Version
>_ <
22 2
19 70
Ġfn match
dr Ã¸
distribu ted
Session Transaction
Ġspace d
Ġattemp ted
125 2
Ġdiff ers
ĠFrame work
Sy s
yord ur
curren ce
Ġspect ral
cesaret len
urlen code
ĠCertificate Error
ĠAct ually
+ )\
C CG
] =
a mamÄ±ÅŁ
j ective
u h
re stor
st jer
he it
me lik
Ġ' **
ce eded
ge mi
co pi
fi endt
ĠN OR
op hant
ĠS um
ath an
pro dÃ¼
ĠC ryptography
ces sive
po sisjon
mal ze
ya j
ĠW orking
url parse
back ref
uz luk
ll f
Ġsub prob
net lib
maz sanÄ±z
Ġ[" \
PE ER
dig hets
taÅŁ la
Com bine
Ġchar Stack
bru kene
acÄ± lar
skj ell
Ġbuffer size
spli kt
larÄ±m da
ov r
yel ken
From Table
fla gg
Call Error
becer ik
>---------------- ----
ĠPyOpenSSL Context
mim ar
reh ber
Expr Tokenizer
gÃ¥r ds
ĠApplication Expression
Ġscroll bar
Prob Dist
ĠDocument ation
BLOCK SIZE
Want ReadError
Sys CallError
ophant ine
: ]]
N eg
P C
P open
S in
a res
j uster
k lin
r inter
s ustur
u ks
} ^
Ġ umath
at at
le ve
me la
me lek
ti Ã¥r
la Ã§
type d
om as
Ã¸ ster
Ġun able
ĠM et
his sede
lat tÄ±r
valid ated
kt ar
gi ye
ran sport
try gde
ap in
Ġ9 7
san n
Ġsol ving
LO AD
ÅŁe b
bilir sin
Ä±lmas Ä±nÄ±n
Ġfft freq
Default Dialect
otur t
bun det
ĠLe ave
strÃ¸ k
leriniz de
("" )<
ĠSchema EventTarget
Seg ment
ĠDIST INCT
= ?
D ash
J oin
] ]]<
c ss
s my
ar ik
st ander
as m
me lerin
ur ations
Ġs z
di o
Ġ[ '<
ĠN A
Ã¶ t
ler ing
(" --
ĠC OL
us k
Ġ3 01
Ġl ut
var lÄ±k
Ġun install
dan se
vel ferds
Ġarg parse
=[ ],
ĠDe mo
67 4
DO WN
duy gulan
sÃ¼r dÃ¼r
sÄ± va
fÃ¸ lge
fli p
Ġcustom ize
abileceÄŁ ine
Ġmon oton
environment filter
á´ Ľ
Ä±lmÄ±ÅŁ tÄ±
skjÃ¸ nns
yoÄŁun laÅŁ
SCHE MES
ĠLeaf InitRule
vedlike holds
cext ensions
mÄ±rÄ±l dan
* ',
, \<
- ',
F ORTRAN
L F
P ri
S imple
T R
z ong
Ġ â
re gi
Ġ= <
Ġ(' __
ul ator
Ġis o
ĠT U
it in
om ali
par ty
vi val
Ġelse where
). "<
:` \\
ker t
ren ch
Ġfa ir
Ġdist ortion
acak larÄ±nÄ±
gen fromtxt
... ',
ĠAt tribute
44 44
Tree Walker
prob plot
umuz da
(". ",
Implement ation
agg reg
gly ph
dikk at
c n
l ol
p ati
r cond
s let
x pr
Ġ urlopen
an imation
as Ä±dÄ±r
ti dy
di kle
ÅŁ eri
Ġto ml
Ġex perimental
ĠA LI
Ġr ational
ka iser
ces ine
pre cond
ay Ä±z
du var
sen tez
ret en
num ar
bi ber
Ġver tices
ĠFor ce
Ġextra polation
dat atype
50 8
Ġimp urity
mez seniz
fft freq
30 5
pect ral
State Error
Ġrule menu
tel le
ung hr
kut sal
anla ml
uzak laÅŁtÄ±r
ĠLe arning
kayn aklan
ĠBe havior
ĠOver ride
Ġer rest
Ġfer tility
monop ol
Ġhistor ic
' \\
> --------------------------------
E NABLE
M any
P S
S tore
f avor
i add
s lam
z ones
Ġf ive
Ġst ale
`` ;
Ä±n lÄ±k
Ġex poses
ĠC ASCADE
Ġon clause
ĠD I
ator y
tem bel
ĠRe cursive
men g
10 1
=" -
random ized
rect angle
met od
mu c
Ã¶n gÃ¶rÃ¼
gÃ¶r Ã¼l
ines s
sey re
ĠBase d
gar antile
bileceÄŁ inin
Dialect KWArgs
kil de
skom mun
Ġcs graph
ĠImple ment
pli kt
buy ur
dop ing
ĠDefinition SyntaxError
ĠIsolation Forest
Sph ere
prem ie
$ ",<
B atch
F rames
M ace
P arentedTree
S eries
g iler
n th
n iter
n fft
o su
x html
Ã Ĩ
al ev
me cli
Ġn z
Ġn ist
Ġp ress
ro ve
ce y
lo ver
__ `
ac ity
sp iss
ci kler
ĠE PO
Ġh ar
(" |%
Ġpro file
be j
Ġpre c
ĠB RA
Ġhas hed
ko oper
ĠĠĠĠĠĠĠĠĠĠĠĠĠĠĠĠĠĠĠĠĠĠĠĠĠĠĠĠĠĠĠĠ ĠĠĠĠĠĠĠĠĠĠĠĠĠĠĠĠĠĠĠĠĠĠĠĠĠ
vel ty
may Ä±nÄ±z
Ġcor related
ous ly
mu ay
acak larÄ±
yor lardÄ±
De tect
DO CS
sÃ¸ n
kjÃ¸ l
dy re
karÅŁ Ä±lan
Ġevalu ating
dol andÄ±r
Ġhe lion
some table
Ġ'- ',
Ġcombin ators
ĠBo hr
fors Ã¸r
gle de
"{ __
hort umla
ĠRes olution
Ġbi text
hund re
kapas itet
ĠOptimize Result
Sphere BivariateSpline
8 27
= (<
D an
S lotSet
Z one
j ik
t kl
v Options
on i
at al
il ene
ver bosity
ver tices
sp Ã¥
ĠE quality
Ġ== ================
da ya
fe ksjon
ok uy
Ġapp s
IN F
Ä±s Ä±zlÄ±k
kan i
az ar
az met
Ġtable au
tal imat
tak si
pen alty
17 9
dire ktÃ¶r
Key Dictionary
ĠKey word
mag ne
meler le
hay Ä±flan
vat an
ib ling
geliÅŁ tir
Ġim g
ceed ings
Sparse EfficiencyWarning
Ġski pping
yeÄŁ le
sebe p
materi ale
Ġprac tice
Ġfair ly
; ',<
W O
_ `<
b zip
h Ã¼n
t asyon
w an
y org
Ñ ĥ
in y
al iyet
Ġc nf
ce b
ri dge
sp acing
get root
Ġcon vex
str and
ist s
tri cks
ĠL oky
Ġpre serves
tt Ä±r
64 4
Ġsub tests
bil le
try g
ev ne
num ara
ress ur
bili yordu
br inge
Ã¶z Ã¼r
cre en
yak Ä±ÅŁtÄ±r
fir m
mez sek
geÃ§ er
Ġarr ange
88 9
As sert
vol um
bb b
mÄ±yor uz
god s
bÃ¶l Ã¼n
Ġdump er
hazÄ±r lÄ±k
ĠSome times
Stream Reader
ĠPackage Finder
ĠSu ite
rea per
Ġill ustr
birey sel
ppar ser
Ġgro uped
e uro
g k
k alle
t Ä±l
re se
Ġt ro
Ġre fit
Ġre define
ÅŁ Ä±k
Ã¼ el
ad de
Ġbe tal
SO UR
pro ses
be id
py arr
ic ra
iÅŁ i
gi fta
aÄŁ Ä±z
Ġ... ]<
ĠType Engine
kÃ¶ rel
sky tter
ĠIter ative
Pool Events
still inger
still ingen
still ingene
still inga
git ar
Ġscript ing
koÅŁ uÅŁ
inc in
async filtervariant
gren s
ĠArg s
nam us
exclu des
nab o
vÃ¦ ske
ilcox on
juni or
ĠCanonical Constraint
Ġbetal n
C ORP
F ull
G il
T et
b v
b ull
c Ã¼z
p ra
w on
y lim
Ġ ><
ser klÃ¦r
Ġis chema
ĠN y
par Ã§
ĠA bsolute
Ġde mand
LI TY
Ġres cale
sy nonym
dan g
ef sane
Ġexp on
sub cluster
sm iljÃ¸
maz dÄ±m
na u
Ġ[[ ],
ari an
haz mat
26 9
Key Constraint
rimary KeyConstraint
Ġtmp file
Ä±ÄŁÄ±mÄ±z da
Ġsubclass ing
Ġidenti fied
PRO JECT
don an
oluÅŁ tura
ĠLog ic
Ġbuf size
Ġbra ckets
DLE D
trÃ¥ d
abilecekler i
Ã§ab uk
heye canlan
syste mer
zev k
hysical Quantity
evren sel
P rint
S i
p iz
ro ute
Ġis su
Ġd ro
es nek
(" __
Ġde creasing
ber tw
ek sper
size X
)) ))
Ġac commod
aÄŁ ar
sub type
mÃ¼ kelle
Ġqu ir
yon t
output type
lÄ± larÄ±n
connect string
dr Ã¸mme
tab ak
mediÄŁ inin
dimension less
larÄ±m la
Ġbuilt ins
ĠApp lications
prior ity
tÃ¼rk men
soÄŁ uk
Ġtrunc ation
Ġtreat ment
Afri ka
ĠWRITE BACKIFCOPY
Dat abase
fÃ´ r
forfat ter
pearson r
forure ns
Ġissu ing
. ]<
3 66
S B
S R
T u
T ABLE
b aki
c lapack
m ately
o ii
t ros
u um
Ø ²
Ġ libc
en i
al ite
te ch
ro bot
Ġs ine
ty veri
ĠI mmutable
pp oly
ed skap
for sik
Ġcon tribu
ta ht
Ġdi git
ĠF x
Ġ`` |
sk het
Ġwh iten
Ġun pickled
Ġpre compute
und le
Ġcomp li
ko al
clo sures
Ġ. ._
ki re
IN DEX
Ġpy sqlite
Ã¶z lem
Ġconfig parser
kay dÄ±r
stack widgets
scalar func
sÃ¸ ppel
23 5
Ġintegr als
Can vasWidget
deÄŁiÅŁ tire
ascii Upper
à§ Ł
Ġdisplay ed
example List
button s
yÄ±l dÄ±r
By te
Ġà¦ ī
inclu sive
studi o
Ġswap axes
Ġary s
Ġdatatype s
Ġverbosity Level
Cur ve
Author ization
usel ist
' ;
) ',<
E gg
c inin
l end
an im
Ġ( ((
Ġ( .*
te Ã§
pe st
si li
ame s
fo ret
ist i
so list
Ġk y
ip her
ca v
pr ints
gr in
lay Ä±p
ten Ã¥r
RA P
tut um
kor te
ĠColumn Element
sev gi
roll ing
dri kke
tu de
vit ne
larÄ±nÄ±z da
Ġrelative ly
yors ak
primary join
mÄ±yor sa
Ac count
Interpol ated
sine ma
REQU EST
Ġinfer red
Ġance stors
Weak KeyDictionary
karri ere
Ġmechan ism
' ",<
, \"
3 13
B ur
H STORE
k is
u li
Ġ uts
Ġ" ",<
an Ä±t
te or
Ġp acked
li city
ge li
__ ('
is chema
ad y
sp apir
res urs
es ini
end Ã¼
end ly
ĠS ER
up s
et te
us ul
(' >
from arrays
Ġtype val
so fi
ĠRe vOptions
mal ing
Ġit n
file pos
lik lerin
ĠG LE
Ġsub stitute
uy gun
kal Ä±p
gÃ¼ ld
check ing
ress urs
Ġend points
main loop
Ġpy parsing
SE PAR
Ġnon negative
context name
DE P
sv ine
math ieu
Comp atible
yet kin
unuz un
mayacak sÄ±n
vin ning
mey dan
kah rol
Ne eds
Mutable Composite
pak ke
Ġfew er
uch y
Ordered Dict
Ġbelong s
INC REMENT
gm res
Ġmarginal s
Regex p
refle ks
) ()
L a
s ma
t ck
Ä± skala
he mme
um da
sp ring
tr ange
Ġ3 45
ĠB rown
Ġch r
Ġcomp act
laÅŁ maya
ard ak
uz ay
parse String
aÄŁ abey
bi h
order s
insert FromTable
bak Ä±m
Ġleft most
ben ius
03 7
Fa ctor
bri dge
Ġcha ined
dÃ¼zel t
tekn ikk
uten land
Ġra re
Mem ber
Ġulti mately
ihra cat
) `,
L atin
\ ')
_ ')<
f tet
m ass
y Ã¶r
en otation
te ma
Ġs andbox
si kr
si mul
ma o
ter mo
ke p
val ut
sp Ã¸
for handlings
ĠS PA
ka val
ĠP arent
im ations
bo urg
ĠRe mote
Ġmat s
we ka
Ġ/ *
sub package
ap anese
og n
ceÄŁ iniz
ga ver
bili yorsunuz
lÃ¸ se
Ġver bs
inde ydi
Ġtrans fer
sam im
kay de
fol ds
22 6
sÃ¸ ster
Qu oted
Ã¼z Ã¼l
pat rul
kam ulaÅŁtÄ±r
Ġsimilar ly
ayr Ä±
cluster ing
Ġmark up
fr uk
UNK NOWN
gay ri
ĠSupp orted
Predict Combine
barÄ±n dÄ±r
konser n
HS tore
CR T
Ġ({} )
atex it
ĠAnder son
PredictCombine Rule
0 90
: __
B ig
N ON
S tep
e min
k vo
o ck
Ã Ń
Ġ 999
se Ã§e
in sp
le igh
Ġf x
li e
mp er
ut orial
ty n
Ã§ uluk
len in
vi c
ĠB Spline
Ġnew lines
trans lated
kur cala
land Ä±ÄŁÄ±
pri z
sam ferdsel
oc ak
reak sjon
bile ÅŁ
Un til
alg Ä±lan
sev d
makt alar
mid dag
Ġassoci ate
styr ing
rest aurant
mÃ¼z akere
tah min
sÃ¼n Ã¼z
melidir ler
Ġ"" ",<
gjel ds
Ġmt x
ĠChecking Classifier
' *
> ========
P ublic
r asjon
s dt
t jen
w ild
re peats
Ġc pp
Ġc funcs
la x
ul p
Ġis dir
Ġ1 30
ĠT rig
om setning
par af
Ġdi a
pro ff
Ġme dia
po ster
ĠV ar
lat tr
mas c
sy nonyms
ĠH ashes
Ġla unch
Ġz f
') .<
Ġper manent
13 5
kÄ± st
mayacaÄŁ Ä±mÄ±z
event yr
tz win
karÅŁ Ä±t
Ġtri angle
byg ger
Exec utor
fd tri
sand al
histor ic
gol f
kje de
Ġke eps
reh abili
Generic Function
regjer ings
instit utt
venn lig
LATE D
```` ````
Ä±smar la
Ski pping
I ZER
M ari
P age
l led
p rak
in kar
re ktÃ¶r
de compress
ma mamÄ±z
ne c
ÄŁ Ã¼m
Ä±n dÄ±k
om ur
am bal
per ver
from buffer
list ing
so g
tri ed
ay n
Ġ5 3
ble u
pi ro
Ã¼n lÃ¼
ĠH ER
ĠG C
Ġsub arrays
index ed
dÃ¼ m
hel ge
land skap
over gang
ĠCon sider
Ġ9 2
Ġ9 6
current ly
sn ik
]+ )\
mayacak sÄ±nÄ±z
dene tim
part ner
mut lu
inc r
hÃ¸y de
leÅŁtiril mesi
By tes
Ä±yorlar mÄ±ÅŁ
Ġpe er
Ġsym link
Dependency Parser
tifier Preparer
ĠCOM MENT
Ġdiscus sion
Ġexpl orer
dÃ¼kk an
ĠNorm ally
, :
N EL
P a
V ED
c Python
e mes
f rig
p xd
in ke
ti yle
pe w
ro ug
Ġe mden
th rough
ol l
ver ting
ĠE mp
ĠS cript
ĠP A
Ġ.. )<
men fa
Ġ-------- ----------------------------------------------------------------
pi yon
ĠG ET
AT LAS
Ġoper ating
sor u
lay arak
imiz dir
lu gg
has a
exp orts
kay Ä±
laÅŁtÄ±r Ä±r
sav del
Ġmodi fications
vur uÅŁ
lang helpers
Text Clause
Create Column
ĠCan vas
organ izasyon
mÃ¥ te
Ġsave points
Method s
yÃ¶n tem
mÄ±yor um
uc uzla
Ä±lÄ±r ken
borÃ§ lan
Add ress
Ä±lacaÄŁ Ä±
eksp ert
Ġmut ually
Ġran ks
Secure CookieSession
Ġinvol ved
("== ")
Ġgyro mag
Distribu ted
Normalized Name
soh bet
ĠSuite Requirements
SEPAR ATOR
f spath
j etter
k ni
l x
m time
in fer
in creasing
er dem
er oidal
ti ppe
di ven
li yim
Ġa bility
sp ent
ile bil
Ġde ad
ay mÄ±ÅŁ
lan etle
his ar
out lier
Ġsupp osed
uy uz
ĠK IN
ore an
fa iry
aÅŁ k
16 2
Ġinclu sion
Ġcurrent level
dur gun
mt x
CH A
sible DeprecationWarning
18 7
gel ser
Ġjoin ing
02 8
CA ST
far ing
Ġinsert Before
folder s
Attribute Events
rah atsÄ±z
skol er
image s
Ġimage s
hÃ¼kÃ¼ m
Ġalph abe
comple ted
ĠHer mite
yad sÄ±
ĠAV X
teh like
anal iz
ĠSI AM
mÃ¼ca dele
danger ous
endÃ¼ stri
' ."""<
F inn
K on
N egative
Î ł
re z
Ġt im
de scribe
Ġi lp
te at
ro z
Ġin ference
ser ings
Ġd lopen
ĠI MP
ch p
ed a
Ä±n ki
om an
es inin
Ã¶ ly
Ġg one
ĠF D
SH UT
ĠL AT
Ġen closed
Ä±ÄŁ Ä±ydÄ±
av id
[' __
kon u
ĠR TE
]) ],<
fit pack
Ä±mÄ±z daki
met in
ĠJ ust
Ġq hull
Ġparameter ized
nel ser
mis sions
Ġmem mapping
Un ary
Ġsol ved
nings arbeid
Ã¼ÅŁ en
aÃ§ Ä±l
doÄŁ um
fre chet
Ġfield dict
mediÄŁ iniz
bileceÄŁ iniz
DATE TIME
dÃ¼r tÃ¼
bry ll
Ä±ver ir
ĠTag ged
soÄŁ u
hor la
ARG E
skol en
Ġconflict s
mÃ¼l k
ĠCol lect
ENER IC
ĠNgram Counter
konj unktur
Optimize Warning
Ġconstitu ents
ĠSPE CI
Bernoulli NB
ĠScroll bar
! '<
5 77
D utch
G A
V S
_ '):<
c ffi
l Ä±lÄ±ÄŁÄ±n
s ner
y pical
in formation
ar da
st Ã¼
al evlen
ti min
di alog
ad alet
for b
Ã¸ de
tr in
pro xied
nt gen
ere g
Ġan n
no ther
ĠL ars
Ġv h
)) ),
og en
Ġ[' .
ten nis
opp d
Ġper mission
Ġwas n
rel path
yap Ä±t
isk op
diri le
Ġdifferent ly
Ġdesc ending
forsk jell
CON STRUCT
ĠString Converter
Ġge vent
benze ÅŁ
cin sel
pul ver
Match ing
astr on
Ġshr unk
ĠLeg endre
katastro fe
& #
M or
W orld
c def
n q
st ored
ti ske
Ġf fts
te val
di vergence
ÅŁ ov
ut gave
Ġd n
ĠT rie
ort am
Ġth roug
sp ik
sp ren
am bul
ĠE very
Ġr r
per spek
ho ut
ze ch
Ä±l Ä±p
mal ik
ĠB rill
mar sj
ĠIn Table
RE AL
tol er
sh m
25 7
sak s
CH UNK
vas yon
66 5
kjÃ¸ nn
Ġpoint ing
iyor um
={ },
vur dering
ĠMy SQ
064 7
jord bruks
Ġtz res
meleri dir
"} ]<
ĠPool Manager
Ġpe ople
sper anto
trunc norm
abilecekler ini
eksi lt
ĠBernoulli NB
life time
calcul ate
Ġcros sed
#! /
Ġ##//////////////////////////////// ////////////////////////////<
atat Ã¼rk
Ġthroug hout
( """<
) })<
- (
D ual
b acÄ±
e dir
p app
s mal
v ilt
y ula
Ġ velo
se ya
se mbol
in h
ur suit
Ġs aving
di diÅŁ
li ve
Ġa mp
ce ma
ĠT r
ĠN et
ĠS AM
sa ur
Ġco vers
ĠC lasses
bu tik
da ire
Ġpro posed
po sinf
ay sa
ĠH E
12 6
ats Ä±zlÄ±k
ĠK le
ceÄŁ imizi
Ġimp act
kÃ¶ ken
ĠColumn Collection
Array Like
mamÄ±ÅŁ tÄ±m
yal Ä±t
bileceÄŁ imiz
Ä±ld Ä±ÄŁÄ±nda
Ġinterp nd
Ġhyper parameters
serv ative
comparison s
Ġsph eroidal
}. {
jubile um
ĠSMA LL
seya hat
/ ')<
D LL
R V
n do
s ms
s wa
u av
v da
Ø ®
se ve
Ġc lar
ma gazin
ne eded
ha ke
Ã§ ama
Ã§ elen
der en
ka a
(' ')<
Ġpar ametrize
ĠB EL
ca hil
mar jinal
av skj
ven stre
fy lt
last ik
Ġwor karound
sÄ±n av
dene y
Ġaccept able
lendir me
Ġentry point
Ġhelp ful
factor ial
bÃ¶ bÃ¼r
malÄ± lar
politi ka
wri tten
Ġge ometric
Ġpick ler
ĠUser Warning
serv ation
kjen ne
Ġ~ =
BB B
ĠExp onential
Ġuow transaction
distri kts
sabÄ±r sÄ±z
beret ti
Ġchoo ses
Span ish
terci h
> ])<
F oo
_ ]<
b ye
c ats
e mit
g fortran
r ati
t juk
v ans
z Ä±m
ti den
Ġ' ..
ma v
ne f
ak Ä±n
es mer
to bj
im ti
ind u
Ġat omic
() (
ye di
ye dir
ste g
ste gn
read lines
Ġsp lev
Ġ... )<
mek sizin
Ch at
acaÄŁ Ä±nÄ±n
gÃ¶r sel
alar m
De tails
De legate
Ġref le
kab us
kab art
SQL Compiler
Ġeig s
200 4
ju veri
Ġhyper nyms
Ã¼st Ã¼n
pel ler
Ġconven tions
tzinfo s
Ġra ce
(', ')<
Ġdefer red
Ho ok
ÅŁÃ¼k ret
bÃ¼t Ã§e
rasy onel
I BMModel
S or
U RE
` ",
c dot
o iii
p ene
u lian
at vian
de legate
ent re
is her
ha ug
Ã¸ nn
ĠS enti
per c
cal ing
no th
lan Ä±yor
Ġv rd
Ġ6 7
gÃ¼ mr
:// <
Ġtra cked
inde ks
ĠPro ceedings
67 3
Ġ"\ "
ĠDef ined
ku a
Ġfind s
Ġfilter ing
ii io
ii oi
Ġ"- ":<
fra kt
io ii
Ġinvalid ation
spro ses
Ġassoci ates
kind s
vol ution
Ä±ver di
dra kt
fÄ±r Ä±n
Mar ket
ÙĨ Ø¯
ĠQ tot
Ġspl rep
arithm ic
ĠWRITE ABLE
blockVector X
senary o
Ġbus day
ĠStrict Version
dns name
- {
3 01
O ps
b w
c ins
al es
al pin
de kan
li mon
ÅŁ arap
ma mayÄ±
co la
), ),
ĠE ST
pro vision
(" !
per de
Ġde precate
ĠF AT
Re lease
list er
ub es
Ġma gnitude
su mes
Con cept
Ġclass name
'] ):<
bil ge
bal on
sg d
Ġread y
sj al
eff ects
kav rul
Ġsum med
sÃ¼r at
blo k
gÃ¼n dem
Ġkeep ing
Proxy Manager
muÅŁ tu
Ġappropriate ly
leÅŁtiril miÅŁ
From Clause
faz la
Platform Warning
Ġindependent ly
ĠExec utable
popÃ¼ ler
pem be
Ġscenari os
ĠSph inx
ambal aj
ĠHE AD
A Element
R idge
Y ork
] '<
n dims
u tions
y view
} }{
Ġ" ^
se curity
st Ä±k
le h
Ġf ingerprint
di zi
di ophantine
Ġin arg
Ġb z
ol k
and Ã¸r
ser sem
ĠT ypical
fi sering
ab one
ĠS AD
no thing
Ġk depdf
ca z
ĠU ND
Ġout arg
sy v
su c
Ġhas Children
In Table
In tegral
kon sum
dict s
iel ding
ĠR UN
af et
lu a
process EOF
ny hets
Ġnon terminal
Ġread only
mu a
spar sity
Ġneed les
dev ÅŁir
FF FE
kom ik
TH ER
ĠstartTag No
ĠstartTag Input
ĠstartTag Frameset
current Node
fri sk
44 4
yet kili
Ġoriginal Text
zip f
Column Group
skri ving
Ġsearch path
leye cek
Ġsig nificance
edi le
ĠPy Err
eval box
sÄ± vaz
ĠCH AR
ĠApp Engine
GI C
meyecek ti
Formatting Element
Head Phase
Imp ly
hÄ±r Ã§Ä±n
Html Element
Ä±lÄ±r sa
dle ware
nes ne
Ġparti cle
character Tokens
fler tall
ĠXML CorpusView
laÅŁtÄ±ra cak
Ġredu cing
Frameset Phase
Ġdet ached
ĠstartTagTable Other
leÅŁtiÄŁ i
Ġattach ment
Loop Counter
ĠConstructor Error
abon ne
ĠNegativeInfinity Type
Mid dleware
otomo bil
RCData Rawtext
ĠoriginalText For
" ``.<
H indi
I ssue
M ust
O b
e bu
k m
s nek
w itz
re lu
he fte
me meye
li de
li sm
Ġm im
ha us
path lib
ĠU np
av ings
kle m
em be
Ġend ing
Ġmin length
mak yaj
mon taj
14 4
ince ye
Ã§i si
FI C
Ġjson b
Ġden om
Ã¼st Ã¼
yÃ¼ksel t
gev inst
PRE SS
ĠLinear SVC
maÄŁ dur
CONT AIN
Ġexit ing
Ġ$ {
simp lified
normp lot
ĠEX ISTS
sorum lu
uyors unuz
Large Binary
Ġinstru ctions
Ġunnecess ary
# ',<
9 01
A ct
D ST
L ambda
P lanck
Y i
b wa
g ata
k ac
l ul
o gi
r sub
y ield
Ø Ń
re presenter
de tail
de monstr
Ġ( ",
Ġc ity
te ori
Ġre named
Ġp ic
un orderable
Ġd tr
Ġfor warded
ak ota
Ġde monstr
(' @
:` (
ay Ä±l
Ġun available
ok uyu
ard Ä±k
ret Ã¸y
com municate
of fiser
Ġuni fication
mi ye
LT I
char array
=( ),<
gÃ¶z etle
56 9
dek ning
ob lig
ĠID s
sole tes
gge sted
Matrix Market
utdannelse s
sapp ar
ĠRo ot
yurt taÅŁ
Ġupgra ding
befol kning
G reek
J o
L ight
M ik
V oid
c ene
c ilt
st eng
Ġp ub
di gg
la placian
ter ap
Ã¼ man
ad landÄ±r
res met
ka maÅŁ
bu ka
Ġk x
ye mek
Ġ4 04
Ġle aving
uk r
ant al
des iniz
Ġ6 2
gÃ¼ z
baÅŁ bakan
16 6
mez un
mez dim
eq con
Ġrepresent ations
He brew
rÃ¸ m
dÄ±k larÄ±
deg R
inv gauss
ele man
mÃ¼z Ã¼
An notated
Sub Class
ĠFile NotFoundError
mom ents
rahat lat
saÃ§ mala
aÄŁÄ±r lÄ±k
typ ically
Ġinstanti ation
Ġpopul ators
Ġoverwri table
Ġri dge
mete or
gÃ¶l gele
OPT IONS
kÄ±rmÄ±z Ä±
memle ket
goc un
vic dan
Z A
f ros
k lang
o ss
s mooth
v t
w ell
Î Ļ
in ere
an nounce
me kler
', )
Ġf h
ra dar
di scriminator
Ġm time
ĠT L
ch aracters
ak sat
Ġcon servative
ken et
mo ji
Re ply
ĠM Hz
du ces
ko ka
inter net
may dÄ±
iter values
inn fly
va zi
stem ning
ĠTest S
SE S
aÅŁ Ä±
pop item
RO UND
Ã¼rÃ¼ z
hy lle
No un
Lo okupError
skri t
dag ene
sky gge
Ġclause element
,) ),<
Ġtransform ers
Mapper Extension
biliyor sa
Ġnose tests
veri fied
ansi kt
mayÄ±ÅŁ Ä±
siv ri
ÅŁu ur
Ã§evi ri
constru ction
dizgin le
TextIO Wrapper
zx jdbc
imk ansÄ±z
karikat Ã¼r
atelli tt
Segment Widget
Ã§ama ÅŁÄ±r
D TYPE
S el
U r
t rop
Ġ( ['
me mesinden
li ze
Ġa ware
si um
ter Ã¶
ter ms
Ġdef aul
co ercion
tr er
ĠE llipsis
Ġ3 04
fo under
lan Ä±ÅŁ
pr une
ba uer
ks an
back port
Ġmax size
lÃ¸ st
bal kan
Ã¦r ing
20 6
na ive
~~ ~<
kay makam
Ä±la maz
bind ing
50 3
ĠDe lete
sÃ¶ m
mamÄ±ÅŁ lardÄ±r
bay a
bur g
yÃ¼k se
meler de
vil kÃ¥r
mÃ¥ le
Ã§iz gi
Ġcover ed
decimal s
hor izontal
Ġexpi re
WAR NING
stip endi
ĠLag uerre
founder ror
I DE
S temmer
k aset
k vik
r partition
s mit
en cing
he ll
li man
fi ol
for ny
end Ã¸r
Ġ* )
ĠA bo
len diÄŁi
mat vare
ĠF B
sk red
so kul
ho sp
ry kning
ĠB i
col spec
Ġout converter
tt ach
lt en
load ings
kal an
can cer
tal ian
IT LE
eg ge
aÃ§ tÄ±r
kav ur
Pre fix
AG E
Ġrender s
Path Type
disc reten
567 893
rast lan
interval l
Ġrand int
ĠShow s
Temp Directory
tÃ¶ ren
Ġserialize Element
bland ing
ĠEntry Points
**************** ****************
beg yn
slog an
mange l
advok at
acceler ation
Ã§av uÅŁ
Bro ken
nolog o
avings Account
discreten b
R IGHT
S ich
] ].
b lik
k yn
v de
in ka
er ge
at test
Ġt bl
al lis
Ġf la
un escape
lo kke
is iniz
ac on
ab d
ak si
ta i
Ġ` .
ĠB IN
Ġsu ites
Ġtoken ization
sent rene
kar maÅŁÄ±k
kal i
Ġany where
Ġindi vid
Ġ9 223372036854775807
cre dentials
15 6
hy gge
mez ar
vas Ä±f
fri edman
aÃ§ Ä±
jor te
pan te
Ġfft size
Ã§Ã¶z Ã¼
chat terbot
gÃ¶nder e
vok ing
gy l
ĠExt ension
PAR T
maktay Ä±z
skjer m
zir ve
WAR DED
comple tion
FOR WARDED
sendi ka
publik um
ĠOptim ization
Ġindivid ually
7 44
B IG
D uplicate
D akota
P ickler
W as
c funcs
d up
f pr
l ans
l use
l Ä±sÄ±
se ksjon
re pos
st ent
Ġre directed
ri sh
ad ow
sp lik
rom o
om t
sk im
form ann
Ġen ter
fe k
ok um
min res
min eral
kw only
ren d
kon gress
sub domain
mÃ¼ ft
LE xec
bi tire
bar bar
lu id
mak sim
oper ations
sl um
har ic
neg inf
ĠDi rectory
.* \
ĠCo mplete
Vi etname
kra inian
Ġtran sitions
kum ar
Ġ[{ "
suffix es
leriniz den
So ftware
|| _
yeti ÅŁe
Tz Info
ithu anian
Vietname se
2 25
A ve
R ussian
d ul
h indi
y ing
Ġ vect
in estr
al acak
al Ä±ÅŁtÄ±r
Ġn it
li ter
ser inger
ser ingen
ser ingene
is class
is olated
Ġm svc
Ġ[ ^\
Ġ_ )
for and
sa ga
str er
ext reme
data file
ili kle
10 6
ni i
sub classes
sub query
gÃ¼ ver
Ex ternal
kap lan
kur gu
has i
lÃ¸ pe
eng ang
Ġvi olation
Ġpos sibility
Ġevent ually
cat alog
50 6
geÃ§ miÅŁ
67 6
Ġclo udpickle
har m
down loaded
ryp ted
koy u
final e
Ä±yors an
chine se
izm ir
aka demi
kem ir
Clo sed
dokun ul
COM MITTED
Ä±lacaÄŁ Ä±nÄ±
bigram s
feng sel
constru cted
Ġmonkey patch
innvand rer
* (?
B el
F reqDist
G MENT
J AR
j ul
p aÃ§
v Ã¼
Ġ í
ar er
he ce
ur an
ri ke
ot ok
ver v
ac er
ĠN NP
ts o
Ġse eds
op ener
ĠS AG
", ),<
Ġx range
nt Skip
do sy
be ite
be bek
den tifierPreparer
out type
ek ran
iler de
iler inin
iy eler
back pointer
12 9
ug ge
01 6
ev lat
ĠK rylov
kur v
opp rÃ¸r
opp gjÃ¸r
acak mÄ±ÅŁ
call vars
wa ii
les ning
30 8
print ing
Ġremove s
ving e
kri z
memiÅŁ ler
FE AT
ĠAR M
Imp l
Ġxml word
differ ent
sikker het
Ġmk path
ĠLazy Map
ĠBad Signature
ĠHTTPS Connection
scroll bar
bron z
sei ers
CONST RAINT
Ġgues sed
((? :
Enabled For
ntSkip Exception
? ',
D Interpolator
N d
U tility
] _,
` ",<
k lip
n ct
o ÅŁ
z lib
st im
al lah
Ġn cols
Ġe uclidean
ma manÄ±n
ot ura
ed ine
ha stane
am bridge
Ġcon currency
Ġh ot
Ä±r sÄ±nÄ±z
to kat
Ġde velop
pre process
mal Ä±sÄ±n
kt ning
cor por
df d
yÃ¼ zey
tal ep
Ġ9 4
dur uÅŁ
dr er
Ã¶ÄŁ Ã¼
leye bilir
Ġsa w
pa u
04 0
tu sen
Ġtri ang
ung arian
POS IT
Ġsen sible
Gener al
Ġapprox imated
ayÄ± pla
sinir len
Extra ct
Ġactiv ation
atified KFold
xFFFF FFFF
2 20
: **
D imension
N gram
S ound
S pecial
S wa
V aluation
W raps
b ror
d ash
f used
o va
q hull
w or
ar ot
ar dian
Ġt x
Ġt seg
an kel
me seydi
Ġre sid
Ġ' $
Ġw ise
turn e
ser inga
is superset
ne der
ne ds
ak h
name list
Ã¸ se
Ã¸ ving
ĠS enna
Ġh it
ĠP erceptron
Ġimport ance
Ġtest lib
be en
Ġk n
til kny
fe z
ber rak
ener gy
arn avut
32 1
uy ku
miÅŁ ken
opp lÃ¦ring
baÅŁ sav
tal er
Ġ9 5
na maz
gu d
kr l
Ġsh orter
mis jons
yap rak
Po sition
Ġdate util
yi ver
fri lufts
vis ning
lek si
Ã¶ÄŁ Ã¼r
Ġskip if
Ġpost ag
]). \<
mamas Ä±nda
ula h
ob is
Ã§ar ptÄ±r
Frame work
Ġdisplay ing
meyen lerin
Le ft
uyor lar
Ã§Ä±l gÄ±n
Multi Dict
Fit tedError
Thread Pool
lexi con
satis fy
ĠClo ud
halan obis
Ġallo cated
+ -
. :
9 00
E ffective
Y U
Z B
c ube
g get
t x
z h
Ġ ]])<
Ġ rights
se ven
at ty
en si
Ġf etched
Ġo de
Ġin den
Ġb is
la o
ri th
il in
ver gilen
ver tical
co li
ha kke
ĠE uclidean
ka ffe
ĠP KG
Re fer
var a
ind ly
ĠU pper
Ġle ads
tra v
ik ram
inter polation
ret on
las Ä±n
99 8
eri an
OR G
ven sjon
of lush
leg end
pl ur
bro der
75 63
Ġind x
haz ine
29 6
iti raf
Ġsw allow
Ġ(?: \
ĠCON F
Ġrestri cted
"[ {
baÄŁlan tÄ±
quo tes
mime type
Effective Level
# (#
) (?:
2 63
3 59
E VENT
E speranto
P op
T im
d Ä±z
u at
y ur
Ð º
â ģ
in coming
le asing
ti cks
Ġf es
ro ved
Ġs ch
Ġm olar
fi dan
id dia
Ġse ven
ĠS MO
ĠC SI
(' ',
ĠM AD
ĠL AM
ĠRe direct
ĠB LOCK
Ġle arn
man ÅŁet
ĠW ol
10 10
Ã¦ ret
sub Corpus
IN TEGER
Ġfe info
11 5
day dÄ±k
tak st
Ã¶n der
abil diÄŁi
Ġselect s
pa di
Res olution
fak s
jern bane
madÄ±ÄŁÄ±n da
fÄ±r Ã§ala
acc ents
(", ")<
Ġstem mer
eks amen
gran sk
("' %
seks ual
Ha waii
hver dag
ÙģØ¹ ÙĦ
rewind able
yÃ¼kÃ¼ mlÃ¼
Ġinform ative
abcdef g
Ser bian
ĠAppro x
LExec utionContext
J apanese
L ex
f lan
h mer
t si
Ġ serve
pe lig
Ġs lot
ÅŁ ut
ma makla
Ġfor k
sp utils
sp inner
for bruker
am Ä±
ĠS GD
ath i
Ġ`` {
ĠRe quirements
Ġcol lapse
ĠW ITH
sy d
may ayÄ±m
]) +
mÄ±ÅŁ ken
99 0
af gan
hi ye
default Namespace
EN UM
Ġurl fetch
LT ransport
the m
lene bilir
package Name
ku ram
cekler ine
Ġ200 9
eÄŁ ilim
ĠDi agonal
ĠIter ation
cent roid
vit enskap
fÃ¸r sel
Ġes pecially
Ġunpack ing
dal aÅŁ
memo s
ĠSS LTransport
lis ans
ĠUPDATE IFCOPY
kiÅŁ ilik
Ġknow s
alÄ±ÅŁ kan
hÄ±r s
hÄ±r sÄ±z
hare kat
sci math
zil la
selam la
ei endom
Ġnice ly
ĠBro adcast
Installed Distribution
Ġist ft
A LTER
I talian
J av
T ok
m jÃ¸
m Ä±sÄ±r
he de
Ġ( \
li den
ri ya
Ġdef icient
il bert
Ġ[ ]),<
sp ak
ĠS to
sa u
ted bir
bu ra
([ ("
ĠF UL
do mains
po ut
bo ka
ry kk
Ġ< -
ĠV aluation
Ġso ckets
ram pe
Ġcol lector
gi fter
ĠĠĠĠĠĠĠĠĠĠĠĠĠĠĠĠĠĠĠĠĠĠĠĠĠĠĠĠĠĠĠĠ ĠĠĠĠĠĠĠĠĠĠĠĠĠĠĠĠĠĠĠĠĠĠĠĠĠĠĠ
]) ``
]) ``.<
bi en
diÄŁ inizi
meli yim
kaz Ä±n
skri fts
depend ence
Ġflag list
Mo od
Ġreplace ments
.* ")<
sey rede
ĠAs sign
tex tids
sr d
dikler inde
ĠCH R
.+ ?
rup ted
ĠDis able
Ġenable s
hast ighet
Ġmk dir
Ġtrack ing
amerik ansk
lez zet
grun ns
strÃ¥ le
Ġtech nique
Ġ197 2
ĠNE W
Ge or
beklen ti
ĠFloat ing
forsy ning
Ġprinci ple
Classi cal
correspon ding
Sich uan
" ')<
+ ')<
5 18
C zech
H M
T i
] ",<
a ids
h Ä±n
n ans
t ug
u cs
y in
Ġ" ...
Ġ" ]"<
re levant
ar if
Ġi v
he b
pe ter
ver ge
Ġm ssql
ĠT ER
Ġth rown
Ġh store
Ġun labeled
tt ende
Con nector
ĠG NU
Ã¸r ken
32 9
ong an
can lÄ±
land bruk
SE CU
day ofweek
Ġ7 54
16 7
sum er
mak si
mak sa
14 0
tek ni
ametri zed
kj ek
oÄŁ lan
Ġman aging
kn ad
pare ns
pa use
tz res
ĠPo int
CA PE
Ġcalcul ating
bÃ¼yÃ¼ le
Log ic
ĠFunction Transformer
IL P
ĠFind s
Man ip
hyper geometric
ĠReg ister
ĠText IO
ĠLog ger
Ġinv olve
nite lik
Ã§Ä±n ar
external s
ĠPos sible
eigen values
Ġ################################# ################################
eÅŁit le
Î½ Ïī
Cli ent
nÃ¶ bet
albÃ¼ m
Ġelect ric
menfa at
rith metic
" '<
G lue
K at
V L
i forest
l ubb
l fric
m ic
n lines
Î £
in ference
in consistent
de stan
de velop
Ġre strict
ro ati
li lere
lo ko
ul ates
ame l
co renlp
sp ert
Ġu fl
Ġex posed
get pid
ka pet
Ġx true
ĠP AN
Ġde clare
be cause
text tt
ext math
code c
av uÃ§
fer ge
gÃ¶ nÃ¼
uk h
Ġ6 5
sin dir
ten n
ĠTest F
Ä±s rar
[...]
