{"<S>":0,"<pad>":1,"</s>":2,"<unk>":3,"<mask>":4,"!":5,"\"":6,"#":7,"$":8,"%":9,"&":10,"'":11,"(":12,")":13,"*":14,"+":15,",":16,"-":17,".":18,"/":19,"0":20,"1":21,"2":22,"3":23,"4":24,"5":25,"6":26,"7":27,"8":28,"9":29,":":30,";":31,"<":32,"=":33,">":34,"?":35,"@":36,"A":37,"B":38,"C":39,"D":40,"E":41,"F":42,"G":43,"H":44,"I":45,"J":46,"K":47,"L":48,"M":49,"N":50,"O":51,"P":52,"Q":53,"R":54,"S":55,"T":56,"U":57,"V":58,"W":59,"X":60,"Y":61,"Z":62,"[":63,"\\":64,"]":65,"^":66,"_":67,"`":68,"a":69,"b":70,"c":71,"d":72,"e":73,"f":74,"g":75,"h":76,"i":77,"j":78,"k":79,"l":80,"m":81,"n":82,"o":83,"p":84,"q":85,"r":86,"s":87,"t":88,"u":89,"v":90,"w":91,"x":92,"y":93,"z":94,"{":95,"|":96,"}":97,"~":98,"¡":99,"¢":100,"£":101,"¤":102,"¥":103,"¦":104,"§":105,"¨":106,"©":107,"ª":108,"«":109,"¬":110,"®":111,"¯":112,"°":113,"±":114,"²":115,"³":116,"´":117,"µ":118,"¶":119,"·":120,"¸":121,"¹":122,"º":123,"»":124,"¼":125,"½":126,"¾":127,"¿":128,"À":129,"Á":130,"Â":131,"Ã":132,"Ä":133,"Å":134,"Æ":135,"Ç":136,"È":137,"É":138,"Ê":139,"Ë":140,"Ì":141,"Í":142,"Î":143,"Ï":144,"Ð":145,"Ñ":146,"Ò":147,"Ó":148,"Ô":149,"Õ":150,"Ö":151,"×":152,"Ø":153,"Ù":154,"Ú":155,"Û":156,"Ü":157,"Ý":158,"Þ":159,"ß":160,"à":161,"á":162,"â":163,"ã":164,"ä":165,"å":166,"æ":167,"ç":168,"è":169,"é":170,"ê":171,"ë":172,"ì":173,"í":174,"î":175,"ï":176,"ð":177,"ñ":178,"ò":179,"ó":180,"ô":181,"õ":182,"ö":183,"÷":184,"ø":185,"ù":186,"ú":187,"û":188,"ü":189,"ý":190,"þ":191,"ÿ":192,"Ā":193,"ā":194,"Ă":195,"ă":196,"Ą":197,"ą":198,"Ć":199,"ć":200,"Ĉ":201,"ĉ":202,"Ċ":203,"ċ":204,"Č":205,"č":206,"Ď":207,"ď":208,"Đ":209,"đ":210,"Ē":211,"ē":212,"Ĕ":213,"ĕ":214,"Ė":215,"ė":216,"Ę":217,"ę":218,"Ě":219,"ě":220,"Ĝ":221,"ĝ":222,"Ğ":223,"ğ":224,"Ġ":225,"ġ":226,"Ģ":227,"ģ":228,"Ĥ":229,"ĥ":230,"Ħ":231,"ħ":232,"Ĩ":233,"ĩ":234,"Ī":235,"ī":236,"Ĭ":237,"ĭ":238,"Į":239,"į":240,"İ":241,"ı":242,"Ĳ":243,"ĳ":244,"Ĵ":245,"ĵ":246,"Ķ":247,"ķ":248,"ĸ":249,"Ĺ":250,"ĺ":251,"Ļ":252,"ļ":253,"Ľ":254,"ľ":255,"Ŀ":256,"ŀ":257,"Ł":258,"ł":259,"Ń":260,"ĠĠ":261,"ĠĠĠĠ":262,"ĠĠĠ":263,"ĠĠĠĠĠĠĠ":264,"Ġ\"":265,"se":266,"in":267,"er":268,",<":269,"re":270,"on":271,"at":272,"ĠĠĠĠĠĠĠĠ":273,"or":274,"ar":275,"Ġt":276,"en":277,"st":278,"al":279,"><":280,"an":281,"Ġ=":282,")<":283,"le":284,"\":":285,"\",<":286,"de":287,":<":288,"Ä±":289,"Ġi":290,"he":291,"Ġ(":292,"as":293,"sel":294,"ĠĠĠĠĠĠĠĠĠĠĠ":295,"self":296,"me":297,"Ġc":298,"ti":299,"',":300,"Ġn":301,"Ġf":302,"te":303,"),<":304,"ra":305,"ing":306,"':":307,"Ġre":308,"Ġ('":309,"ur":310,"pe":311,"Ġp":312,">'":313,"ro":314,"Ġs":315,"',),<":316,"Ġo":317,"di":318,"Ġthe":319,"li":320,"Ġa":321,"mp":322,"--":323,"Ġin":324,"):<":325,"Ġ'":326,"ce":327,"Ġself":328,"si":329,"Ġe":330,"un":331,"Ġb":332,"def":333,"Ġw":334,"th":335,"ge":336,"la":337,"ol":338,".<":339,"Ġ#":340,"ri":341,"ct":342,"ÅŁ":343,"tur":344,"ue":345,"ma":346,"lo":347,"\"\"":348,"tion":349,"and":350,"turn":351,"ĠĠĠĠĠĠĠĠĠĠĠĠĠĠĠ":352,"ul":353,"ter":354,"##":355,"Ġdef":356,"ser":357,"Ġis":358,"Ġif":359,"ent":360,"ame":361,"il":362,"ut":363,"ate":364,"ty":365,"Ġas":366,"ke":367,"Ġto":368,"Ġreturn":369,"ot":370,"Ã¼":371,"ve":372,"ĠĠĠĠĠĠĠĠĠĠĠĠĠĠĠĠ":373,"__":374,"is":375,"Ġd":376,"cl":377,"ad":378,"ver":379,"ass":380,"co":381,"Ġm":382,"Ġfor":383,"Ġof":384,"val":385,"Ġ1":386,"one":387,"ĠT":388,"um":389,"fi":390,"ac":391,"Ġ\"\"\"":392,"ray":393,"ĠI":394,"Ġ[":395,"ab":396,"'<":397,"ati":398,"array":399,"//":400,"qu":401,"----":402,"ort":403,"sert":404,"Ġ:":405,"Ġ0":406,"._":407,"ne":408,"sion":409,"Ġth":410,"Ġst":411,"pp":412,"ĠN":413,"``":414,"ch":415,"ÄŁ":416,"class":417,"it":418,"ed":419,"Ġassert":420,"Ä±n":421,"ha":422,"Ġnp":423,"type":424,"sp":425,"Ġand":426,"Ã§":427,"id":428,"Ġu":429,"Ġex":430,"rom":431,"all":432,"Ġ-":433,"ak":434,"Ġ_":435,"####":436,"ction":437,"Ġnot":438,">>":439,"om":440,"iz":441,"]<":442,"))<":443,"for":444,"Ġbe":445,"ation":446,"am":447,"res":448,"ror":449,"ts":450,"par":451,"Ġse":452,"op":453,"get":454,"Ġcon":455,"est":456,"name":457,"ith":458,"ci":459,"mport":460,"es":461,"value":462,"el":463,"Ġ\"\"\"<":464,"ex":465,"ase":466,"Ġ2":467,"od":468,"ment":469,"),":470,"arg":471,"ta":472,"Ã¸":473,"Ã¶":474,"tr":475,"end":476,"ler":477,"ĠE":478,"Ġdi":479,"ata":480,"ĠS":481,"Ġ*":482,"Ġor":483,"ĠA":484,"Ġr":485,"SO":486,"len":487,"63":488,"ĠNone":489,"up":490,"Ġh":491,"con":492,"ype":493,"ath":494,"Ġ+":495,"rror":496,"Ä±r":497,"Error":498,"()<":499,"sa":500,"\",":501,"str":502,"639":503,"\"<":504,"ĠISO":505,"der":506,"ĠĠĠĠĠĠĠĠĠĠĠĠĠĠĠĠĠĠĠ":507,"mple":508,"lar":509,"ise":510,"to":511,"ult":512,"able":513,"ka":514,"00":515,"qual":516,"ck":517,"ile":518,"ine":519,"ect":520,"ig":521,"ted":522,"pro":523,"(\"":524,"Ġco":525,"mat":526,"Ġg":527,"ir":528,"Ġx":529,"ĠC":530,"ly":531,"bu":532,"])<":533,"ĠP":534,"Ġwith":535,"ces":536,"bj":537,"et":538,"..":539,"Ġ==":540,"],":541,"per":542,"Ġde":543,"Ġimport":544,"ken":545,"lse":546,"([":547,"us":548,"int":549,"ĠF":550,"Ġy":551,"Ġ``":552,"equal":553,"mo":554,"Ġtest":555,"Re":556,"sk":557,"////":558,"Ġvalue":559,"nt":560,"im":561,"version":562,"rue":563,"Ġwh":564,"da":565,"('":566,"key":567,"ME":568,"Ġthat":569,"LI":570,"from":571,"raise":572,"ning":573,"(<":574,"ere":575,"list":576,"Ġan":577,"ack":578,"ub":579,"Ġpro":580,"NG":581,"pre":582,"ord":583,"set":584,"args":585,"ption":586,"Ġ3":587,"ag":588,"do":589,"NA":590,"vi":591,"Ġma":592,"Ġme":593,"ff":594,"Ġ%":595,"Ġelse":596,"Ġstr":597,"Ġ>>":598,"fo":599,"Ġ>>>":600,"alse":601,"ist":602,"None":603,"SH":604,").":605,"NAME":606,"########":607,"np":608,"sed":609,"Ġtype":610,"so":611,"xt":612,"ho":613,"tri":614,"che":615,"ther":616,"cal":617,"stan":618,"Ä±z":619,"Ġ__":620,"ĠENG":621,"LISH":622,"Ġarray":623,"ĠENGLISH":624,"art":625,"Ä±k":626,"Ġl":627,"be":628,"ĠThe":629,"py":630,"var":631,"ene":632,"Ġ`":633,":`":634,"hape":635,"po":636,"ure":637,"bo":638,"dir":639,"ind":640,"ay":641,"==":642,"bject":643,"Ã¥":644,"Ġon":645,"Ġal":646,"Ġlo":647,"Ġfrom":648,"path":649,"__(":650,"Ġname":651,"ĠD":652,"ill":653,"pt":654,"ault":655,"Ġpar":656,"Ġthis":657,"ers":658,"ator":659,"form":660,"pec":661,"--------":662,"Ġcl":663,"Ä±ÅŁ":664,"Ġ)<":665,"Ä±m":666,"\")<":667,"Ġun":668,"thod":669,"lab":670,"put":671,"Ġat":672,">#":673,"Ġ{":674,"ic":675,"text":676,"unction":677,"ĠM":678,"no":679,"ange":680,"ht":681,"Ġraise":682,"ze":683,"are":684,"ans":685,"Ġare":686,"Ġne":687,"()":688,"test":689,"unc":690,"ust":691,"Ä±l":692,"Ġdo":693,"ary":694,"stance":695,"Ġres":696,"tem":697,"Ġk":698,"til":699,"app":700,"comp":701,"ds":702,"ye":703,"ded":704,"ĠL":705,"ree":706,"peci":707,"ext":708,"du":709,"param":710,"ip":711,"')<":712,"ĠRe":713,"ry":714,"Ġ<":715,"oly":716,"Ġpo":717,"],<":718,"Ġ..":719,"Ġwe":720,"Ġby":721,"Ġ@":722,"mal":723,"data":724,"\"\"\"<":725,"Ġit":726,"ste":727,"file":728,"ili":729,"Ġpre":730,"Ġen":731,"Ġlist":732,"ĠB":733,"Ġno":734,"ya":735,"Ġdata":736,"Ġcan":737,"iÅŁ":738,"col":739,"men":740,"ses":741,"fe":742,"lan":743,"den":744,"lib":745,"ule":746,"low":747,"jo":748,"ĠĠĠĠĠĠĠĠĠĠĠĠĠĠĠĠĠĠĠĠĠĠĠĠ":749,"Ġset":750,"lement":751,"ize":752,"Ġ4":753,"ss":754,"umn":755,"ĠV":756,"ump":757,"ger":758,"Ġversion":759,"sing":760,"ok":761,"Ġsu":762,"ber":763,"ca":764,"ĠO":765,"ft":766,"ĠTrue":767,"pr":768,"ĠĠĠĠĠ":769,"////////":770,"ba":771,"que":772,"tes":773,"dex":774,"ini":775,"Ġfile":776,"his":777,"ated":778,"ĠU":779,"Ġch":780,"code":781,"Ġmat":782,"Ġbo":783,"ents":784,"und":785,"dtype":786,"ameter":787,"Ġobject":788,"Ġlen":789,"Ġso":790,"Ġmo":791,"Ġ''<":792,"Ġfunction":793,"Ġout":794,"iv":795,"Ġwill":796,"Ġdtype":797,"Ä±y":798,"alue":799,"del":800,"',<":801,"Ġcomp":802,"Ġother":803,"andom":804,"ram":805,".__":806,"Ġcol":807,"out":808,"qui":809,"loat":810,"ĠFalse":811,"ĠĠĠĠĠĠĠĠĠĠĠĠĠĠĠĠĠĠĠĠĠĠĠ":812,"min":813,"ence":814,"lat":815,"ctor":816,"Ġle":817,"ec":818,"ks":819,"man":820,"sc":821,"cept":822,"ĠIf":823,"True":824,"Ã¼r":825,"Ġdefault":826,"mb":827,"ĠX":828,"mas":829,"import":830,"ĠW":831,"Ġ**":832,"Ġ5":833,"heck":834,"sen":835,"ener":836,"Ġget":837,"func":838,"clu":839,"sy":840,"Ġkey":841,"tra":842,"ek":843,"uld":844,"pecifi":845,"umpy":846,"kw":847,"read":848,"Ġv":849,"init":850,"lin":851,"ĠĠĠĠĠĠ":852,"tt":853,"valid":854,"date":855,"cess":856,"10":857,"Ä±ÄŁ":858,"alueError":859,"tive":860,"thon":861,"ĠThis":862,"su":863,".,":864,"xis":865,"shape":866,"ample":867,"ild":868,"lif":869,"laÅŁ":870,"arning":871,"Ġ->":872,"info":873,"instance":874,"zer":875,"perty":876,"ker":877,"tribu":878,"Ġhas":879,"mar":880,"head":881,"lease":882,"ich":883,"arget":884,"kt":885,"False":886,"ime":887,"Ġ--------":888,"Ġtoken":889,"red":890,"attr":891,"dan":892,"lic":893,"rix":894,"append":895,"Ġsy":896,"ef":897,"time":898,"like":899,"url":900,"################":901,"='":902,"64":903,"In":904,"error":905,"Ġelif":906,"gi":907,"ko":908,"state":909,"av":910,"by":911,"stri":912,"ER":913,"Ġpr":914,"=\"":915,"ik":916,"['":917,"ings":918,"ps":919,"Ġoption":920,"Ġmethod":921,"fig":922,"Ġint":923,"nection":924,"add":925,"ast":926,"():<":927,"os":928,"gg":929,"ble":930,"iler":931,"Ġnew":932,"fer":933,"clo":934,"[\"":935,"size":936,"Ġro":937,"label":938,"ren":939,"pi":940,"ms":941,"Ġwhich":942,":`.":943,"kon":944,"ins":945,"Ġused":946,"we":947,"Ġuse":948,"gÃ¶":949,"quest":950,"uk":951,"uple":952,"format":953,"ulti":954,"[:":955,"Ġnum":956,"Con":957,"lag":958,"tions":959,"vari":960,"ding":961,"Ġsupp":962,"((":963,"jon":964,"ally":965,"property":966,"most":967,"Ġsho":968,"====":969,"wn":970,"Ã¼n":971,"ĠH":972,"use":973,"Ġisinstance":974,"lik":975,"iy":976,"Ġall":977,"Ġresult":978,"ace":979,"Ġ>":980,"ilen":981,"ĠĠĠĠĠĠĠĠĠĠĠĠĠĠĠĠĠĠĠĠĠĠĠĠĠĠĠĠĠĠĠĠ":982,"Ġcheck":983,"Ġos":984,"larÄ±n":985,"Ġvalues":986,"Ġclass":987,"lit":988,"join":989,"vel":990,"ĠIn":991,"ant":992,"ard":993,"spon":994,"Ġj":995,"inter":996,"Ġtry":997,"leÅŁ":998,"RE":999,"ative":1000,"ute":1001,"ret":1002,"back":1003,"Ġpath":1004,"ameters":1005,"Tag":1006,"odule":1007,"ĠReturn":1008,"pla":1009,"util":1010,"token":1011,"))":1012,"sent":1013,"**":1014,"dict":1015,"'s":1016,"if":1017,"Ġla":1018,"sions":1019,"uz":1020,"Ġexcept":1021,"may":1022,"Ġstate":1023,"ull":1024,"ph":1025,"Ġarg":1026,"ll":1027,"ception":1028,"rig":1029,"kar":1030,"method":1031,"ĠĠĠĠĠĠĠĠĠ":1032,"pected":1033,"mes":1034,"Ġshape":1035,"ython":1036,"com":1037,"ĠG":1038,"ures":1039,"nd":1040,"}<":1041,"almost":1042,"alle":1043,"lt":1044,"ran":1045,"Ġ\"<":1046,"ors":1047,"iel":1048,"atch":1049,"uÅŁ":1050,"'t":1051,"Ġshould":1052,"Ġha":1053,"line":1054,"arn":1055,"Ġsub":1056,"Ġ/":1057,"Ġwhen":1058,".\"\"\"<":1059,"stra":1060,"Ġinter":1061,"ations":1062,"Ã¸r":1063,"dd":1064,"iter":1065,"ach":1066,"Ġapp":1067,"word":1068,"table":1069,"unt":1070,"stru":1071,"ument":1072,"Ġpoly":1073,"']":1074,"ĠR":1075,"12":1076,"Ġ.":1077,"Ġstring":1078,"Ġexp":1079,"ork":1080,"pper":1081,"ang":1082,"arch":1083,"not":1084,"bil":1085,"Ġiter":1086,"_(":1087,"close":1088,"iven":1089,"spec":1090,"ĠPar":1091,"ĠĠĠĠĠĠĠĠĠĠ":1092,"max":1093,"parse":1094,"reg":1095,"des":1096,"tag":1097,"age":1098,"ara":1099,"index":1100,"orm":1101,"Ġac":1102,"cur":1103,"alect":1104,"Ã¦":1105,"igh":1106,"tÄ±r":1107,"Ġspecifi":1108,"])":1109,"Ġtime":1110,"my":1111,"ug":1112,"aÄŁ":1113,"raises":1114,"Ġrange":1115,"with":1116,"inn":1117,"ffer":1118,"tree":1119,"vir":1120,"mÄ±ÅŁ":1121,"AT":1122,"son":1123,"sample":1124,"Ġ+=":1125,"ket":1126,"doc":1127,"32":1128,"roup":1129,"uy":1130,"miÅŁ":1131,"ml":1132,"Ġz":1133,"reate":1134,"lable":1135,"item":1136,"Ġnumpy":1137,"load":1138,"emp":1139,"Ġhave":1140,"Ġop":1141,"mand":1142,"ache":1143,"ni":1144,"ong":1145,"ilename":1146,"-<":1147,"object":1148,"ression":1149,"--<":1150,"tribute":1151,"atures":1152,"random":1153,"gram":1154,"Ġmax":1155,"rent":1156,"va":1157,"ĠSe":1158,"ref":1159,"fix":1160,"Ġoper":1161,"sage":1162,"mit":1163,"dÄ±r":1164,"sub":1165,"sor":1166,"fit":1167,"ep":1168,"rect":1169,"lect":1170,"gr":1171,"ql":1172,"Ġ6":1173,"new":1174,"Ġbool":1175,"\"]":1176,"ĠĠĠĠĠĠĠĠĠĠĠĠĠĠĠĠĠĠĠĠĠĠĠĠĠĠĠ":1177,"tain":1178,"try":1179,"tial":1180,"kwargs":1181,"dÃ¼":1182,"Ġaxis":1183,"lection":1184,"tir":1185,"ĠValueError":1186,"het":1187,"mbda":1188,"base":1189,"gth":1190,"las":1191,"99":1192,"ature":1193,"Ġinput":1194,"open":1195,"poly":1196,"kal":1197,"log":1198,"lig":1199,"Ġgiven":1200,"right":1201,"!=":1202,"mer":1203,"ved":1204,"Ġprint":1205,"ON":1206,"kage":1207,"([[":1208,"Ġ(<":1209,"string":1210,"lay":1211,"pha":1212,"float":1213,"ersion":1214,"Ġsupport":1215,"urce":1216,"ew":1217,"bin":1218,"dÄ±":1219,"Ġsp":1220,"01":1221,"sig":1222,"ting":1223,"inal":1224,"'d":1225,"ked":1226,"ats":1227,"Ġ\\":1228,"Ġnumber":1229,"rame":1230,"ign":1231,"::<":1232,"cation":1233,"split":1234,"core":1235,"ev":1236,"`<":1237,"////////////////":1238,"Ġonly":1239,"ki":1240,"Ġpass":1241,"Ġany":1242,"ap":1243,"mÃ¼":1244,"kle":1245,"Ġtext":1246,"LE":1247,"lock":1248,"Ġone":1249,"Ġ10":1250,"Ġerror":1251,"Ġmust":1252,"sponse":1253,"Ġdat":1254,"rite":1255,"Ġitem":1256,"Ġ!=":1257,"Ġ----":1258,"')":1259,"erelease":1260,"eri":1261,"Ġfloat":1262,"ĠK":1263,"Type":1264,"`.<":1265,"num":1266,"types":1267,"arent":1268,"Ġ----------<":1269,"scri":1270,"em":1271,"Ġcolumn":1272,"bi":1273,"AR":1274,"gÃ¼":1275,"Ġstart":1276,"Ex":1277,"::":1278,"ory":1279,"bs":1280,"sin":1281,"://":1282,"kler":1283,"ST":1284,"af":1285,"jÃ¸":1286,"hi":1287,"Ġorder":1288,"Ġtuple":1289,"Ġcom":1290,"ults":1291,"OR":1292,"Ġ[]<":1293,"ore":1294,"check":1295,"Ġlog":1296,"SS":1297,"ity":1298,"ackage":1299,"omi":1300,"lements":1301,"cor":1302,"og":1303,"Ä±mÄ±z":1304,"ield":1305,"rans":1306,"Ġback":1307,"Ġcase":1308,"Ġcur":1309,"place":1310,"Ġbut":1311,"trans":1312,"utils":1313,"ual":1314,"yn":1315,"ceÄŁ":1316,"Ġtra":1317,"Ġbase":1318,"dge":1319,"Ġline":1320,"Ġcor":1321,"ĠEx":1322,"kap":1323,"latform":1324,"].":1325,"Ġword":1326,"samples":1327,"fa":1328,"000":1329,"default":1330,"obj":1331,"Ä±ÄŁÄ±n":1332,"tan":1333,"ints":1334,"tern":1335,"omp":1336,"Ġoptional":1337,"ga":1338,"bar":1339,"IN":1340,"fore":1341,"ress":1342,"ular":1343,"ĠReturns":1344,"lÄ±k":1345,"Ġfe":1346,"tity":1347,"kur":1348,"parser":1349,"calar":1350,"Ġend":1351,"met":1352,"cate":1353,"Ġsys":1354,"can":1355,"ilter":1356,"main":1357,"Ġover":1358,"assert":1359,"Ġpy":1360,"space":1361,"dist":1362,"ĠNo":1363,"\".":1364,"target":1365,"irst":1366,"ven":1367,"ormal":1368,"Ġusing":1369,"ound":1370,"bili":1371,"ling":1372,"(),":1373,"imiz":1374,"Ġeach":1375,"Ġcont":1376,"Ġexclu":1377,"allclose":1378,"Ġmatrix":1379,"br":1380,"Ġbu":1381,"Ġ['":1382,"lu":1383,"ereleases":1384,"column":1385,"struct":1386,"ten":1387,"kk":1388,"ance":1389,"]])<":1390,"old":1391,"viron":1392,"hel":1393,"quire":1394,"[-":1395,"Ġup":1396,"chema":1397,"has":1398,"Ġtag":1399,"dim":1400,"Ġoutput":1401,"Ġmatch":1402,"Ġvari":1403,"stem":1404,"opy":1405,"of":1406,"Ġ...":1407,"Ġgener":1408,"Ġnd":1409,"amples":1410,"Ġcall":1411,"Ġindex":1412,"QL":1413,"pus":1414,"ĠParameters":1415,"ĠSee":1416,"exp":1417,"Ġmin":1418,"tim":1419,"diÄŁ":1420,"ĠPython":1421,"ĠTest":1422,"ctory":1423,"Ġar":1424,"lÃ¸":1425,"ix":1426,"St":1427,"11":1428,"Ä±s":1429,"cs":1430,"ValueError":1431,"Ġhead":1432,"count":1433,"abili":1434,"row":1435,"vo":1436,"hand":1437,">@":1438,"Ã¶z":1439,"ped":1440,"cy":1441,"())<":1442,"map":1443,"matrix":1444,"ight":1445,"ns":1446,"features":1447,"zero":1448,"ou":1449,"df":1450,"options":1451,"land":1452,"move":1453,"Ġconfig":1454,"lÃ¼":1455,"Ġ8":1456,"Ġfirst":1457,"zeros":1458,"omial":1459,"other":1460,"Ġexpected":1461,"Ã¶r":1462,"\")":1463,"opp":1464,"lerin":1465,"uni":1466,"gra":1467,"Ġallow":1468,"mplex":1469,"tol":1470,"rap":1471,"cls":1472,"Pro":1473,"ĠJ":1474,"Ġrandom":1475,"ense":1476,"update":1477,"Ġdict":1478,"SE":1479,"bal":1480,"Ġmodule":1481,"over":1482,"orted":1483,"yle":1484,"Ġdoes":1485,"kan":1486,"Ġndarray":1487,"Ġthen":1488,"Ã¦r":1489,"20":1490,"stribu":1491,"ments":1492,"eng":1493,"Ġ--------<":1494,"day":1495,"Ġver":1496,"pack":1497,"Ġlin":1498,"Ġ7":1499,"ream":1500,"meth":1501,"imat":1502,"quence":1503,"numpy":1504,"\":<":1505,"start":1506,"Ġuni":1507,"Ġrequest":1508,"Ġconnection":1509,"Ġval":1510,"aÅŁ":1511,"arnings":1512,"exec":1513,"ized":1514,"sal":1515,"Ġfa":1516,"late":1517,"Ġlabel":1518,"Ġ(\"":1519,"az":1520,"process":1521,"ols":1522,"order":1523,"Ġper":1524,"Ġtable":1525,"its":1526,"pri":1527,"let":1528,"sh":1529,"disp":1530,"group":1531,"yÃ¼":1532,"sm":1533,"ie":1534,"Ġsent":1535,"baÅŁ":1536,"EN":1537,"write":1538,"net":1539,"Ġdoc":1540,"asses":1541,"Ġsame":1542,"mad":1543,"Ġvi":1544,"values":1545,"ner":1546,"Ġformat":1547,"fy":1548,"izer":1549,"Version":1550,"sg":1551,"Ġexclusions":1552,"ery":1553,"return":1554,"Ġinstance":1555,"Ġad":1556,"coding":1557,"(_":1558,"wo":1559,"Ġ|":1560,").<":1561,"Ġsize":1562,"Ġmulti":1563,"adata":1564,"Ġmay":1565,"ĠFor":1566,"siz":1567,"imp":1568,"org":1569,"ny":1570,"ous":1571,"Par":1572,"ned":1573,"Ġnon":1574,"Ġread":1575,"16":1576,"ies":1577,"asjon":1578,"Ġcontext":1579,"gor":1580,"nomial":1581,"multi":1582,"axis":1583,"tal":1584,"25":1585,"kÃ¼":1586,"context":1587,"edge":1588,"ĠCon":1589,"inf":1590,"Ġedge":1591,"ined":1592,"je":1593,"pend":1594,"Ġqu":1595,"---<":1596,"stall":1597,"Ġindi":1598,"uth":1599,"Ġmore":1600,"rec":1601,"Ġnode":1602,"mu":1603,"ose":1604,"copy":1605,"nan":1606,"().":1607,"tÄ±":1608,"err":1609,"tributes":1610,"uments":1611,"mek":1612,"vent":1613,"Ġwhere":1614,"inden":1615,"mark":1616,"Ġest":1617,"Ġkw":1618,"Ġho":1619,"Ġsup":1620,"Ġinclu":1621,"Ġalso":1622,"med":1623,"Ġdist":1624,"rc":1625,"ng":1626,"Ġurl":1627,"Ġtarget":1628,"Ġhtt":1629,"tak":1630,"################################":1631,"function":1632,"Ġvalid":1633,"sum":1634,"acak":1635,"sition":1636,"added":1637,"atus":1638,"To":1639,"alled":1640,"ey":1641,"config":1642,"names":1643,"mak":1644,"Ġinte":1645,"Ġmake":1646,"sol":1647,"yon":1648,"mi":1649,"Warning":1650,"Ġ9":1651,"cale":1652,"cipy":1653,"========":1654,"``.<":1655,"xy":1656,"Ġobj":1657,"gen":1658,"liÄŁ":1659,"Ä±nÄ±z":1660,"(*":1661,"temp":1662,"wer":1663,"dt":1664,"Ġlambda":1665,"her":1666,"aract":1667,"mon":1668,"IT":1669,"non":1670,"off":1671,"ask":1672,"DE":1673,"dot":1674,"ences":1675,"Di":1676,"oper":1677,"yp":1678,"han":1679,"mask":1680,"Ġcode":1681,"Ġfunc":1682,"san":1683,"Ġsee":1684,"olumn":1685,"maz":1686,"chemy":1687,"ster":1688,"Ġq":1689,"Ġattribute":1690,"Ġ-------<":1691,"pop":1692,"ole":1693,"Ġuser":1694,"\"):<":1695,"pen":1696,"iniz":1697,"ltk":1698,"dition":1699,"Ġargs":1700,"Ġoperator":1701,"MA":1702,"Ġcurrent":1703,"ide":1704,"Ġyield":1705,"gt":1706,"cision":1707,"lause":1708,"Ġimple":1709,"na":1710,"SSL":1711,"tÃ¼":1712,"Ġ[<":1713,"Ã¶n":1714,"lags":1715,"Ġstatement":1716,"Set":1717,"sv":1718,"top":1719,"gre":1720,"server":1721,"cle":1722,"The":1723,"spe":1724,"any":1725,"arange":1726,"ptional":1727,"Ch":1728,"Ġparameter":1729,"ld":1730,"Ġwas":1731,"ite":1732,"gener":1733,"cre":1734,"meye":1735,"TT":1736,"gu":1737,"Ġextra":1738,"Ġmsg":1739,"input":1740,"mem":1741,"Ã§e":1742,"abase":1743,"pol":1744,"wise":1745,"Ã¸y":1746,"Ġcls":1747,"mented":1748,"level":1749,"Ġrel":1750,"15":1751,"spar":1752,"Ġrepre":1753,"=[":1754,"module":1755,"jen":1756,"Ġthan":1757,"33":1758,"Ġcontain":1759,"rectory":1760,"atic":1761,"yor":1762,"filename":1763,"inin":1764,"Ġutil":1765,"match":1766,"Ġinto":1767,"indi":1768,"Ġcal":1769,"Ġprovi":1770,"14":1771,"rid":1772,"onents":1773,"Ġelement":1774,"straint":1775,"warn":1776,"air":1777,"ution":1778,"'),":1779,"~~":1780,"----------------":1781,"Ġadd":1782,"larÄ±":1783,"Ġdialect":1784,"cond":1785,"Ä±t":1786,"arbe":1787,"inde":1788,"\"]<":1789,"unk":1790,"Ġrow":1791,"output":1792,"yar":1793,"Ġtrans":1794,"]))<":1795,"Ġ[\"":1796,"fter":1797,"Ġbin":1798,"Ġobjects":1799,"sam":1800,"hen":1801,"acaÄŁ":1802,"Ġid":1803,"ala":1804,"Ġpos":1805,"aki":1806,"Ġnames":1807,"work":1808,"element":1809,"msg":1810,"user":1811,"nore":1812,"kr":1813,"Ġpolynomial":1814,"']<":1815,"nal":1816,"Ä±nÄ±":1817,"ids":1818,"Ġfilename":1819,"Ġarrays":1820,"idth":1821,"CT":1822,"dat":1823,"result":1824,"Ġneed":1825,"cek":1826,"Ġ[[":1827,"Ġtwo":1828,")))<":1829,"kay":1830,"cÄ±":1831,"Ġcopy":1832,"sit":1833,"fier":1834,"(-":1835,"medi":1836,"imator":1837,"TTP":1838,"Ġits":1839,"PI":1840,"ell":1841,"'),<":1842,"34":1843,"':<":1844,"Ä±la":1845,"dev":1846,"ody":1847,"[:,":1848,"lot":1849,"pecial":1850,"duce":1851,"oc":1852,"gex":1853,"ader":1854,"Ã§Ä±k":1855,"Ġargument":1856,"call":1857,"ĠAl":1858,"dispatch":1859,"Ġprocess":1860,"rel":1861,"root":1862,"yak":1863,"ĠSQL":1864,"FF":1865,"db":1866,"``,":1867,"formation":1868,"kat":1869,"Ġlength":1870,"LT":1871,"req":1872,"rim":1873,"hat":1874,">\"\"\"<":1875,"bug":1876,"det":1877,"repr":1878,"PE":1879,"Ġsuper":1880,"jer":1881,"gging":1882,"Ġspec":1883,"0000":1884,"ties":1885,"Ġpytest":1886,"Ġhand":1887,"Ä±yor":1888,"ton":1889,"math":1890,"dur":1891,"Ġvariable":1892,"nect":1893,"RO":1894,"bul":1895,"ban":1896,"'):<":1897,"params":1898,"cache":1899,"Ġreturned":1900,"fir":1901,"mt":1902,"connection":1903,"Ġsome":1904,"CK":1905,"items":1906,"Ġrun":1907,"Ar":1908,"sql":1909,"Ġresponse":1910,"Ġyou":1911,"_,":1912,"van":1913,"bose":1914,"Ġsh":1915,"lem":1916,"Ġ<=":1917,"tar":1918,"Ġdistribu":1919,"Ġunder":1920,"dialect":1921,"Ġexec":1922,"lÄ±":1923,"model":1924,"compile":1925,"Ġevent":1926,"ple":1927,"Ġig":1928,"pos":1929,"Ã¼rÃ¼":1930,"spective":1931,"keys":1932,"Ġfound":1933,"Ġdatabase":1934,"Ġconver":1935,"sl":1936,"ĠĠĠĠĠĠĠĠĠĠĠĠ":1937,"gÃ¶r":1938,"Ġtree":1939,"eg":1940,"ctionary":1941,"frame":1942,"Ä±na":1943,"nel":1944,"ights":1945,"leri":1946,"``<":1947,"})<":1948,"pecifier":1949,"CO":1950,"hs":1951,"Ġright":1952,"Ġsing":1953,"vector":1954,"char":1955,"sak":1956,"Ã§ek":1957,"ake":1958,"Ġroot":1959,"supp":1960,"utable":1961,"ww":1962,"utf":1963,"post":1964,"`,":1965,"sparse":1966,"bind":1967,"cat":1968,"AL":1969,"]:<":1970,"Ġ>=":1971,"indo":1972,"python":1973,"act":1974,"attern":1975,"lower":1976,"quires":1977,"ince":1978,"cted":1979,"Ġwarnings":1980,"Ġscipy":1981,"licit":1982,"uto":1983,"wa":1984,"Ġkwargs":1985,"iginal":1986,"stead":1987,"ive":1988,"led":1989,"UN":1990,"indow":1991,"...":1992,"reak":1993,"Comp":1994,"Ġcoef":1995,"source":1996,"qr":1997,"length":1998,"Ġmodel":1999,"lete":2000,"Ġarguments":2001,"Ġexist":2002,"ater":2003,"ĠNot":2004,"malar":2005,"alar":2006,"assi":2007,"50":2008,"Ġwork":2009,"cated":2010,"Ġwhile":2011,"our":2012,"Ġmes":2013,"pping":2014,"Ġpackage":2015,"Ġexception":2016,"unds":2017,"backend":2018,"Ġtemp":2019,"acy":2020,"vironment":2021,"Ġversionadded":2022,"bit":2023,"sj":2024,"kke":2025,"pytest":2026,"Token":2027,"raw":2028,"Ġinfo":2029,"the":2030,"tains":2031,"ates":2032,"CH":2033,"yen":2034,"tiri":2035,"ĠĠĠĠĠĠĠĠĠĠĠĠĠĠĠĠĠĠĠĠĠ":2036,"insert":2037,"html":2038,"RL":2039,"mod":2040,"Ġlike":2041,"kom":2042,"Ġhere":2043,"Ġ{<":2044,"Ġmessage":2045,"Ġ()":2046,"][":2047,"ĠY":2048,"Ġspecified":2049,"TH":2050,"Ġfiles":2051,"schema":2052,"htt":2053,"ĠĠĠĠĠĠĠĠĠĠĠĠĠ":2054,"hal":2055,"nown":2056,"17":2057,"mis":2058,"parent":2059,"aults":2060,"bÃ¼":2061,"Ġimp":2062,"ĠĠĠĠĠĠĠĠĠĠĠĠĠĠĠĠĠĠĠĠĠĠĠĠĠĠĠĠ":2063,"sist":2064,"Ġpi":2065,"ĠPro":2066,"ĠType":2067,"13":2068,"bool":2069,"Ġoptions":2070,"tet":2071,"tek":2072,"Ġfeature":2073,"tic":2074,"itial":2075,"jobs":2076,"command":2077,"ION":2078,"direct":2079,"RA":2080,"arr":2081,"Ġinstead":2082,"Ġcollection":2083,"ager":2084,"Ġprereleases":2085,"tre":2086,"]*":2087,"ave":2088,"bile":2089,"verse":2090,"Ġparent":2091,"ametri":2092,"rÃ¥":2093,"Ġmem":2094,"Ġstats":2095,"rag":2096,"hy":2097,"expected":2098,"90":2099,"Un":2100,"sitive":2101,"bak":2102,"Ġplatform":2103,"mez":2104,"fici":2105,"run":2106,"Ġgetattr":2107,"Ġhasattr":2108,"No":2109,"laÅŁtÄ±r":2110,"yap":2111,"norm":2112,"Ġsol":2113,"build":2114,"Ġdiffer":2115,"ency":2116,"kul":2117,"'))<":2118,"components":2119,"ĠExamples":2120,"rol":2121,"ĠWe":2122,"Imple":2123,"abil":2124,"allel":2125,"Ġleft":2126,"86":2127,"vars":2128,"ĠstartTag":2129,"Ġscalar":2130,"stack":2131,"side":2132,"uble":2133,":`_":2134,"ali":2135,"ils":2136,"lene":2137,"Po":2138,"deÄŁ":2139,"lass":2140,"eq":2141,"Ġbet":2142,"Ġfol":2143,"arts":2144,"fun":2145,"ĠOptional":2146,"ron":2147,"ark":2148,"fft":2149,"geÃ§":2150,"Ġ[-":2151,"24":2152,"Ġdt":2153,"Ġload":2154,"Ġsample":2155,"Ġsequence":2156,"ĠDe":2157,"bel":2158,"Ġcreate":2159,"Return":2160,"libr":2161,"kj":2162,"sÃ¼":2163,"Ġact":2164,"LO":2165,"},<":2166,"Ġnltk":2167,"fn":2168,"rop":2169,"Ã¥r":2170,"?<":2171,"Ġsql":2172,"enti":2173,"yan":2174,"alg":2175,"cast":2176,"Al":2177,"Ġchild":2178,"wh":2179,"Base":2180,"transform":2181,"json":2182,"select":2183,"rand":2184,"din":2185,"replace":2186,"ert":2187,"ĠĠĠĠĠĠĠĠĠĠĠĠĠĠĠĠĠĠĠĠ":2188,"nings":2189,"xes":2190,"Ġreg":2191,"md":2192,"request":2193,"filter":2194,"Ġparse":2195,"ametrize":2196,"Ġdate":2197,"sible":2198,"ĠCheck":2199,"Ġwhe":2200,"Elements":2201,"leg":2202,"ilable":2203,"aracters":2204,"Ġbackend":2205,"full":2206,"rak":2207,"]),":2208,"'.":2209,"imum":2210,"vs":2211,"]]<":2212,"classes":2213,"ckle":2214,"Ġrepresent":2215,"bet":2216,"view":2217,"tut":2218,"fied":2219,"ben":2220,"Ġopen":2221,"header":2222,"arbeid":2223,"yr":2224,"Ġexc":2225,"Ġ'<":2226,"ĠĠĠĠĠĠĠĠĠĠĠĠĠĠĠĠĠĠĠĠĠĠĠĠĠ":2227,"bas":2228,"Ä±nÄ±n":2229,"Ġinformation":2230,"Ġ]<":2231,"point":2232,"Ġparam":2233,"skip":2234,"score":2235,"Ġli":2236,"current":2237,"parametrize":2238,"only":2239,"gorith":2240,"Ġclf":2241,"mpty":2242,"create":2243,"ateg":2244,"mean":2245,"Ġrefer":2246,"ndim":2247,"ctx":2248,"Ġparameters":2249,"opt":2250,"kor":2251,"uct":2252,"Ġthere":2253,"à¦":2254,"Ġattributes":2255,"dig":2256,"cli":2257,"mension":2258,">_":2259,"les":2260,"left":2261,"Ġtypes":2262,"under":2263,"Ä±yla":2264,"67":2265,"Ġsingle":2266,"yi":2267,"Ġexpression":2268,"inger":2269,"ject":2270,"precated":2271,"assed":2272,"Ġtrain":2273,"strip":2274,"valu":2275,"ugh":2276,"Ġfunctions":2277,"LA":2278,"Ġhel":2279,"prereleases":2280,"engine":2281,"Ġ\"\\":2282,"mesi":2283,">#<":2284,"27":2285,"vas":2286,"Ġafter":2287,"Table":2288,"sign":2289,"=(":2290,"Ġimplement":2291,"dÃ¼ÅŁ":2292,"Equal":2293,"ĠIt":2294,"18":2295,"less":2296,"ctype":2297,"Ġmode":2298,"Ã¼ÅŁ":2299,"Ġsuch":2300,"lied":2301,"uÄŁ":2302,"tools":2303,"search":2304,")]<":2305,"package":2306,"Ġlast":2307,")):<":2308,"cket":2309,"30":2310,"baÄŁ":2311,"ATE":2312,"TE":2313,"pect":2314,"Ġureg":2315,"Implemented":2316,"Ġ{}<":2317,"cri":2318,"Ġbreak":2319,"Ġreturns":2320,"State":2321,"'],":2322,"gin":2323,"ingen":2324,"Ġerr":2325,"scalar":2326,"normal":2327,"lambda":2328,"Ġdictionary":2329,"Ġcontin":2330,"reshape":2331,"complex":2332,"ux":2333,"mplete":2334,"Ä±lÄ±k":2335,"Exception":2336,"fol":2337,"Ã§al":2338,"Ġserver":2339,"empty":2340,"term":2341,"fri":2342,"Ġpassed":2343,"quirement":2344,"Ġsupports":2345,"Ġ{\"":2346,"Ġrule":2347,"Ġ{'":2348,"Name":2349,"Ġclo":2350,"Ġcre":2351,"ah":2352,"ĠDef":2353,"},":2354,"wait":2355,"AD":2356,"ĠĠĠĠĠĠĠĠĠĠĠĠĠĠĠĠĠĠĠĠĠĠĠĠĠĠĠĠĠĠĠ":2357,"Ġheader":2358,"ku":2359,"block":2360,"ween":2361,"Ġrelease":2362,"Ġrec":2363,"ĠAlso":2364,"Ġbefore":2365,"cheb":2366,"pl":2367,"////////////////////////////////":2368,"Ġfind":2369,"ydi":2370,"ĠTypeError":2371,"Ġcallable":2372,"Ġdisp":2373,"vailable":2374,"mor":2375,"Ġbuild":2376,"vid":2377,"stream":2378,"mil":2379,"Ġchange":2380,"scription":2381,"sav":2382,"loc":2383,"ays":2384,"Ġcalled":2385,"ĠUn":2386,"De":2387,"ĠURL":2388,"compiler":2389,"isk":2390,"Ġverbose":2391,"cont":2392,"\\<":2393,"lobal":2394,"ĠNotImplemented":2395,"Ġcommand":2396,"Ġtgt":2397,"ones":2398,"last":2399,"ged":2400,"Ġstri":2401,"22":2402,"Ġcache":2403,"node":2404,"eff":2405,"Ġsparse":2406,"platform":2407,"zen":2408,"cimal":2409,"flags":2410,"lice":2411,"andard":2412,"train":2413,"Ġattr":2414,"Ġpoints":2415,"55":2416,"har":2417,"77":2418,"mam":2419,"Test":2420,"Ġmet":2421,"gorithm":2422,"Ġfit":2423,"ĠĠĠĠĠĠĠĠĠĠĠĠĠĠĠĠĠĠ":2424,"prefix":2425,"Ġtokens":2426,"Ġ\\<":2427,"ĠComp":2428,"Dict":2429,"gel":2430,"Ġret":2431,"100":2432,"stats":2433,"ctions":2434,"indices":2435,"Ġ'%":2436,"Ġdirectory":2437,"19":2438,"Ġelements":2439,"ĠĠĠĠĠĠĠĠĠĠĠĠĠĠĠĠĠ":2440,"Ġbetween":2441,"Ġ--":2442,"diri":2443,"Ġencoding":2444,"ndarray":2445,"ical":2446,"ĠAn":2447,"Ä±ÄŁÄ±":2448,"Ġdepend":2449,"inst":2450,"didate":2451,"Ġsign":2452,"ru":2453,"Ġprefix":2454,"yaz":2455,"ĠĠĠĠĠĠĠĠĠĠĠĠĠĠ":2456,"80":2457,"kÄ±r":2458,"kÃ¶":2459,"alchemy":2460,"weight":2461,"Ġabo":2462,"encode":2463,"imple":2464,"Ġwor":2465,"tring":2466,"Ġfilter":2467,"sÃ¶":2468,"Ġrtol":2469,"oÄŁ":2470,"Ġinitial":2471,"print":2472,"message":2473,"bytes":2474,"sn":2475,"Ġ):<":2476,"script":2477,"ingene":2478,"Ġprospective":2479,"gn":2480,"local":2481,"Ġ\".":2482,"first":2483,"cause":2484,"ML":2485,"Ġ\"%":2486,"Ġiden":2487,"ĠĠĠĠĠĠĠĠĠĠĠĠĠĠĠĠĠĠĠĠĠĠĠĠĠĠ":2488,"Ġhttp":2489,"respon":2490,"ĠSt":2491,"cheme":2492,"host":2493,"Ġpool":2494,"Ġthey":2495,"Ġprob":2496,"vis":2497,"ĠTo":2498,"Se":2499,"decode":2500,"Ġbeen":2501,"Ġequal":2502,"Ġdistribution":2503,"DO":2504,"Ġjust":2505,"]]":2506,"Ġblock":2507,"Ġnormal":2508,"fiel":2509,"option":2510,"ier":2511,"kol":2512,"Ġempty":2513,"say":2514,"Ġavailable":2515,"execute":2516,"Ġwant":2517,"Ġ12":2518,"entity":2519,"Ġalpha":2520,"Ġzero":2521,"after":2522,"fet":2523,"dirs":2524,"words":2525,"66":2526,"assertEqual":2527,"umber":2528,"link":2529,"aise":2530,"ote":2531,"Ġexample":2532,"Lo":2533,"aset":2534,"ari":2535,"Ġsource":2536,"meli":2537,"ready":2538,"Ġent":2539,"rep":2540,"Connection":2541,"Ġzip":2542,"BA":2543,"\"),<":2544,"ING":2545,"bot":2546,"Ġarr":2547,"exc":2548,"ward":2549,"tric":2550,"sys":2551,"blem":2552,"dÃ¶":2553,"Ġfollow":2554,"regex":2555,"\\\\":2556,"Ġmetadata":2557,"Ġstruct":2558,"Ġ&":2559,"Ġfull":2560,"lication":2561,"Ġpart":2562,"Ġold":2563,"cul":2564,"Ġbind":2565,"Ġ000":2566,"cekler":2567,"alt":2568,"Ġignore":2569,"bre":2570,"Ġref":2571,"Ġcontinue":2572,"alpha":2573,"sek":2574,"\"\"\"":2575,"Ġ)":2576,"Ġthem":2577,"ĠAt":2578,"Ġ,":2579,"inga":2580,"tocol":2581,"cape":2582,"mel":2583,"bes":2584,"kl":2585,"ĠNote":2586,"Ġoff":2587,"termin":2588,"status":2589,"tuple":2590,"http":2591,"ES":2592,"ĠColumn":2593,"Ġinteger":2594,"ful":2595,"AU":2596,"hip":2597,"hase":2598,"uture":2599,"sev":2600,"^^":2601,"graph":2602,"Ã§i":2603,"sis":2604,"okie":2605,"andÄ±r":2606,"buffer":2607,"Ġman":2608,"starts":2609,"ÅŁe":2610,"ould":2611,"ii":2612,"Ġwithin":2613,"taÅŁ":2614,"44":2615,"ither":2616,"Ġheaders":2617,"(?":2618,"radi":2619,"Ġfn":2620,"yet":2621,"Ġvar":2622,"ĠVersion":2623,"closed":2624,"Ġlocal":2625,"produ":2626,"yay":2627,"OS":2628,"Ġlevel":2629,"atible":2630,"yat":2631,"Ġour":2632,"kip":2633,"alan":2634,"qrt":2635,"Ġdel":2636,"files":2637,"ĠĠĠĠĠĠĠĠĠĠĠĠĠĠĠĠĠĠĠĠĠĠ":2638,"__<":2639,"ister":2640,"gistr":2641,"cu":2642,"Ġremo":2643,"hold":2644,"response":2645,"Ġtyp":2646,"quival":2647,"find":2648,"EL":2649,"PY":2650,"uted":2651,"Ġgram":2652,"ization":2653,"Me":2654,"astype":2655,"YPE":2656,"statement":2657,"makt":2658,"auto":2659,"sil":2660,"reve":2661,"range":2662,"action":2663,"rek":2664,"mode":2665,"quired":2666,"clude":2667,"Ġatol":2668,"NO":2669,"inte":2670,"dis":2671,"ssl":2672,"Ġhttps":2673,"yaÅŁ":2674,"ivative":2675,"Ġunit":2676,"Ġoriginal":2677,"box":2678,"vert":2679,"Ġresults":2680,"Ġremove":2681,"sian":2682,"Ġ'.":2683,"lam":2684,"kÄ±":2685,"eric":2686,"iled":2687,"make":2688,"Data":2689,"For":2690,"Ġ\"-":2691,"({":2692,"idx":2693,"Ã¶l":2694,"extra":2695,"thing":2696,"timize":2697,"abs":2698,"enter":2699,"face":2700,"Ġ20":2701,"Ġcorrespon":2702,"Ġconstruct":2703,"exception":2704,"Ġchart":2705,"true":2706,"real":2707,"width":2708,"Element":2709,"Ġinclude":2710,"teri":2711,"Ġ200":2712,"ĠZ":2713,"uster":2714,"startswith":2715,"List":2716,"compare":2717,"\"),":2718,"Ġselect":2719,"Tree":2720,"88":2721,"newdoc":2722,"\\.":2723,"port":2724,"Array":2725,"LS":2726,"Ġmap":2727,"release":2728,"Ã©":2729,"Ġgroup":2730,"hol":2731,"kab":2732,"ators":2733,",)<":2734,"Ġprodu":2735,"Ġawait":2736,"Ġ100":2737,"kaz":2738,"Ġche":2739,"ĠĠĠĠĠĠĠĠĠĠĠĠĠĠĠĠĠĠĠĠĠĠĠĠĠĠĠĠĠ":2740,"sÃ¸":2741,"vents":2742,"dik":2743,"tire":2744,"quivalent":2745,"Ġcli":2746,"daki":2747,"Ġmethods":2748,"coun":2749,"Ġsetup":2750,"tags":2751,"foo":2752,"headers":2753,"zip":2754,"mapper":2755,"fra":2756,"]+":2757,"amp":2758,"bat":2759,"sem":2760,"Ġses":2761,".\")<":2762,"Ġparser":2763,"pts":2764,"plan":2765,"Ġter":2766,"Ġpip":2767,"egg":2768,"hist":2769,"Ġab":2770,"Ä±ndan":2771,"aÃ§":2772,"sat":2773,"Ġbytes":2774,"Ġca":2775,"neg":2776,"En":2777,"kjÃ¸":2778,"Ġsentence":2779,"bro":2780,"tig":2781,"wrap":2782,"ende":2783,"Ġscale":2784,"XT":2785,"Ġprovided":2786,"inite":2787,"seed":2788,"plot":2789,"Ġcompiler":2790,"lek":2791,"):":2792,"hash":2793,"Ġpoint":2794,"Py":2795,"doÄŁ":2796,"75":2797,"insum":2798,"ries":2799,"wnload":2800,"Ġalready":2801,"Ġstack":2802,"ving":2803,"ud":2804,"bilir":2805,"columns":2806,"Ġvector":2807,"change":2808,"VER":2809,"ches":2810,"Ġboth":2811,"NT":2812,"fon":2813,"larÄ±mÄ±z":2814,"Com":2815,"klearn":2816,"rapper":2817,".\"<":2818,"kn":2819,"but":2820,"lad":2821,"query":2822,"fre":2823,")[":2824,"mekte":2825,"Ġmask":2826,"Ġdon":2827,"Ġitems":2828,"Ġnorm":2829,"yas":2830,":`~":2831,"Ġedges":2832,"Ġwhether":2833,"Ġspecial":2834,"fin":2835,"Ġframe":2836,"Column":2837,"connect":2838,"mamÄ±ÅŁ":2839,"ating":2840,"kun":2841,"Ġbecause":2842,"sure":2843,"soci":2844,"lines":2845,"Ġsklearn":2846,"ID":2847,"89":2848,"mul":2849,"rene":2850,"orpus":2851,"coef":2852,"Qu":2853,"Ġdatetime":2854,"Ġstatus":2855,"Ġcomplex":2856,"openElements":2857,"Ġmodi":2858,"best":2859,"Ġlabels":2860,"Ġder":2861,"Ġspecifier":2862,"Ġindices":2863,"sÄ±z":2864,"{}":2865,"Ã¼l":2866,"SQL":2867,"Ġweights":2868,"abc":2869,"thread":2870,"Ġstream":2871,"skri":2872,"ĠNotes":2873,"tor":2874,"atur":2875,"mme":2876,"unuz":2877,"prob":2878,"nder":2879,"sho":2880,"sÄ±n":2881,"anti":2882,"ways":2883,"\"))<":2884,"stract":2885,"lim":2886,"IG":2887,"Ġcount":2888,"lir":2889,"tml":2890,"vious":2891,"keep":2892,"deki":2893,"Ġunicode":2894,"olve":2895,"'])<":2896,"Ġcolumns":2897,"cak":2898,"active":2899,"sar":2900,"Ã¥l":2901,"Ã¼z":2902,"Ġdifferent":2903,"idget":2904,"debug":2905,"ustom":2906,"IO":2907,"kav":2908,"sired":2909,"kene":2910,"vals":2911,"adÄ±r":2912,"variance":2913,"23":2914,"Ġsession":2915,"Ġnext":2916,"AB":2917,"dr":2918,"gistry":2919,"mayacaÄŁ":2920,"AS":2921,"bl":2922,"Ġwords":2923,"Ġcast":2924,"ĠendTag":2925,"Ġgo":2926,"cessing":2927,"Ġfeatures":2928,"Ġwrap":2929,"Ġabs":2930,"remove":2931,"ĠHTTP":2932,"06":2933,"Ġsum":2934,"Ġview":2935,"metadata":2936,"large":2937,"quare":2938,"Ġappro":2939,"Ġtotal":2940,"ields":2941,"Ġiterable":2942,"tte":2943,"rtype":2944,"asarray":2945,"rectly":2946,"sive":2947,"Ġhash":2948,"Ä±dÄ±r":2949,"Ġind":2950,"yer":2951,"Ġthese":2952,"Ġclasses":2953,"Ġsyn":2954,"unct":2955,"At":2956,"ension":2957,"ĠĠĠĠĠĠĠĠĠĠĠĠĠĠĠĠĠĠĠĠĠĠĠĠĠĠĠĠĠĠĠĠĠĠĠ":2958,"iyor":2959,"event":2960,"ĠSet":2961,"luk":2962,"pers":2963,"reveal":2964,"Ã¼m":2965,"leÅŁtir":2966,"ilt":2967,"Ġ-----<":2968,"olean":2969,"tmp":2970,"iyle":2971,"mayacak":2972,"Ġtol":2973,"sue":2974,"hes":2975,"bir":2976,"install":2977,"parti":2978,"Ġdefined":2979,"Ġschema":2980,"tÃ¼r":2981,"Ġmeans":2982,"anlar":2983,"dout":2984,"Ġkeys":2985,"Ġwould":2986,"He":2987,"Ġbeha":2988,"Ġmultiple":2989,"Ġalgorithm":2990,"Ġsection":2991,"Ġ{}":2992,"lap":2993,"abile":2994,"pare":2995,"Ã§Ä±":2996,"cho":2997,"binary":2998,"child":2999,"Ġtrue":3000,"vin":3001,"Ġwithout":3002,"extend":3003,"ĠLI":3004,"ability":3005,"->":3006,"ureg":3007,"roll":3008,"54":3009,"syn":3010,"record":3011,"Ġbinary":3012,"onal":3013,"long":3014,"src":3015,"ih":3016,"bility":3017,"Ġsearch":3018,"Ġ(?":3019,"library":3020,"Ã¶ÄŁ":3021,"teral":3022,"Ġmapper":3023,"safe":3024,"Alchemy":3025,"duy":3026,"Ġtr":3027,"larÄ±nÄ±":3028,"ify":3029,"Ġrv":3030,"Ġerrors":3031,"Ġgrammar":3032,"Ġallowed":3033,"Request":3034,"leme":3035,"Ġkind":3036,"erce":3037,"depend":3038,"Uni":3039,"requires":3040,"void":3041,"File":3042,"Ġbound":3043,"Ġcoeffici":3044,"TypeError":3045,"leye":3046,")(":3047,"sha":3048,"Ġsig":3049,"precation":3050,"Co":3051,"Ġdis":3052,"Ġsa":3053,"rule":3054,"AN":3055,"EM":3056,"einsum":3057,"lere":3058,"arator":3059,"Ġupdate":3060,"Ġsamples":3061,"Ġchar":3062,"haz":3063,"Ġprecision":3064,"kel":3065,"defined":3066,"pred":3067,"ason":3068,"21":3069,"pat":3070,"sun":3071,"Ġcontains":3072,"fil":3073,"={":3074,"Ġpython":3075,"yÃ¶":3076,"round":3077,"kg":3078,"Ġequivalent":3079,"ĠAr":3080,"Ġflag":3081,"Ġbased":3082,"vur":3083,"Ġenvironment":3084,"29":3085,"sort":3086,"leÅŁtiri":3087,"scale":3088,"edi":3089,"angu":3090,"hj":3091,"div":3092,"iyet":3093,"pa":3094,"Ġeither":3095,"job":3096,"system":3097,"ĠDist":3098,"ĠLo":3099,"stances":3100,"tokenizer":3101,"TO":3102,"yal":3103,"anguage":3104,"ĠWhen":3105,"Mo":3106,"dy":3107,"mportError":3108,"ategy":3109,"uÃ§":3110,"ĠUni":3111,"dep":3112,"diag":3113,"kre":3114,").__":3115,"Ġparsed":3116,"tran":3117,";<":3118,"Ġmemory":3119,"iÃ§":3120,"Ġdesired":3121,"Ġmis":3122,"unn":3123,"Ġfail":3124,"distribu":3125,"pool":3126,"sf":3127,"cer":3128,"ksjon":3129,"Context":3130,"conds":3131,")),":3132,"vec":3133,"Ġexplicit":3134,"mbol":3135,"Parser":3136,"ĠList":3137,">)<":3138,"dri":3139,"Ġestimator":3140,"Ġpattern":3141,"dom":3142,"Ġpresent":3143,"Ġct":3144,"~~~~":3145,"sets":3146,"Ġskip":3147,"SON":3148,"LL":3149,"Ġfield":3150,"]],":3151,"Ġdeprecated":3152,"ppe":3153,"ĠTree":3154,"Ġdecor":3155,"dered":3156,"tails":3157,"collection":3158,"site":3159,"04":3160,"tik":3161,"amma":3162,"Ġ'\\":3163,"testing":3164,"HTTP":3165,"sents":3166,"Ġrequired":3167,"(),<":3168,"dump":3169,"Ġform":3170,"ĠUse":3171,"TML":3172,"ĠPy":3173,"eÄŁ":3174,"titem":3175,"kir":3176,"case":3177,"Ġpair":3178,"ighb":3179,"internal":3180,"ortran":3181,"Ġleast":3182,"lus":3183,"Ġaga":3184,"Ġaut":3185,"encoding":3186,"Ġotherwise":3187,"ĠSQLAlchemy":3188,"84":3189,"Ġsupported":3190,"icro":3191,"Ġbounds":3192,"invalid":3193,"olo":3194,"Ġunique":3195,"Ġposition":3196,"ends":3197,"Ġbehavi":3198,"Ġstep":3199,"expression":3200,"tifi":3201,"exist":3202,"Ġstrings":3203,"very":3204,"FAU":3205,"stant":3206,"Invalid":3207,"att":3208,"location":3209,"seg":3210,"egacy":3211,"double":3212,"FAULT":3213,"sle":3214,"Ġreplace":3215,"io":3216,"ED":3217,"Ġbeing":3218,"26":3219,"Ġtake":3220,"coded":3221,"Ġ}<":3222,"verage":3223,"tz":3224,"ross":3225,"predict":3226,"rial":3227,"Ġdir":3228,"kit":3229,"std":3230,"aries":3231,"pair":3232,"`.":3233,"landÄ±r":3234,"kaÃ§":3235,"_<":3236,"ĠPo":3237,"gets":3238,"termine":3239,"changed":3240,"license":3241,"clause":3242,"_.":3243,"linear":3244,"Ġinstall":3245,"Ġsecond":3246,"mid":3247,"tot":3248,"sene":3249,"59":3250,"www":3251,"effs":3252,"dag":3253,"warnings":3254,"Ġenum":3255,"coder":3256,"karÅŁ":3257,"rÃ¸":3258,"ically":3259,"PA":3260,"Ġuses":3261,"rev":3262,"environ":3263,"Ä±nda":3264,"tle":3265,"xx":3266,"ska":3267,"gÃ¶z":3268,"Ġpossible":3269,"Ġfin":3270,"Characters":3271,"preter":3272,"Ġretry":3273,"Ġintegr":3274,"see":3275,"sity":3276,"asked":3277,"where":3278,"Ġexten":3279,"Ġinvalid":3280,"rough":3281,"unicode":3282,"__,":3283,"gres":3284,"tom":3285,"Ġsystem":3286,"Ġsplit":3287,"cii":3288,"ationship":3289,"hÃ¸":3290,"spro":3291,"Ġsqlalchemy":3292,"dire":3293,"FI":3294,"xi":3295,"Ġoc":3296,"ske":3297,"Ġcannot":3298,"tele":3299,"linspace":3300,"Ġactual":3301,"straints":3302,"Ġ#:":3303,"Ġdataset":3304,"Ġarch":3305,"\"\\":3306,"eded":3307,"mac":3308,"tokens":3309,"jac":3310,"imate":3311,"Ġwidth":3312,"urces":3313,"Ġdocument":3314,"hus":3315,"classmethod":3316,"cÃ¼":3317,"oreign":3318,"ice":3319,"Ġwell":3320,"Ġsorted":3321,"Key":3322,"Ġfill":3323,"pression":3324,"nin":3325,"arrays":3326,"Ġcontaining":3327,"Ġlogging":3328,"pecify":3329,"Ġaxes":3330,"bay":3331,"sedVersion":3332,"ĠImportError":3333,"ditional":3334,"aded":3335,"sÃ¼r":3336,"ĠOn":3337,".\",<":3338,"Ġreal":3339,"libc":3340,"Ġquery":3341,"support":3342,"bapi":3343,"ĠIN":3344,"tab":3345,"bed":3346,"mediÄŁ":3347,"gjen":3348,"ĠDi":3349,"ribu":3350,"Ġlogger":3351,"bc":3352,"_)<":3353,"jor":3354,"store":3355,"methods":3356,"Ġimplementation":3357,"refer":3358,"Ġevalu":3359,"step":3360,"Hand":3361,"Ġdoesn":3362,"dÃ¶n":3363,"asyon":3364,"ris":3365,"pan":3366,"``.":3367,"Ġfollowing":3368,"Corpus":3369,"ĠNotImplementedError":3370,"fat":3371,"Ġmean":3372,"03":3373,"body":3374,"ured":3375,"saÄŁ":3376,"cies":3377,"Specifier":3378,"Ä±rla":3379,"aris":3380,"sky":3381,"funcs":3382,"Ġthread":3383,"Ġhist":3384,"eval":3385,"bru":3386,"handle":3387,"ĠĠĠĠĠĠĠĠĠĠĠĠĠĠĠĠĠĠĠĠĠĠĠĠĠĠĠĠĠĠ":3388,"pass":3389,"penSSL":3390,"king":3391,"Dist":3392,"Ġpost":3393,"linalg":3394,"lerimiz":3395,"([-":3396,"zi":3397,"cores":3398,"ource":3399,"Ġdesc":3400,"ector":3401,"delete":3402,"').":3403,"UM":3404,"corpus":3405,"kten":3406,"ĠTO":3407,"tu":3408,"lighet":3409,"Ġ\",":3410,"inition":3411,"kam":3412,"Def":3413,"Ġjson":3414,".*":3415,"izle":3416,"87":3417,"ow":3418,"UT":3419,"Ġparams":3420,"sqrt":3421,"Ġdecimal":3422,"[:-":3423,"sik":3424,"ĠIter":3425,"allow":3426,"Ġremoved":3427,"ession":3428,"tainer":3429,":-":3430,"blo":3431,"Ġcorresponding":3432,"Ġreq":3433,"sÄ±":3434,"Ġlarge":3435,"fÃ¸":3436,"fly":3437,"Time":3438,"ines":3439,"ĠDefault":3440,"mail":3441,"Ġoccur":3442,"Ä±ydÄ±":3443,"position":3444,"antity":3445,"abilir":3446,"================":3447,"kri":3448,"Ġtre":3449,"]).":3450,"CE":3451,"ĠKey":3452,"uration":3453,"pattern":3454,"sted":3455,"=-":3456,"oy":3457,"ĠCopy":3458,"sey":3459,"Ġtrace":3460,")*":3461,"dÄ±k":3462,"asi":3463,"tÄ±k":3464,"erate":3465,"lak":3466,"structor":3467,"indows":3468,"ens":3469,"ĠCo":3470,"Ġrng":3471,"require":3472,"Ġmany":3473,"ome":3474,"aracter":3475,"ilder":3476,"Ġversions":3477,"okup":3478,"Ġsure":3479,"offset":3480,"Can":3481,"fel":3482,"stil":3483,"Inter":3484,"Ġneg":3485,"cript":3486,"Ġmu":3487,"Ġtests":3488,"Ġext":3489,"Ġ'_":3490,"setup":3491,"56":3492,"kas":3493,"uthor":3494,"sq":3495,"legg":3496,"dicate":3497,"Ġretri":3498,"complete":3499,"ET":3500,"Ġwrite":3501,"coeffs":3502,"__)<":3503,"Ġlower":3504,"inner":3505,"Ġprevious":3506,"fill":3507,"bur":3508,"mamas":3509,"UR":3510,"uint":3511,"ngine":3512,"Ġalways":3513,"Ġspecific":3514,"ĠBase":3515,"ccess":3516,"Ġkeyword":3517,"ĠAny":3518,"gar":3519,"Ġeig":3520,"arison":3521,"ĠSpecifier":3522,"ja":3523,"Ġ11":3524,"oo":3525,"ring":3526,"lwork":3527,"Target":3528,"morph":3529,"env":3530,"Ġpickle":3531,"caten":3532,"Ġ[(":3533,"mary":3534,"parseError":3535,"dene":3536,"Sp":3537,"Ġpla":3538,"derr":3539,"stÃ¸":3540,"ordu":3541,"fg":3542,"Ġdimension":3543,")])<":3544,"Pool":3545,"dem":3546,"tributeError":3547,"\").":3548,"ribution":3549,"defaults":3550,"\"])<":3551,"hÃ¥":3552,"Ġfields":3553,"Ġvalidate":3554,"parameters":3555,"Not":3556,"Ġbehavior":3557,"vet":3558,"feature":3559,"rimary":3560,"ank":3561,"kes":3562,"eps":3563,"Ġstop":3564,"special":3565,"ender":3566,",),":3567,"fot":3568,"datetime":3569,"part":3570,"This":3571,"Vector":3572,"eler":3573,"forsk":3574,"nn":3575,"Ġassu":3576,"Handler":3577,"Ġconstraint":3578,"trace":3579,"gÃ¼n":3580,"dek":3581,"Ġlines":3582,"Ġhigh":3583,"ĠĠĠĠĠĠĠĠĠĠĠĠĠĠĠĠĠĠĠĠĠĠĠĠĠĠĠĠĠĠĠĠĠĠ":3584,"dar":3585,"tay":3586,"gj":3587,"abled":3588,"ĠMy":3589,"Ġcorpus":3590,"Ġaccept":3591,"Ġproxy":3592,"delta":3593,"Ġrecord":3594,"war":3595,"Ġjoin":3596,"07":3597,"pdf":3598,"Case":3599,"lassi":3600,"olute":3601,"SER":3602,"Ġprop":3603,">################################":3604,"Ġclause":3605,"Ġcases":3606,"Ġ),<":3607,"Ġ\"\"<":3608,"cent":3609,"Ġ((":3610,"Ġapply":3611,"Ġraw":3612,"hift":3613,"specifi":3614,"Ġdescription":3615,"imize":3616,"Ġwhat":3617,"rozen":3618,"specs":3619,"ective":3620,"Ġdetails":3621,"sÄ±k":3622,"Ġreference":3623,"fli":3624,"ana":3625,"meyeceÄŁ":3626,"points":3627,",)":3628,"Ġtri":3629,"Ġtimeout":3630,"Ġpositive":3631,"97":3632,"Ġredirect":3633,"User":3634,"mm":3635,"lÃ¥":3636,"also":3637,"urity":3638,"unique":3639,"oks":3640,"za":3641,"atibility":3642,"spa":3643,"Ġtmp":3644,"kin":3645,"37":3646,"sjon":3647,"lerden":3648,"Ġmost":3649,"sim":3650,"Ä±ÄŁÄ±nÄ±":3651,"hets":3652,"zy":3653,"go":3654,"Oper":3655,"edges":3656,"byg":3657,"lara":3658,"adcast":3659,"onical":3660,"Ġoffset":3661,"attribute":3662,"ched":3663,"SION":3664,"Ġhtml":3665,"Ġcollections":3666,"fp":3667,"Ġtags":3668,"mensions":3669,"Ġlb":3670,"vit":3671,"bileceÄŁ":3672,"Ġrepresentation":3673,"([<":3674,"uf":3675,"ĠOr":3676,"1234":3677,"Ġensure":3678,"Ã§alÄ±ÅŁ":3679,"tas":3680,"lardÄ±":3681,"dil":3682,"win":3683,"encies":3684,"cmd":3685,"ually":3686,"total":3687,"fÃ¸r":3688,"ogram":3689,"Ġraised":3690,"Ġoperation":3691,"Ġplt":3692,"Ġreason":3693,"mey":3694,"02":3695,"nÄ±n":3696,"tings":3697,"Ġalong":3698,"ighbors":3699,"reduce":3700,"57":3701,"txt":3702,"Ġside":3703,"HE":3704,"imil":3705,"Ġnow":3706,"stat":3707,"rot":3708,"used":3709,"Ä±ÄŁÄ±mÄ±z":3710,"dimension":3711,"dol":3712,"memiÅŁ":3713,"uter":3714,"End":3715,"Ġes":3716,"section":3717,"Ġvia":3718,"abi":3719,"tras":3720,"Ġtraining":3721,"precationWarning":3722,"Ġ._":3723,"36":3724,"mun":3725,"pÃ¥":3726,"Ġassoci":3727,"operator":3728,"mag":3729,"limit":3730,"ussian":3731,"gest":3732,"Ġtransform":3733,"Ġsince":3734,"cum":3735,"lang":3736,"Ġsort":3737,"Ġcreated":3738,"ink":3739,"Ġkeep":3740,"Ġstandard":3741,"include":3742,"signed":3743,"=_":3744,"precision":3745,"Ġenumerate":3746,"Ġconn":3747,"ixin":3748,"Format":3749,"Ġpaths":3750,"itu":3751,"classi":3752,"Ġden":3753,"atio":3754,"INT":3755,"Ġtop":3756,"clf":3757,"ves":3758,"nor":3759,"Ġlocation":3760,"finite":3761,">__":3762,"yÃ¼k":3763,"lendir":3764,"LECT":3765,"Ġexisting":3766,"tiÅŁ":3767,"Ġfileids":3768,"Ġmy":3769,"atist":3770,"Ġadded":3771,"ĠCopyright":3772,"ravel":3773,"ĠException":3774,"known":3775,"egacyVersion":3776,"imilar":3777,"CON":3778,"Ġwarning":3779,"Expression":3780,">################################################################":3781,"ĠBy":3782,"Ġseg":3783,"meler":3784,"Ġremain":3785,"Mapp":3786,"siniz":3787,"Ġhandle":3788,"cp":3789,"grammar":3790,"mage":3791,"session":3792,"ĠĠĠĠĠĠĠĠĠĠĠĠĠĠĠĠĠĠĠĠĠĠĠĠĠĠĠĠĠĠĠĠĠ":3793,"Ġrepr":3794,"CA":3795,"ĠCh":3796,"200":3797,"Ġssl":3798,"Ġmissing":3799,"bor":3800,"Ġprimary":3801,"Ġspecify":3802,"ignment":3803,"spect":3804,"Ġentry":3805,"Ġsepar":3806,"daÄŁ":3807,"Ġabsolute":3808,"weights":3809,"orary":3810,"uring":3811,"cel":3812,"Ġparts":3813,"redirect":3814,"still":3815,"deÄŁiÅŁ":3816,"flat":3817,"Ġresource":3818,"Ġgenerated":3819,"chart":3820,"lov":3821,"Ġcoefficients":3822,"nput":3823,"icense":3824,"Ġcho":3825,"raph":3826,"EP":3827,"labels":3828,"Trans":3829,"String":3830,"ax":3831,"Ġali":3832,"ike":3833,"ish":3834,"ane":3835,"Ġ\"_":3836,"Back":3837,"soy":3838,"ayd":3839,"ernel":3840,"poli":3841,"Ġdep":3842,"au":3843,"Ä±ra":3844,"lendiri":3845,"DL":3846,"far":3847,"Ġtheir":3848,"RI":3849,"ored":3850,"constraint":3851,"Ġagainst":3852,"raf":3853,"kÄ±z":3854,"Ġseealso":3855,"dims":3856,"Ġbro":3857,"belir":3858,"Ġdiag":3859,"tel":3860,"Ġmain":3861,"compatible":3862,"sistent":3863,"stor":3864,"Ġgenerate":3865,"As":3866,"rete":3867,"ublic":3868,"lev":3869,"Ġclassi":3870,")``":3871,"})":3872,"mall":3873,"commit":3874,"Cont":3875,"Ġapplication":3876,"oyn":3877,"ĠRefer":3878,"dispatcher":3879,"api":3880,"kind":3881,"Dis":3882,"dst":3883,"Ġbas":3884,"Ġloc":3885,"ORM":3886,"Ġfix":3887,"Ã¼k":3888,"ĠAttributeError":3889,"konuÅŁ":3890,"dele":3891,"Ġdot":3892,"acÄ±":3893,"OT":3894,"ĠMe":3895,"Ġdomain":3896,"Ġmath":3897,"nonzero":3898,"pet":3899,"DEFAULT":3900,"Ġcontent":3901,"Ġderivative":3902,"Number":3903,"\"],<":3904,"kullan":3905,"omatic":3906,"soft":3907,"dap":3908,"Bu":3909,":]<":3910,"ros":3911,"ĠLicense":3912,"sequence":3913,"lp":3914,"sport":3915,"DI":3916,"nltk":3917,"Ã§aÄŁ":3918,"Ġrequire":3919,"aly":3920,"ters":3921,"ula":3922,"Ġcheb":3923,"deg":3924,"ticular":3925,"slice":3926,"phase":3927,"Do":3928,"Ġsubclass":3929,"ctypes":3930,"ffix":3931,">..":3932,"ality":3933,"Ä±ÄŁÄ±m":3934,"sty":3935,"tiv":3936,"except":3937,"Ġabout":3938,"sep":3939,"ĠAs":3940,"flow":3941,"tex":3942,"Ġdirectly":3943,"9999":3944,"Ġhe":3945,"minus":3946,"ĠAS":3947,"Ġcle":3948,"Ġfinal":3949,"]),<":3950,"show":3951,"Ġcursor":3952,"Proxy":3953,"Ġdistutils":3954,"ale":3955,"units":3956,"CHE":3957,"Raise":3958,"variable":3959,"hay":3960,"Ġthrough":3961,"Ġlink":3962,"hoved":3963,"fields":3964,"escape":3965,"bound":3966,"stop":3967,"literal":3968,"phases":3969,"Text":3970,"Ġstructure":3971,"'\":":3972,"Pre":3973,"uff":3974,"Ġlimit":3975,"'re":3976,"Vi":3977,"Ġ15":3978,"Ġclose":3979,"AG":3980,"Node":3981,"'],<":3982,"Ġscheme":3983,"yum":3984,"olation":3985,"next":3986,"Ġ])<":3987,"Ġ16":3988,"lip":3989,"Ġshow":3990,"Python":3991,"larÄ±na":3992,"Ġperform":3993,"Ġhy":3994,"Phase":3995,"dm":3996,"larÄ±nÄ±n":3997,"tokenize":3998,"endswith":3999,"ATA":4000,"Ġidenti":4001,"lex":4002,"cdf":4003,"Res":4004,"Ġpri":4005,"prog":4006,"US":4007,"Ġrequires":4008,"som":4009,"Ġvals":4010,"PRO":4011,"second":4012,"bounds":4013,"Ġhow":4014,"MP":4015,"ji":4016,"skj":4017,"BAPI":4018,"contains":4019,"Ġhost":4020,"Ġscore":4021,"Ġbuffer":4022,"coerce":4023,"hed":4024,"iling":4025,"static":4026,"Ġ-*":4027,"}\".":4028,"errors":4029,"Session":4030,"skap":4031,"Ġabove":4032,"ignore":4033,"Ġ#<":4034,"Ġujson":4035,"Ġglobal":4036,"Ġexists":4037,"mah":4038,"Ġinst":4039,"simple":4040,"formed":4041,"domain":4042,"paths":4043,"diff":4044,"Ġthose":4045,"Ġcorrect":4046,"sr":4047,"sentence":4048,"terion":4049,"Ġexact":4050,"\"],":4051,"ĠKeyError":4052,"teger":4053,"umptions":4054,"kÄ±s":4055,"ain":4056,"visit":4057,"Ġmeta":4058,"original":4059,"supported":4060,"pickle":4061,"Engine":4062,"some":4063,"global":4064,"sizlik":4065,"ocab":4066,"cc":4067,"ky":4068,"ĠAPI":4069,"OD":4070,"madÄ±k":4071,"seÃ§":4072,"vers":4073,"fication":4074,"compat":4075,"liÅŁ":4076,"tod":4077,"Ġcoun":4078,"sorted":4079,"force":4080,"rik":4081,"EX":4082,"ential":4083,"ung":4084,"sjÃ¸":4085,"meta":4086,"Ġoperators":4087,"mÃ¸":4088,"Ġauth":4089,"crement":4090,"Ġzeros":4091,"Ġhelp":4092,"ering":4093,"/<":4094,"iti":4095,"Ä±p":4096,"Ġel":4097,"DATE":4098,"linux":4099,"Ġcri":4100,"Ġbest":4101,"ync":4102,"VE":4103,"zel":4104,"git":4105,"Ä±ld":4106,"arla":4107,"tables":4108,"down":4109,"before":4110,"Ġparticular":4111,"Ġ\"'":4112,"_\\.":4113,"ryp":4114,"adr":4115,"koy":4116,"dikler":4117,"none":4118,"fetch":4119,"ping":4120,"--------------------------------":4121,"Class":4122,"don":4123,"retry":4124,"Ġ\"\"\"\\<":4125,"Ġbyte":4126,"40":4127,"roid":4128,"processing":4129,"Ġ(-":4130,"Ġvariables":4131,"lassifier":4132,"Ġautomatic":4133,"ĠOther":4134,"cab":4135,"kut":4136,"manager":4137,"muÅŁ":4138,"__(<":4139,"eÅŁ":4140,"LTK":4141,"heel":4142,"Ġallows":4143,"fis":4144,"Ä±lab":4145,"Ġob":4146,"mut":4147,"Ġevery":4148,"Ġavoid":4149,")\"":4150,"Reader":4151,"Ġcompute":4152,"spath":4153,"Ġlong":4154,"ama":4155,"serve":4156,"Constraint":4157,"Ġwarn":4158,"'ll":4159,"uri":4160,"Ġacce":4161,"Ġinner":4162,"tids":4163,"Ġworks":4164,"field":4165,"directory":4166,"Ġissue":4167,"joblib":4168,"mann":4169,"loss":4170,"Ġboolean":4171,"exists":4172,"sup":4173,"lue":4174,"28":4175,"alÄ±":4176,"span":4177,"spli":4178,"fest":4179,"Ġunpack":4180,"POS":4181,"Ġ'-":4182,"ands":4183,"Ġaccess":4184,"'\\":4185,"Ġconsi":4186,"imi":4187,"Ġdf":4188,"Ä±lmas":4189,"ob":4190,"Ġwindow":4191,"SI":4192,"bers":4193,"Other":4194,"slo":4195,"ear":4196,"Ġdimensions":4197,"Ġitself":4198,"Ġmar":4199,"\"].":4200,"_{":4201,"mot":4202,"fj":4203,"por":4204,"than":4205,"Parse":4206,"now":4207,"multiarray":4208,"styr":4209,"unit":4210,"sensitive":4211,"untime":4212,"erek":4213,"libraries":4214,"gories":4215,"gula":4216,")),<":4217,"Ġpop":4218,"akt":4219,"05":4220,"Ġconvert":4221,"Ġcharacters":4222,"estimator":4223,"imators":4224,"XX":4225,"description":4226,"kra":4227,"pad":4228,"Ġrout":4229,"Ġoperations":4230,"initial":4231,"tid":4232,"cope":4233,"nored":4234,"opts":4235,"content":4236,"bol":4237,"ez":4238,"ĠTh":4239,"clear":4240,"Ġurllib":4241,"lerinin":4242,"larÄ±nÄ±z":4243,"mÃ¼ÅŁ":4244,"counts":4245,"gÃ¼l":4246,"ĠPoly":4247,"caÄŁ":4248,"suz":4249,"201":4250,"ND":4251,"pay":4252,"dest":4253,"Ġfp":4254,"Ġduring":4255,"expr":4256,"Ġeven":4257,"sw":4258,"Ġlibrary":4259,"handler":4260,"Ġneeded":4261,"Ġmapping":4262,"Ġub":4263,"Ġchunk":4264,"Arg":4265,"Ġshort":4266,"Ġinterval":4267,"lying":4268,"Types":4269,"Ä±c":4270,"Optional":4271,"Ġvisit":4272,"generator":4273,"Ġeng":4274,"packages":4275,"Ġcustom":4276,"Iter":4277,"just":4278,"vidual":4279,"_\\.]":4280,"atural":4281,"CI":4282,"ĠDBAPI":4283,"TYPE":4284,"urllib":4285,"Ġitertools":4286,"stre":4287,"ĠInvalid":4288,"Ġbins":4289,"Ġfft":4290,"Mixin":4291,"Ġversionchanged":4292,"prop":4293,"Create":4294,"distribution":4295,"ascii":4296,"generate":4297,"({\"":4298,"064":4299,"39":4300,"tv":4301,"Ġgot":4302,"Ã§ar":4303,"served":4304,"inear":4305,"perties":4306,"future":4307,"lardan":4308,"lected":4309,"stdout":4310,"ĠĠĠĠĠĠĠĠĠĠĠĠĠĠĠĠĠĠĠĠĠĠĠĠĠĠĠĠĠĠĠĠĠĠĠĠĠ":4311,"fic":4312,"Ġproblem":4313,"Ġsocket":4314,"Ġsmall":4315,"sÃ¶yle":4316,"Command":4317,"kok":4318,"least":4319,".],<":4320,"Ã§Ã¶z":4321,"ĠOnly":4322,"Ġinterface":4323,"lush":4324,"Ġenv":4325,"grid":4326,"Ġcallback":4327,"Ġcalcul":4328,"aves":4329,"boz":4330,"Ġroots":4331,"Ġextension":4332,"ĠThese":4333,"Ġprobability":4334,"inv":4335,"Ġsen":4336,"attributes":4337,"Ġorig":4338,"ori":4339,"Ġtimes":4340,"tests":4341,"Start":4342,"callable":4343,"proxy":4344,"ystem":4345,"erical":4346,"^^^^":4347,"Poly":4348,"scipy":4349,"vat":4350,"Ø§":4351,"Ġdetermine":4352,"()``":4353,"lÄ±ÄŁÄ±n":4354,"vision":4355,"factory":4356,"cilik":4357,"vocab":4358,"Ġeff":4359,"Ġoptimize":4360,"tten":4361,"(%":4362,"Ġemit":4363,"Ġdistance":4364,"Ġscript":4365,"35":4366,"Ġdest":4367,"Ġoverri":4368,"Ġtemplate":4369,"ĠDE":4370,"socket":4371,"timeout":4372,"Ä±cÄ±":4373,"zor":4374,"yse":4375,"Ġnest":4376,"quences":4377,"Retry":4378,"prospective":4379,"rin":4380,"Ġown":4381,"__.__":4382,"csr":4383,"Ġcandidate":4384,"morphic":4385,"kning":4386,"Ġway":4387,"byte":4388,"yim":4389,"rest":4390,"racle":4391,"ib":4392,"Ġ-=":4393,"exceptions":4394,"Ġ_,":4395,"ada":4396,"Ġproperty":4397,"Ġcombin":4398,"Ġsetting":4399,"Meta":4400,")]":4401,"larÄ±ndan":4402,"85":4403,"iki":4404,"patch":4405,"vil":4406,"dal":4407,"ĠLEM":4408,"ĠLEMMA":4409,"Ġcomplete":4410,",))<":4411,"__.":4412,"skole":4413,"vide":4414,"hav":4415,"etter":4416,"rices":4417,"Ġdebug":4418,"ball":4419,"ĠTODO":4420,"tax":4421,"nom":4422,"Ġnamespace":4423,"bank":4424,"}{":4425,"getitem":4426,"ski":4427,"quote":4428,"ls":4429,"todense":4430,"Rule":4431,"EndTag":4432,"ĠMo":4433,"ĠNumber":4434,"ham":4435,"Ġngram":4436,"partial":4437,"larÄ±m":4438,"qa":4439,"Ġmatching":4440,"\"},<":4441,"ĠOpenSSL":4442,"yÄ±":4443,"ele":4444,"Ġdeg":4445,"allable":4446,"Classifier":4447,"ash":4448,"Ġet":4449,"bÃ¥":4450,"cing":4451,"42":4452,"Ġauto":4453,"Ġsimilar":4454,"cert":4455,"Ġsimple":4456,"MENT":4457,"Ġflags":4458,"reader":4459,"bÃ¼yÃ¼":4460,"Ġbad":4461,"Ġdisc":4462,"Ġtoo":4463,"CEN":4464,"Ġmass":4465,"ressions":4466,"Ġkernel":4467,"bÄ±":4468,"leaf":4469,"Backend":4470,"ily":4471,"ĠString":4472,"qdm":4473,"hite":4474,"(\\":4475,"drop":4476,"Ġknown":4477,"Ġcompatibility":4478,"Ġ@_":4479,"Ġmight":4480,"Ġnoqa":4481,"(?:":4482,"Ġnodes":4483,"rypto":4484,"dtypes":4485,"^-":4486,"ani":4487,"######":4488,"parts":4489,"OL":4490,"yol":4491,"Ġbody":4492,"retts":4493,"31":4494,"ools":4495,"Ġgh":4496,"Ġconstant":4497,"Frame":4498,"Ġ%(":4499,"vaz":4500,"erson":4501,"Ä±lan":4502,"tep":4503,"Ġrelationship":4504,"lite":4505,"sitions":4506,"power":4507,"ĠDo":4508,"sab":4509,"ulaÅŁ":4510,"processor":4511,"abileceÄŁ":4512,"Ġwere":4513,"ĠGener":4514,"larla":4515,"deÄŁer":4516,"Ġhyp":4517,"fts":4518,"else":4519,"ordin":4520,"gam":4521,"lerle":4522,"Ä±ÅŁtÄ±r":4523,"Ġsentences":4524,"uses":4525,"ecurity":4526,"dimensional":4527,"Ġlib":4528,"Ġutf":4529,"final":4530,"Ġ\"\"\"))<":4531,"catenate":4532,"sÄ±nÄ±z":4533,"gan":4534,"ging":4535,"orig":4536,"Ġmasked":4537,"andomState":4538,"ĠParallel":4539,"condition":4540,"Ġconnect":4541,"grep":4542,"dÃ¼ÅŁÃ¼n":4543,"nem":4544,"seq":4545,"Ġtuples":4546,"tere":4547,"ander":4548,"many":4549,"bÃ¸":4550,"()):<":4551,"wever":4552,"Ġcp":4553,"Ġdefaults":4554,"Ġparallel":4555,"utes":4556,"vc":4557,"reshold":4558,"Value":4559,"Ġaction":4560,"boÅŁ":4561,"ĠRead":4562,"gang":4563,"chat":4564,"tÄ±ra":4565,"ternal":4566,"tene":4567,"upp":4568,"Ġ'/":4569,"bian":4570,"CENSE":4571,"Ġ'__":4572,"Ġass":4573,"Ġrender":4574,"results":4575,"ĠSE":4576,"ĠOR":4577,"koÅŁ":4578,"128":4579,"PDATE":4580,"yÃ¼z":4581,"ĠNX":4582,"Ġstmt":4583,"rs":4584,"Ġentity":4585,"Ġnumbers":4586,"ĠNum":4587,"Ġsrc":4588,"ĠAd":4589,"inity":4590,"ĠCH":4591,"ĠĠĠĠĠĠĠĠĠĠĠĠĠĠĠĠĠĠĠĠĠĠĠĠĠĠĠĠĠĠĠĠĠĠĠĠ":4592,"Ġndi":4593,"strict":4594,"09":4595,"construct":4596,"Ġraises":4597,"Ġsc":4598,"Ġnote":4599,"single":4600,"Ġsegment":4601,"Found":4602,"Ġsynset":4603,"=%":4604,"NI":4605,"gerÃ§ek":4606,"groups":4607,"Ġprovide":4608,"Ġctypes":4609,"Que":4610,"Ġassociated":4611,"Ġrequirement":4612,"ources":4613,"maya":4614,"identity":4615,"cols":4616,"lerini":4617,"Ġsimp":4618,"ĠNLTK":4619,"Ġdocumentation":4620,"vass":4621,"Est":4622,"inan":4623,"(**":4624,"sap":4625,"callback":4626,"desc":4627,"Ġcod":4628,"lies":4629,"Ġbuilt":4630,"ĠApp":4631,"Ġsquare":4632,"Ġcharacter":4633,"impl":4634,"vol":4635,"abstract":4636,"vek":4637,"ava":4638,"iÅŁle":4639,"Ġrows":4640,"TI":4641,"istic":4642,"ĠRE":4643,"Ġindicate":4644,"Ġtran":4645,"lardÄ±r":4646,"Ġmom":4647,"Ġ\"__":4648,"exe":4649,"missing":4650,"Ġpp":4651,"smÃ¥":4652,"Ġeval":4653,"Ġdire":4654,"Query":4655,":]":4656,"****":4657,"roots":4658,"identi":4659,"gul":4660,"ĠAdd":4661,"lÃ¼k":4662,"dÃ¼r":4663,"grunn":4664,"Ġcommon":4665,".)<":4666,"Ġiterator":4667,"Exec":4668,"Ġevents":4669,"Ġstill":4670,"udi":4671,"ĠPEP":4672,"Ġunderlying":4673,"Ä±yors":4674,"Ġcalls":4675,"Ġmapped":4676,"hÃ¼":4677,"Ġtyping":4678,"miljÃ¸":4679,"Ġvocab":4680,"dam":4681,"Ġcompare":4682,"atistic":4683,"Ġengine":4684,"Ġinstalled":4685,"verbose":4686,"Ġspace":4687,"Ġidx":4688,"Ã§a":4689,"bek":4690,"loads":4691,"Body":4692,"hn":4693,"mf":4694,"Ġrelative":4695,"Ġcontrol":4696,"stants":4697,"erver":4698,"namespace":4699,"Ġfinally":4700,"ĠInput":4701,"à§":4702,"memory":4703,"axes":4704,"vend":4705,"light":4706,"GI":4707,"Ġforce":4708,"Ġtables":4709,"aj":4710,"Ġmod":4711,"ithub":4712,"quantity":4713,"vann":4714,"dapter":4715,"validate":4716,"ral":4717,"protocol":4718,"ningen":4719,"gun":4720,"ough":4721,"lerde":4722,"']:<":4723,"ninger":4724,"logger":4725,"ningene":4726,"lapack":4727,"Ġmon":4728,"SD":4729,"''":4730,"memo":4731,"tigu":4732,"ĠEn":4733,"ĠDDL":4734,"Ġregex":4735,"Ġwri":4736,"Ġdisplay":4737,"lask":4738,"style":4739,"Ġmaximum":4740,"bah":4741,"())":4742,"Ġstrict":4743,"],[":4744,"Ġcoding":4745,"tiÄŁ":4746,"othe":4747,"Ġdone":4748,"ĠTable":4749,"ĠBo":4750,"tificate":4751,"ĠCreate":4752,"ops":4753,"Ġnegative":4754,"akla":4755,"Ġbatch":4756,"Ġconfiguration":4757,"Ġpad":4758,"umuz":4759,"ppers":4760,"pas":4761,"____":4762,"ford":4763,"Ã¦re":4764,"Ġyour":4765,"Ġautomatically":4766,"unexpected":4767,"Block":4768,"Net":4769,"six":4770,"ĠLICENSE":4771,"auth":4772,"Ġlow":4773,"stderr":4774,"Ġiteration":4775,"distutils":4776,"SET":4777,"batch":4778,"ninga":4779,"tiguous":4780,"Ġsafe":4781,"Ġpower":4782,"ĠSS":4783,"Ġopts":4784,"Ġattemp":4785,"kalk":4786,"numeric":4787,"Ġgre":4788,"Ġcluster":4789,"Ġslice":4790,"Ġunless":4791,"Ġincluding":4792,"Ġcookie":4793,"rett":4794,"QU":4795,"marker":4796,"Ġ14":4797,"bins":4798,"environment":4799,"Ġ...<":4800,"Model":4801,"proba":4802,"Ġopt":4803,"ROM":4804,"lis":4805,"gal":4806,"ĠOS":4807,"cursor":4808,"Ġ////////////////////////////////":4809,"entry":4810,"yÃ¼rÃ¼":4811,"spose":4812,"kont":4813,"OK":4814,"trim":4815,"dirname":4816,"https":4817,"begin":4818,"Any":4819,"inc":4820,"siyon":4821,"ĠPre":4822,"github":4823,"ply":4824,"conj":4825,"color":4826,"Ġjac":4827,"mÃ¼z":4828,"template":4829,"mamÄ±z":4830,"beta":4831,"Gener":4832,"Header":4833,"Ġdete":4834,"ORTH":4835,"fs":4836,"ĠEach":4837,"verk":4838,"ĠMat":4839,"Ġstatements":4840,"Ġretries":4841,"dak":4842,"liÄŁi":4843,"ĠĠĠĠĠĠĠĠĠĠĠĠĠĠĠĠĠĠĠĠĠĠĠĠĠĠĠĠĠĠĠĠĠĠĠĠĠĠĠ":4844,"fail":4845,"Compiler":4846,"ABLE":4847,"licen":4848,"alias":4849,"Ġproduce":4850,"lÃ¸s":4851,"Ġinsert":4852,"ident":4853,"mmetric":4854,"(__":4855,"cfg":4856,"upper":4857,"Ġrank":4858,"subclass":4859,"bok":4860,"Ġhelpers":4861,"dian":4862,"ĠCan":4863,"based":4864,"Ġlists":4865,"Ġclient":4866,"Ġ],<":4867,"Ġinterpreter":4868,"FE":4869,"stamp":4870,"Ġinstances":4871,"Ġlinear":4872,"Ġdecorator":4873,"ULL":4874,"abel":4875,"Ġcasting":4876,"gÃ¶ster":4877,"vÃ¥":4878,"Ġpkg":4879,"ij":4880,"anla":4881,"asy":4882,"()[":4883,"ĠDistutils":4884,"Ġfrozen":4885,"rout":4886,"Ġbit":4887,"kamp":4888,"Ġinspect":4889,"execution":4890,"Ġ',":4891,"ryptograph":4892,"Ġcomputed":4893,"fak":4894,"oid":4895,".',":4896,"rvs":4897,"HTML":4898,"Function":4899,"resources":4900,"herit":4901,"ryptography":4902,"tili":4903,"Ġdistributions":4904,"cks":4905,"Ġcovariance":4906,"cord":4907,"sources":4908,"spaces":4909,"stit":4910,"Ġcer":4911,"izi":4912,"tat":4913,"send":4914,"Queue":4915,"uÅŁtur":4916,"OF":4917,"cov":4918,"ĠTuple":4919,"mektedir":4920,"acked":4921,"Ġcondition":4922,"Ä±rt":4923,"ptr":4924,"Ã¼re":4925,"TOCO":4926,"hÃ¥nd":4927,"kum":4928,"Ġrhs":4929,"aff":4930,"nak":4931,"ÄŁÃ¼":4932,"ura":4933,"Ġdefine":4934,"brid":4935,"ading":4936,"Ġfra":4937,"dence":4938,"Ġvalidator":4939,"modi":4940,"Ġless":4941,"jern":4942,"nÃ¸":4943,"register":4944,"Ġignored":4945,"hÃ¸y":4946,"Ã§Ã¶":4947,"candidate":4948,"gir":4949,"kazan":4950,"Ġmatches":4951,"Default":4952,"fast":4953,"kop":4954,"ĠFe":4955,"Ġrepresenting":4956,"lle":4957,"mati":4958,"gion":4959,"ternative":4960,"menu":4961,"Dialect":4962,"sere":4963,"(\"%":4964,"igned":4965,"Ġrot":4966,"factor":4967,"ParsedVersion":4968,"BU":4969,"ital":4970,"rows":4971,"ĠGet":4972,"page":4973,"ormuÅŁ":4974,"STR":4975,"edu":4976,"uÄŁra":4977,"flag":4978,"Ġdetermin":4979,"orn":4980,"Ġgive":4981,"Ġrules":4982,"Ġtrim":4983,"KER":4984,"jet":4985,"Ġcmd":4986,"kah":4987,"Ġneeds":4988,"bulun":4989,"ategory":4990,"client":4991,"Ġwheel":4992,"karÅŁÄ±":4993,"95":4994,"Ġcontents":4995,"ufunc":4996,"Ġdrop":4997,"*(":4998,"fileids":4999,"Ġusage":5000,"AM":5001,"Ġprovides":5002,"eye":5003,"94":5004,"bon":5005,"iri":5006,"Ġenviron":5007,"vak":5008,"Ġinvo":5009,"program":5010,"ĠCompute":5011,">`.<":5012,"Ġnecess":5013,")).":5014,"Ġ},<":5015,"lob":5016,"tah":5017,"Ġ//":5018,"hether":5019,"prod":5020,"Ġimplicit":5021,"save":5022,"icrosoft":5023,"diÄŁi":5024,"arity":5025,"Ġbeta":5026,"boÄŁ":5027,"().__":5028,"74":5029,"white":5030,"Ġdouble":5031,"yorum":5032,"Ġexceptions":5033,"96":5034,"Timeout":5035,"number":5036,"IP":5037,"otur":5038,"Ġstore":5039,"Ġwrapped":5040,"demo":5041,"Fa":5042,"kim":5043,"Ġcould":5044,"yaÄŁ":5045,"organ":5046,"integer":5047,"ĠTra":5048,"Events":5049,"xml":5050,"ym":5051,"lerinden":5052,"null":5053,"resource":5054,"lÃ¸y":5055,"Index":5056,"abspath":5057,"hostname":5058,"lah":5059,"Ġsw":5060,"Ġ``(":5061,"take":5062,"Ġactive":5063,"sten":5064,"duction":5065,"Ġescape":5066,"blas":5067,"Ġufunc":5068,"(\"<":5069,"_[":5070,"olog":5071,"asjons":5072,"clip":5073,"mÃ¥":5074,"Ġworker":5075,"exact":5076,"OP":5077,"big":5078,"reference":5079,"'.<":5080,"rv":5081,"title":5082,"bad":5083,"oz":5084,"fors":5085,"Ġpage":5086,"cessed":5087,"([('":5088,"tart":5089,"scheme":5090,"CHECK":5091,"Ġuseful":5092,"âĢ":5093,"generic":5094,"Ã§ak":5095,"listen":5096,"dtd":5097,",-":5098,"dÃ¸":5099,"Ġratio":5100,"Ġprotocol":5101,"Ġetc":5102,"Setting":5103,"Ġwhose":5104,"Ġmatrices":5105,"Ġmodified":5106,"present":5107,"ĠWord":5108,"JSON":5109,"ĠID":5110,"View":5111,"Ġplace":5112,"bÃ¶":5113,"meyen":5114,"Ġtesting":5115,"download":5116,"folder":5117,"Ġtar":5118,"eno":5119,"ĠWhether":5120,"Ġinterpol":5121,"Gender":5122,">\",":5123,"Ġcomponents":5124,"geliÅŁ":5125,"Ġgroups":5126,"implement":5127,".+":5128,"arm":5129,"loaded":5130,"Ġ(?:":5131,"pal":5132,"ases":5133,"times":5134,"\"]:<":5135,"prior":5136,"AP":5137,"orker":5138,"heter":5139,"Ġseq":5140,"specific":5141,"Ġupper":5142,"cursive":5143,"ayr":5144,"Property":5145,"Ġsha":5146,"polymorphic":5147,"08":5148,"cluster":5149,"cos":5150,"counter":5151,"ĠNORM":5152,"ĠFortran":5153,"Ġiterations":5154,"priate":5155,"Ġhandler":5156,"supports":5157,"ov":5158,"oted":5159,"scores":5160,"Ġweight":5161,"tter":5162,"Ġbelow":5163,"kernel":5164,"abstractmethod":5165,"Ġmag":5166,"kuÅŁ":5167,"ĠOtherwise":5168,"unut":5169,"Ġinputs":5170,"Ġsets":5171,"ju":5172,"dumps":5173,"Path":5174,"uplic":5175,"rup":5176,"valg":5177,"modules":5178,"ire":5179,"former":5180,"cla":5181,"DATA":5182,"lish":5183,"jord":5184,"rul":5185,"parsed":5186,"grup":5187,"++":5188,"ĠLanguage":5189,"Ġ17":5190,"utdan":5191,"bekle":5192,"BO":5193,"Ġnamed":5194,"mbers":5195,"fd":5196,"Ġeps":5197,"cobian":5198,"ĠMake":5199,"yarat":5200,"ĠReferences":5201,"fram":5202,"als":5203,"wheel":5204,"prepare":5205,".])<":5206,"depre":5207,"Ġapprox":5208,"yetiÅŁ":5209,"38":5210,"elements":5211,"liv":5212,"cas":5213,"mayan":5214,"vaÅŁ":5215,"serial":5216,"ĠOrdered":5217,"Ġwidget":5218,"ĠValue":5219,"Union":5220,"rate":5221,"sertion":5222,"eds":5223,"ARKER":5224,"tty":5225,"cr":5226,"hir":5227,"anlat":5228,"urs":5229,"lav":5230,"Ġsuppress":5231,"gresql":5232,"loader":5233,"setter":5234,"sqlalchemy":5235,"ĠUPDATE":5236,"address":5237,"SERT":5238,"Raised":5239,"Ġscal":5240,"sering":5241,"(['":5242,")\\":5243,"ummy":5244,"NB":5245,"qua":5246,"kjem":5247,"ciler":5248,"larda":5249,"annot":5250,"ĠArray":5251,"inverse":5252,"Ġassume":5253,"MIT":5254,"kÄ±y":5255,"vare":5256,"Ġstrategy":5257,"gÃ¶rÃ¼ÅŁ":5258,"sial":5259,"Mapper":5260,"lation":5261,"nelse":5262,"flict":5263,"heta":5264,"Ġvery":5265,"allowed":5266,"getattr":5267,"Ġsave":5268,"kost":5269,"rb":5270,"variate":5271,"nodes":5272,"symbol":5273,"lerine":5274,"apply":5275,"ĠSELECT":5276,"fes":5277,"cookie":5278,"mething":5279,"madÄ±ÄŁÄ±n":5280,"ĠtokenTypes":5281,"Ġctx":5282,"Ext":5283,"Ġ[('":5284,"iner":5285,"constraints":5286,"bruk":5287,"509":5288,"Ġfunct":5289,"rtol":5290,"ĠHTML":5291,"Ġgeneral":5292,"ĠLU":5293,"SV":5294,"uess":5295,"Ġ32":5296,"Str":5297,"Ġ\"[":5298,"Ġleaf":5299,"#<":5300,"Check":5301,"bun":5302,"iste":5303,"Ġcompatible":5304,"An":5305,"yu":5306,"events":5307,"fam":5308,"Ġfunctools":5309,"ragment":5310,"meter":5311,"optimize":5312,"Clause":5313,"async":5314,"Ġregular":5315,"TagToken":5316,"Ġforeign":5317,"wards":5318,"DS":5319,"Ġ19":5320,"Ġinterp":5321,"ĠRaise":5322,"Ġexecution":5323,"Ġtemporary":5324,"ulary":5325,"Ġax":5326,"Ġeigen":5327,"bom":5328,"ĠHo":5329,"Distribution":5330,"\"})<":5331,"derivative":5332,"dav":5333,"epend":5334,"ZE":5335,"[[":5336,"Log":5337,"dia":5338,"Ġ*=":5339,"utation":5340,"sec":5341,"kli":5342,"imizi":5343,"mapping":5344,"Ġfall":5345,"yors":5346,"ining":5347,"Ġ+<":5348,"bran":5349,"tanÄ±":5350,"aÃ§Ä±k":5351,"NP":5352,"ensions":5353,"Ġsolution":5354,"ĠRequest":5355,"erb":5356,"CHAR":5357,"parallel":5358,"stand":5359,"asÄ±":5360,"ĠTrans":5361,"Ġinverse":5362,"Ġparsing":5363,"appro":5364,"ffici":5365,"Ġfuture":5366,"Ġfactor":5367,"dbapi":5368,"barne":5369,"utt":5370,"solve":5371,"bÄ±rak":5372,"Ġcy":5373,"Ġchildren":5374,"Ġclone":5375,"bry":5376,"Ġflat":5377,"Ġcomparison":5378,"Ã§at":5379,"gÃ¶nder":5380,"Ä±ver":5381,"MO":5382,"ĠData":5383,"Ġ[])<":5384,"compress":5385,"unks":5386,"Ġappropriate":5387,"arest":5388,"dense":5389,"Ġadditional":5390,"Ġchat":5391,"alk":5392,"2021":5393,"distance":5394,"Ġ*<":5395,"komp":5396,"seconds":5397,"band":5398,"ĠTYPE":5399,"gez":5400,"concatenate":5401,"docs":5402,"arak":5403,"VERSION":5404,"yam":5405,"hab":5406,"Ġlu":5407,"Ġinf":5408,"strument":5409,"chine":5410,"seniz":5411,"emplate":5412,"Ġnested":5413,"fall":5414,"Ġtermin":5415,"Ġlater":5416,"extension":5417,"gress":5418,"objects":5419,"nÃ¦r":5420,"Ġnan":5421,"Ġfast":5422,"abilities":5423,"Ġwin":5424,"positional":5425,"ÅŁek":5426,"Ġfun":5427,"tgt":5428,"adap":5429,"malÄ±":5430,"project":5431,"ĠCom":5432,"sand":5433,"larÄ±nda":5434,"Ġhyper":5435,"Hel":5436,"Content":5437,"Ġbroadcast":5438,"exit":5439,")**":5440,"Ġanother":5441,">########################################################################":5442,"chunk":5443,"Method":5444,"argument":5445,"Info":5446,"gers":5447,"lerinde":5448,"normalize":5449,"splits":5450,"Get":5451,"giy":5452,"Ġconverted":5453,"actual":5454,"gÃ¼Ã§":5455,"ĠSecurity":5456,"dk":5457,"strategy":5458,"hane":5459,"Ġtakes":5460,"ian":5461,"miyor":5462,"Ġlicense":5463,"clar":5464,"ĠFROM":5465,"leÅŁtiril":5466,"meyecek":5467,"larsa":5468,"Ġoptim":5469,"wrapper":5470,"ĠJSON":5471,"delse":5472,"ĠFunction":5473,"spo":5474,"este":5475,"Col":5476,"buds":5477,"Ġlanguage":5478,"skon":5479,"timal":5480,"Ġfre":5481,"Ġtrees":5482,"vendor":5483,"reset":5484,"returning":5485,"bra":5486,"StartTag":5487,"alÄ±k":5488,"getir":5489,"luÄŁ":5490,"fag":5491,"phi":5492,"Ġassumptions":5493,"Ġexpressions":5494,"seri":5495,"Ġio":5496,"Ġimplemented":5497,"threads":5498,"gri":5499,"spil":5500,"indust":5501,"ware":5502,"Ġapplied":5503,"EXT":5504,"anÄ±z":5505,"...,":5506,"jar":5507,"Ġpackages":5508,"Ġonce":5509,"greater":5510,"Ä±mla":5511,"()]<":5512,"Ġcurrently":5513,"nde":5514,"daÅŁ":5515,"Requirement":5516,"Id":5517,"dra":5518,"mene":5519,"warning":5520,"My":5521,"TLS":5522,"lÃ¦r":5523,"Ġstrip":5524,"inci":5525,"endi":5526,"Comparator":5527,"ĠNumPy":5528,"á´":5529,"anlaÅŁ":5530,"verter":5531,"Ġ\"\"\")<":5532,"Ġ30":5533,"yiz":5534,"masÄ±":5535,"Ġconstructor":5536,"warns":5537,")],<":5538,"sir":5539,"CorpusReader":5540,"nx":5541,"urt":5542,"Ġreduce":5543,"pipe":5544,"Ġindent":5545,"example":5546,"1000":5547,"Ä±lmÄ±ÅŁ":5548,"negative":5549,"Ġconstraints":5550,"deprecated":5551,"ending":5552,"kad":5553,"solver":5554,"Ġrest":5555,"workers":5556,"Ġcounts":5557,":])<":5558,"FT":5559,"tÃ¼n":5560,"Ġnet":5561,"Read":5562,"ĠĠĠĠĠĠĠĠĠĠĠĠĠĠĠĠĠĠĠĠĠĠĠĠĠĠĠĠĠĠĠĠĠĠĠĠĠĠ":5563,"polate":5564,"Ġsix":5565,"ĠAuthor":5566,"wiki":5567,"font":5568,"Estimator":5569,"extras":5570,"RandomState":5571,"]],<":5572,"cked":5573,"nu":5574,"izm":5575,"ilik":5576,"pin":5577,"EY":5578,"aussian":5579,"gelse":5580,"mesini":5581,"Ġ\"-//":5582,"PAT":5583,"ances":5584,"Ã¶de":5585,"vok":5586,"kork":5587,"Ġpairs":5588,"Ġ\"{":5589,"oku":5590,"Ġtagged":5591,"Ġstored":5592,"Ġdescri":5593,"Operator":5594,"layed":5595,"rong":5596,"paramref":5597,"lb":5598,"history":5599,"98":5600,"FO":5601,"ĠAll":5602,"square":5603,">``":5604,"Ġdelete":5605,"slots":5606,"intercept":5607,"Ġalias":5608,"IL":5609,"Ġexplicitly":5610,"acle":5611,"cesses":5612,"ĠSSL":5613,"Ġgreater":5614,"Ġstdout":5615,"Ġrequests":5616,"Ġfails":5617,"ley":5618,"uniform":5619,"sÃ¼rÃ¼":5620,"learn":5621,"ĠFind":5622,"zone":5623,"Ã§arp":5624,"Ġproduct":5625,"RAY":5626,"fan":5627,"Ġleg":5628,"legacy":5629,"Ġlook":5630,"tokenQueue":5631,"ITE":5632,"uler":5633,"Or":5634,"deste":5635,"tivi":5636,"Ġdbapi":5637,"Ġmark":5638,"VAR":5639,"Formatting":5640,"Ġseen":5641,"resolve":5642,"ather":5643,"Ġcolor":5644,"frem":5645,"Ġvectors":5646,"Ġmanager":5647,"NN":5648,"ately":5649,"Ġseconds":5650,"yaÅŁa":5651,"issue":5652,"handling":5653,"yÄ±k":5654,"typing":5655,"ĠSpecifierSet":5656,"Ġfixed":5657,"fÄ±r":5658,"veg":5659,"()))<":5660,"maktadÄ±r":5661,"disc":5662,"conf":5663,"randn":5664,"45":5665,"atom":5666,"sus":5667,"convert":5668,"larÄ±yla":5669,"lug":5670,"ÅŁi":5671,"ĠLegacyVersion":5672,"primary":5673,">`":5674,"//\",<":5675,"METH":5676,"Man":5677,"diz":5678,"neighbors":5679,"Ġentries":5680,"('.":5681,"Ġfloating":5682,"osite":5683,"codes":5684,"]):<":5685,"super":5686,"kaldÄ±r":5687,"Ġminimum":5688,"tw":5689,"lerdi":5690,"METHOD":5691,"ĠAR":5692,"Ġstacklevel":5693,"Ġhypothe":5694,"Ġsignature":5695,"onent":5696,"lerdir":5697,"dÃ¶nÃ¼ÅŁ":5698,"strings":5699,"Ġrequested":5700,"uous":5701,"yans":5702,"Ġspe":5703,"ikk":5704,"username":5705,"76":5706,"BC":5707,"bla":5708,"parameter":5709,"Ġdb":5710,"Ã¸m":5711,"plus":5712,"Edge":5713,"Ġnor":5714,"velo":5715,"hu":5716,")?":5717,"Ġ[],":5718,"sanÄ±z":5719,"roy":5720,"una":5721,"ern":5722,"Ġchanged":5723,"uzak":5724,"Ġphi":5725,"fik":5726,"mesine":5727,"Ġcalling":5728,"itude":5729,"Chart":5730,"Ġspecifiers":5731,"kÄ±l":5732,"Ġlex":5733,"Ġtrailing":5734,"Ġdiagonal":5735,"vik":5736,"cv":5737,"chain":5738,"Ġ([":5739,"container":5740,"politi":5741,"////////////":5742,"remo":5743,"////////////////////////////":5744,"////////////////////////////<":5745,"Ġinit":5746,"gilen":5747,"relation":5748,"</":5749,"orter":5750,"Ä±f":5751,"utor":5752,"Ġnormalize":5753,"selection":5754,"ÅŁaÅŁ":5755,"dere":5756,"Ġserial":5757,"Ġconsist":5758,"SGI":5759,"([(":5760,"gift":5761,"Ġidentity":5762,"Result":5763,"`,<":5764,"Ġ\">":5765,"mysql":5766,"standard":5767,"uyu":5768,"Ã¸ve":5769,"queue":5770,"Ġdispatch":5771,"Ġsuffix":5772,"aren":5773,"ars":5774,"vd":5775,"dÃ¼zen":5776,"Ġjoblib":5777,"madÄ±":5778,"ĠLe":5779,"baz":5780,"reflection":5781,"ORS":5782,"Ġvariant":5783,"Ã§iz":5784,"rules":5785,"Ġpredi":5786,"Ġmarker":5787,"freq":5788,"Ġ\\\\":5789,"Ġtz":5790,"[-_\\.]":5791,"liedTagToken":5792,"[-_\\.]?":5793,"mk":5794,"Ġsources":5795,"Ġcriterion":5796,"idden":5797,"ĠWindows":5798,"indent":5799,"uffle":5800,"Ġdown":5801,"industri":5802,"gle":5803,"Ã¼st":5804,"small":5805,"unkt":5806,"256":5807,"Ġ``'":5808,"password":5809,"Dispatch":5810,"Ġremaining":5811,"aydÄ±n":5812,"teg":5813,"sul":5814,"manÄ±z":5815,"Ġlibraries":5816,"Oracle":5817,"otation":5818,"setdefault":5819,"App":5820,")/":5821,"fc":5822,"ĠIndex":5823,"Ġloop":5824,"Ġcover":5825,"Ġrunning":5826,"Ġterms":5827,"ivÃ¥":5828,"dighet":5829,"Ġmember":5830,"toarray":5831,"valuate":5832,"pid":5833,"bey":5834,"wd":5835,">\\":5836,"argv":5837,"Ġformats":5838,"Server":5839,"yla":5840,"aka":5841,"untimeError":5842,"settings":5843,"Head":5844,"sÄ±r":5845,"nas":5846,"yÃ¶n":5847,"nek":5848,"Ã§Ã¼":5849,"Ġmp":5850,"(\"\\":5851,"Ġtransaction":5852,"Ġtrust":5853,"gy":5854,"how":5855,"Ġsolve":5856,"Ġcv":5857,"Ġ24":5858,"ĠIterator":5859,"ĠTag":5860,"radient":5861,"deprecate":5862,"ges":5863,"got":5864,"senter":5865,"ĠDict":5866,"fte":5867,"Ġus":5868,"imation":5869,"Ġdefinition":5870,"'].":5871,"Ġdri":5872,"bb":5873,"iterable":5874,"problem":5875,"ird":5876,"gÃ¼ven":5877,"Ġimplements":5878,"Ġregister":5879,"Ġrequirements":5880,"Le":5881,"Ġ64":5882,"dependent":5883,"mÃ¥l":5884,"isinstance":5885,"Sing":5886,"fort":5887,"fname":5888,"Ġdownload":5889,"Ġexecute":5890,"Ġtit":5891,"oluÅŁ":5892,"Ġbot":5893,"'ve":5894,"gamma":5895,"Ġpolynomials":5896,"NUM":5897,"fortran":5898,"Ġ------<":5899,"indeki":5900,"Ġnative":5901,"Ġclosed":5902,"pkg":5903,"Ġgu":5904,"######<":5905,"(\".":5906,"week":5907,"Ġcanonical":5908,"Ġelf":5909,"leÅŁe":5910,"NS":5911,"SK":5912,"alay":5913,"salg":5914,"Ġdegree":5915,"65":5916,"Ġtypically":5917,"Ġspan":5918,"ragma":5919,"mÄ±yor":5920,"arÄ±":5921,"cker":5922,"executable":5923,"Ġnecessary":5924,"sopp":5925,"Ġworkers":5926,"yÃ¼ksel":5927,"peat":5928,"Ġglibc":5929,"sok":5930,"hook":5931,"interpreter":5932,"gÃ¶rÃ¼":5933,"kry":5934,"kort":5935,".\"":5936,"deÅŁ":5937,"openssl":5938,"ai":5939,"Ġsqltypes":5940,"Returns":5941,"hjem":5942,"Ġsymbol":5943,"ased":5944,"etk":5945,"refs":5946,"sjek":5947,"engel":5948,"flo":5949,"ortion":5950,"cik":5951,"arat":5952,"Ġproject":5953,"Ã¶ÄŁren":5954,"kla":5955,"unpack":5956,"Bo":5957,"Ġwrapper":5958,"bord":5959,"Ġoutstr":5960,"karÄ±ÅŁ":5961,"Ġinternal":5962,"Ġpadded":5963,"ependency":5964,"HER":5965,"memoized":5966,"gÃ¼r":5967,"hjel":5968,"PR":5969,"dÄ±m":5970,"ĠDeprecationWarning":5971,"*<":5972,"kayn":5973,"Ġgamma":5974,"hood":5975,"rected":5976,"TOCOL":5977,"unu":5978,"wri":5979,"ariable":5980,"ĠINSERT":5981,"kde":5982,"sah":5983,"kast":5984,"dependencies":5985,"ached":5986,"scripts":5987,"Ġbig":5988,"yayÄ±n":5989,"rng":5990,"estimators":5991,"tmpdir":5992,"Attribute":5993,"gmail":5994,"ero":5995,"partition":5996,"kiÅŁ":5997,"yarar":5998,"spmatrix":5999,"Ġknow":6000,"ĠCallable":6001,"gical":6002,"inizi":6003,"Ġuntil":6004,"Ġstatic":6005,"ategories":6006,"Ä±ndaki":6007,"ming":6008,"gnitude":6009,"Ġactually":6010,"etch":6011,"zeug":6012,"Tokenizer":6013,"major":6014,"Imp":6015,"conn":6016,"Ġxml":6017,"inks":6018,"alÄ±ÅŁ":6019,"Ä±nca":6020,"\"]})<":6021,"ileÅŁ":6022,"ÄŁÃ¼n":6023,"Ġgraph":6024,"Ġdefaultdict":6025,"operators":6026,"Ġcontained":6027,"Ġcop":6028,"Mar":6029,"gev":6030,"paylaÅŁ":6031,"center":6032,"CS":6033,"Ġ18":6034,"ressor":6035,"window":6036,"meleri":6037,"cade":6038,"success":6039,"postgresql":6040,"~~~~~~~~":6041,"mus":6042,"gjennom":6043,"sidu":6044,"ĠTime":6045,"kunst":6046,"deli":6047,"pel":6048,"ulate":6049,"staticmethod":6050,"inform":6051,"sprÃ¥":6052,"pdate":6053,"sÃ¼n":6054,"button":6055,"arbeider":6056,"xture":6057,"leÅŁtire":6058,"Ġexpect":6059,"lector":6060,"gele":6061,"tav":6062,"Ġmetric":6063,"Ne":6064,"Ġalignment":6065,"rhs":6066,"hisset":6067,"Ġusers":6068,"naz":6069,"ĠXXX":6070,"Ġbegin":6071,"registry":6072,"Ġinside":6073,"ĠAU":6074,"ĠMax":6075,"=['":6076,"Ġhook":6077,"Ġsignal":6078,"geÃ§ir":6079,"Ġcross":6080,"tell":6081,"getter":6082,"kommun":6083,"uation":6084,"sammen":6085,"two":6086,"Ġ2001":6087,"mayÄ±":6088,"UP":6089,"selv":6090,"usters":6091,"approx":6092,"spor":6093,"uyor":6094,"Transformer":6095,"leriyle":6096,"contiguous":6097,"alÄ±n":6098,"Ġnper":6099,"Ġ50":6100,"erial":6101,"Ġencoded":6102,"__()<":6103,"Ġdst":6104,"Argument":6105,"ĠSub":6106,"47":6107,"cut":6108,"kzeug":6109,"she":6110,"tez":6111,"Ġ13":6112,"buf":6113,"baÅŁla":6114,"elen":6115,"Ġ|<":6116,"Ġfrozenset":6117,"uke":6118,"impliedTagToken":6119,"oyna":6120,"quares":6121,"Ġcir":6122,"Ġhapp":6123,"polyval":6124,"Ġcategory":6125,"Ġidentifier":6126,"OM":6127,"nar":6128,"uc":6129,"ĠInteger":6130,"yÃ¶ne":6131,"alignment":6132,"Response":6133,"oracle":6134,"Ġmen":6135,"Ä±ysa":6136,"rer":6137,"Ġderi":6138,"same":6139,"Ġdev":6140,"poch":6141,"unknown":6142,"asible":6143,"Ġ////////////////////////////////////////////////////////////<":6144,"Ġincludes":6145,"Ġnumeric":6146,"567":6147,"loop":6148,"fl":6149,"ĠDistribution":6150,"nific":6151,"Ġextract":6152,"ĠBSD":6153,"nc":6154,"biliyor":6155,"depth":6156,"gren":6157,"izin":6158,"ĠLA":6159,"Ġclear":6160,"sentr":6161,"rust":6162,"Ġmade":6163,"Ġsomething":6164,"Ġcompile":6165,"Ġcanvas":6166,"yarg":6167,"ighted":6168,"implementation":6169,"Ġfailed":6170,"differ":6171,"verify":6172,"ĠNULL":6173,"matvec":6174,"Ä±mÄ±":6175,"hyper":6176,"sertionError":6177,"trf":6178,"Ġincluded":6179,"Th":6180,"Ġsend":6181,"Ġsubclasses":6182,"union":6183,"taÅŁÄ±":6184,"Ġreturning":6185,"Ġdensity":6186,"Ġconsidered":6187,"Ġ-*-":6188,"star":6189,"Ġhistogram":6190,"sli":6191,"hest":6192,"frac":6193,"ground":6194,"tagger":6195,"Ġoverwrite":6196,"DeprecationWarning":6197,"Container":6198,"diÄŁini":6199,"]+)":6200,"pg":6201,"Ġplatforms":6202,"Bin":6203,"Group":6204,"ĠReg":6205,"ERS":6206,">}<":6207,"fmt":6208,"mev":6209,"lerim":6210,"cÄ±lÄ±k":6211,"asc":6212,"Ġindividual":6213,"Ġrepresents":6214,"nested":6215,"deling":6216,"]``":6217,"ĠBe":6218,":`~.":6219,"vise":6220,"kem":6221,"essage":6222,"decor":6223,"ĠProject":6224,"Select":6225,"newaxis":6226,"HEAD":6227,"Ġ1000":6228,"Ġconven":6229,"fr":6230,"ended":6231,"Ġroutine":6232,"rank":6233,"Ġ...,":6234,"sÃ¼z":6235,"arbeids":6236,"lhs":6237,"NE":6238,"flush":6239,"Ġevaluate":6240,"bly":6241,"verdi":6242,"Ġdemo":6243,"Ġpartial":6244,"compiled":6245,"nificant":6246,"beÄŁ":6247,"\".<":6248,"boy":6249,"Ġnditer":6250,"]_":6251,"Ġelt":6252,"mbed":6253,"Registry":6254,"Ġ%<":6255,"pap":6256,"Ġaff":6257,"ider":6258,"mbols":6259,"HA":6260,"Scope":6261,"Ġ\"--":6262,"krig":6263,"requirement":6264,"Ġtak":6265,"ENT":6266,"}\"<":6267,"correct":6268,"helpers":6269,"texts":6270,")],":6271,"Ġbar":6272,"Ġprefer":6273,"oreignKey":6274,"adratic":6275,"asing":6276,"Ġcert":6277,"sociation":6278,"rus":6279,"bri":6280,"Ġloss":6281,"1111":6282,":],":6283,"asets":6284,"mitted":6285,"Ġge":6286,"Ġisn":6287,"Ġchanges":6288,"comb":6289,"RY":6290,"Ġpick":6291,"sta":6292,"Ġgrid":6293,"Ġdid":6294,"Ġcompiled":6295,"merke":6296,"yaklaÅŁ":6297,"Ġreleased":6298,"ĠTool":6299,"CHECKING":6300,"ÙĨ":6301,"lama":6302,"ineq":6303,"LIST":6304,"Ä±sÄ±":6305,"Ġmajor":6306,"Cache":6307,"Ġusu":6308,"Ġdepth":6309,"Ġfo":6310,"Ġ((\"":6311,"Ġrelation":6312,"PRE":6313,"Ġassign":6314,"keÅŁ":6315,"kov":6316,"lÃ¼m":6317,"Clo":6318,"IS":6319,"etle":6320,"ĠDefaults":6321,"Ġdue":6322,"abe":6323,"whitelist":6324,"plat":6325,"rede":6326,"clarative":6327,"gence":6328,"mesinin":6329,"td":6330,"cep":6331,"Ġfrequ":6332,"atis":6333,"glibc":6334,"Ġspa":6335,"tif":6336,"lookup":6337,"vecs":6338,"Ġ25":6339,"Ġgood":6340,"isual":6341,"covariance":6342,"Ġexclude":6343,"grees":6344,"month":6345,"bitr":6346,"iydi":6347,"Object":6348,"alog":6349,"elt":6350,"Ġannot":6351,"ĠYou":6352,"ĠState":6353,"hr":6354,"isnan":6355,"tok":6356,"pointer":6357,"extensions":6358,"Ġlem":6359,"Ġpassword":6360,"Ġrate":6361,"common":6362,"cen":6363,"Ġport":6364,"Unicode":6365,"NING":6366,"dayan":6367,"Ġlhs":6368,"CII":6369,"imension":6370,"azy":6371,"unun":6372,"Ġexpr":6373,"cura":6374,"integr":6375,"resh":6376,"exclude":6377,"83":6378,"3333":6379,"ami":6380,"pairs":6381,"}\\":6382,"ott":6383,"widget":6384,"csc":6385,"attrs":6386,"nns":6387,"const":6388,"Ä±ÄŁÄ±nÄ±z":6389,"help":6390,"Ġspecifying":6391,"acobian":6392,"hÄ±r":6393,"fle":6394,"dog":6395,"ĠRemove":6396,"kurt":6397,"Tuple":6398,"rt":6399,"slag":6400,"Ġtb":6401,"ĠNatural":6402,"days":6403,"duÄŁ":6404,"configure":6405,"CF":6406,"parer":6407,"readonly":6408,">:":6409,"nene":6410,"formats":6411,"Ġones":6412,"fficient":6413,"remain":6414,"Ġfs":6415,"sole":6416,"FC":6417,"lenme":6418,"maskin":6419,"stilling":6420,"compute":6421,"ĠNew":6422,"Ġseman":6423,"edit":6424,"blems":6425,"uting":6426,"Ġsep":6427,"Ġcha":6428,"60":6429,"Ġlogic":6430,"Ġgeneric":6431,"selskap":6432,"yakÄ±n":6433,"ede":6434,"ĠUnion":6435,"ĠPost":6436,"Ġbasic":6437,"eof":6438,"ĠLinear":6439,"Word":6440,"ressed":6441,"ayÄ±r":6442,"Ġliteral":6443,"bud":6444,")\")<":6445,"\"{":6446,"Ġvars":6447,"ĠMulti":6448,"LETE":6449,"Html":6450,"Ġcause":6451,"Mutable":6452,"ness":6453,"forsi":6454,"itemsize":6455,"')])<":6456,"canvas":6457,"Sub":6458,"fal":6459,"ĠĠĠĠĠĠĠĠĠĠĠĠĠĠĠĠĠĠĠĠĠĠĠĠĠĠĠĠĠĠĠĠĠĠĠĠĠĠĠĠĠ":6460,"iliÅŁ":6461,"kapa":6462,"ĠMySQL":6463,"Ġegg":6464,"ÅŁiÅŁ":6465,"MARKER":6466,"setitem":6467,"BlockVector":6468,"predi":6469,"karar":6470,"ĠGiven":6471,"osition":6472,"sur":6473,"atik":6474,"ĠConvert":6475,"ĠName":6476,"miÅŁtir":6477,"tale":6478,"Ġnperseg":6479,"ĠToolkit":6480,"gÄ±n":6481,"yÄ±l":6482,"malarÄ±":6483,"Hz":6484,"TXT":6485,"giri":6486,"prom":6487,"HT":6488,"iet":6489,"Ġsupplied":6490,"magnitude":6491,"hare":6492,"middel":6493,"inja":6494,"00000000":6495,"leaves":6496,"uss":6497,"ĠDis":6498,"ĠInter":6499,"999":6500,"anse":6501,"interp":6502,"makta":6503,"handel":6504,"Ä±ÅŁla":6505,"Ġabis":6506,"yoÄŁ":6507,"rad":6508,"Ġplot":6509,"Logger":6510,"Ġbackoff":6511,"randint":6512,"Ac":6513,"ÅŁah":6514,"Option":6515,"dÃ¶v":6516,"ĠUser":6517,"Ġspecifies":6518,"ws":6519,"Ġpragma":6520,"ick":6521,"Ġincre":6522,"menin":6523,"rowid":6524,"olar":6525,"ĠArg":6526,">\"":6527,"IVE":6528,"ĠMIT":6529,"Ġ201":6530,"elementIn":6531,"trees":6532,"Ġoverride":6533,"suÃ§":6534,"expand":6535,"baÅŁar":6536,"HERE":6537,"Ġdx":6538,"Ġsolver":6539,"sla":6540,"ulation":6541,"Ġrece":6542,"ĠRetry":6543,"validation":6544,"Ġ[['":6545,"quad":6546,"usjon":6547,"ĠThere":6548,"79":6549,"Ġatt":6550,"Ġindicates":6551,"licenses":6552,"46":6553,"Unknown":6554,"alid":6555,"serv":6556,"LegacyVersion":6557,"tribut":6558,"atte":6559,"manns":6560,"lÄ±ÄŁÄ±":6561,"utton":6562,"skog":6563,"ĠMA":6564,"manÄ±n":6565,"Ġround":6566,"outer":6567,"Ġsyntax":6568,"vn":6569,"ksom":6570,"Ġconnections":6571,"Spline":6572,"\"}":6573,"ĠNO":6574,"Ġmac":6575,"kontor":6576,"Ġsequences":6577,"Ġtokenizer":6578,"rowcount":6579,"BACK":6580,"dokun":6581,"gradi":6582,"lier":6583,"Ä±zlÄ±k":6584,"Ġgenerator":6585,"Ab":6586,"Ġendpoint":6587,"'``":6588,"plotlib":6589,"clone":6590,"ici":6591,"maÄŁ":6592,"stein":6593,"ecor":6594,"bine":6595,"sting":6596,"tility":6597,"miy":6598,"eral":6599,"posit":6600,"ĠMapp":6601,"Ġappend":6602,"ĠIterable":6603,"kil":6604,"enda":6605,"kjempe":6606,"Ġreading":6607,"isere":6608,"Ä±lÄ±r":6609,"Ġhandling":6610,"buff":6611,"Ġ-*-<":6612,"famili":6613,"tics":6614,"define":6615,"arkup":6616,"pir":6617,"ua":6618,"Ġintegration":6619,"klas":6620,"Ġcost":6621,"tÃ¼rk":6622,"Ġfilenames":6623,">\"\"\"":6624,"ĠQ":6625,"trib":6626,"heten":6627,"peri":6628,"sko":6629,"uygula":6630,"ĠRaises":6631,"lihood":6632,"hetene":6633,"comparator":6634,"radius":6635,"Form":6636,"Ġregistry":6637,"Ġincompatible":6638,"Ġscalars":6639,"moo":6640,"analy":6641,"Ġscores":6642,"cedence":6643,"biÃ§":6644,"Ä±tla":6645,"Ġdependency":6646,"Ġsuccess":6647,"ilerle":6648,"nda":6649,"angular":6650,"Ġ).":6651,"person":6652,"ileri":6653,"trust":6654,"Ġruntime":6655,"telse":6656,"anda":6657,"Ġpublic":6658,"Ġdense":6659,"modified":6660,"ĠBu":6661,"Ġinvoked":6662,"kÄ±n":6663,"fk":6664,"Ġ\"/":6665,"sph":6666,"Ġunits":6667,")\",<":6668,"ĠOSError":6669,"rp":6670,"erance":6671,"fiers":6672,"ĠRotation":6673,"Builder":6674,"$\",":6675,"Like":6676,"sid":6677,"builder":6678,"bitrary":6679,"ina":6680,"REATE":6681,"insertElement":6682,"By":6683,"Ġorth":6684,"Ġ60":6685,"ĠExt":6686,"Ġsetuptools":6687,"Ġauthors":6688,"dle":6689,"pk":6690,"libs":6691,"COM":6692,"optional":6693,"sqlite":6694,"god":6695,"logging":6696,"ied":6697,"native":6698,"pip":6699,"tained":6700,"Ġdriver":6701,">):<":6702,"ffset":6703,"dÃ¼zel":6704,"alÄ±m":6705,"Ġang":6706,"driver":6707,"ĠNe":6708,"tesIO":6709,"pick":6710,"tical":6711,"ctories":6712,"bilecek":6713,"requirements":6714,"Ġconsistent":6715,"ymiÅŁ":6716,"Ġconstru":6717,"Ġeffect":6718,"elementInScope":6719,">]<":6720,"Ä±yord":6721,"ifest":6722,"ont":6723,"home":6724,"foreign":6725,"Ġunderline":6726,"Ġcategories":6727,"Ġnull":6728,"^{":6729,"rint":6730,"vate":6731,"Ġmakes":6732,"NotFound":6733,">-":6734,"gruppe":6735,"PROTOCOL":6736,"/><":6737,"intp":6738,"ktor":6739,"ArgumentError":6740,"pository":6741,"tamam":6742,"Ġdocuments":6743,"holds":6744,"atla":6745,"ĠText":6746,"ORT":6747,"sented":6748,"aran":6749,"__,<":6750,"polynomial":6751,"kjÃ¸r":6752,"leÅŁme":6753,"Ġrather":6754,"icorn":6755,"Ä±yordu":6756,"eries":6757,"fftn":6758,"PT":6759,"Ġsubprocess":6760,"Ġmodules":6761,"Ġestimate":6762,"TimeoutError":6763,"nÄ±":6764,"Ġperi":6765,"iris":6766,"jule":6767,"vere":6768,"Ġcontribut":6769,"currentToken":6770,"ĠUnicode":6771,"fab":6772,"masked":6773,"nsure":6774,"Ġ2005":6775,"PATH":6776,"mini":6777,"piÅŁ":6778,"[::-":6779,"THORS":6780,"both":6781,"Ġà¦":6782,"greSQL":6783,"HO":6784,"Ġpol":6785,"vides":6786,"translate":6787,"terminal":6788,"davran":6789,"FILE":6790,"lur":6791,"nad":6792,"Ġchunks":6793,"Ġchecking":6794,"php":6795,"ĠAUTHORS":6796,"Ġrespect":6797,"Integer":6798,"Ġcached":6799,"lings":6800,"','":6801,"isolation":6802,"Ġalternative":6803,"Ġproblems":6804,"ĠExample":6805,"hÃ¸g":6806,"Ġlon":6807,"spÃ¸r":6808,"hybrid":6809,"region":6810,"tore":6811,"which":6812,"seler":6813,"Ġcenter":6814,"kaps":6815,"Ġnormalized":6816,"melidir":6817,"drag":6818,"Ġag":6819,"aceCharacters":6820,"theta":6821,"tgrep":6822,"Ġ()<":6823,"]])":6824,"Ġaround":6825,"Ġappe":6826,"kv":6827,"raps":6828,"Ġ(%":6829,"rowser":6830,"curacy":6831,"!<":6832,"cating":6833,"]]))<":6834,"hit":6835,"asso":6836,"strides":6837,"LOW":6838,"yel":6839,"Ġ''":6840,"madan":6841,"sane":6842,"^\\":6843,"itch":6844,"ica":6845,"Ġquote":6846,"Ġequ":6847,"tail":6848,"Ġwhite":6849,"madÄ±ÄŁÄ±":6850,"Ġworking":6851,"gressor":6852,"rum":6853,"Ġpredicate":6854,"49":6855,"kart":6856,"public":6857,"atol":6858,"Ġacross":6859,"Ä±mÄ±zÄ±":6860,"Ġstrides":6861,"Num":6862,"Ġproduction":6863,"Ġresol":6864,"transpose":6865,"dated":6866,"Ġproper":6867,"istan":6868,"ĠTLS":6869,"Ġcov":6870,"...<":6871,"Ġuniform":6872,"frameset":6873,"signal":6874,"kultur":6875,"HTTPError":6876,"('\\":6877,"ĠInitial":6878,"INFO":6879,"Ġaverage":6880,"([\"":6881,"kurtar":6882,"benze":6883,"lendiril":6884,"cay":6885,"custom":6886,"tin":6887,"agate":6888,"dl":6889,"kili":6890,"parla":6891,"kÄ±v":6892,"=<":6893,"ynam":6894,"maktan":6895,"lazy":6896,"(\">":6897,"RECT":6898,"Ġfur":6899,"ĠNOT":6900,"ROR":6901,"tara":6902,"decimal":6903,"Ġascii":6904,"URL":6905,"aut":6906,"expect":6907,"children":6908,"*.":6909,"ĠFile":6910,"kkel":6911,"retri":6912,"akk":6913,"ĠTemplate":6914,"ĠNa":6915,"definition":6916,"tting":6917,"ultroid":6918,"hur":6919,"Ġupon":6920,"vinne":6921,"yÃ¶net":6922,"beÄŁen":6923,"stid":6924,"Ġqui":6925,"tartÄ±ÅŁ":6926,"LP":6927,"Ġproperties":6928,"LOB":6929,"note":6930,"Ġcorrectly":6931,"dinle":6932,"lastrowid":6933,"Ġhistory":6934,"hoÅŁ":6935,"ARRAY":6936,"aret":6937,"kÃ¼Ã§":6938,"Ġhelper":6939,"karÅŁÄ±laÅŁ":6940,"gradient":6941,"varname":6942,"Dispatcher":6943,"tun":6944,"=[('":6945,"Ġmodify":6946,"(\"-":6947,"kontra":6948,"canonical":6949,"musi":6950,"reqs":6951,"yerleÅŁ":6952,"miÅŁti":6953,"Ġcoefficient":6954,"Ġadjust":6955,"chars":6956,"bÃ¶l":6957,"ume":6958,"ĠWHERE":6959,"sÄ±ÄŁ":6960,"Ġdelta":6961,"uer":6962,"Ã§oÄŁ":6963,"Ġxx":6964,"fval":6965,"hap":6966,"ets":6967,"resize":6968,"dile":6969,"ĠSO":6970,"Ġminor":6971,"itet":6972,"ĠUnits":6973,".]])<":6974,"Association":6975,"Ġcontributors":6976,"median":6977,"Ġpunct":6978,"dit":6979,"tap":6980,"refcount":6981,"Ġkeepdims":6982,"adapter":6983,"Ġdump":6984,"anÄ±m":6985,"disk":6986,"Ġdtypes":6987,"BI":6988,"cx":6989,"tb":6990,"zey":6991,"erictypes":6992,"CorpusView":6993,"Ġclean":6994,"Ġfoo":6995,"Ġvary":6996,"simil":6997,"ĠOption":6998,"grÃ¸":6999,"trykk":7000,"Ġarange":7001,"iye":7002,"koru":7003,"ĠFeature":7004,"MS":7005,"timedelta":7006,"TIME":7007,"Ġlegacy":7008,"ĠStatement":7009,"this":7010,"topp":7011,"ĠPath":7012,"ielded":7013,"brev":7014,"Ġencode":7015,"ĠĠĠĠĠĠĠĠĠĠĠĠĠĠĠĠĠĠĠĠĠĠĠĠĠĠĠĠĠĠĠĠĠĠĠĠĠĠĠĠĠĠĠ":7016,"Ġ*,":7017,"Ġcryptography":7018,"vei":7019,"ilir":7020,"Ġdisable":7021,"hjer":7022,"READ":7023,"vider":7024,"imz":7025,"ĠResponse":7026,"Ġ[\"--":7027,"ĠPer":7028,"dj":7029,"ril":7030,"bund":7031,"echo":7032,"PACK":7033,"Ġher":7034,"125":7035,"Ġpredict":7036,"VAL":7037,"alaÅŁ":7038,"Ġreset":7039,"imated":7040,"Ġenable":7041,"ĠNon":7042,"Ġcols":7043,"Ġpur":7044,"nes":7045,"hum":7046,"kker":7047,"unded":7048,"Ġ[{":7049,"Ġenabled":7050,"ĠWSGI":7051,"ĠGu":7052,"asÄ±n":7053,"Ġsi":7054,"aklan":7055,")\"<":7056,"ĠON":7057,"paz":7058,"ĠLog":7059,"snÃ¸":7060,"blÃ¥":7061,"kÃ¼r":7062,"computed":7063,"svd":7064,"70":7065,"cular":7066,"'},":7067,"ade":7068,"ants":7069,"functions":7070,"tekn":7071,"hort":7072,"cell":7073,"lys":7074,"Ġ22":7075,"Ġnose":7076,"Ġleading":7077,"ech":7078,"%(":7079,"FUN":7080,"Ġtrig":7081,"rast":7082,"CONT":7083,"tf":7084,"tg":7085,"aks":7086,"opensource":7087,"Ġattrs":7088,"Ġclassifier":7089,"dura":7090,"ĠSo":7091,"leder":7092,"ativ":7093,"ament":7094,"manylinux":7095,"GS":7096,"Ġdecode":7097,"Ġprev":7098,"savun":7099,"scriptor":7100,"pedia":7101,"Ġresulting":7102,"comment":7103,"LASS":7104,"broadcast":7105,"OpenSSL":7106,"kne":7107,"Ø´":7108,"ably":7109,"minor":7110,"Sequence":7111,"gh":7112,"atleast":7113,"Ġdiff":7114,"prime":7115,"gge":7116,"ĠTAG":7117,"mapped":7118,"yÃ¼kle":7119,"MAX":7120,"increment":7121,"own":7122,"zan":7123,"will":7124,"meme":7125,"ropy":7126,"Ġ'{":7127,"RequestError":7128,"Ġcycle":7129,"Reg":7130,"ĠHowever":7131,"FormattingElements":7132,"Ġloader":7133,"malÄ±dÄ±r":7134,"Ä±yorlar":7135,"savaÅŁ":7136,"versions":7137,"ĠPool":7138,"klo":7139,"aller":7140,"gur":7141,"Stack":7142,"sikker":7143,"53":7144,"Ġadapter":7145,"numerictypes":7146,"saÄŁla":7147,"Ġexactly":7148,"From":7149,"ilerin":7150,"Quantity":7151,"kavuÅŁ":7152,"aktar":7153,"Ġprogram":7154,"ngram":7155,"vstack":7156,"veri":7157,"ĠGaussian":7158,"shared":7159,"quent":7160,"Ref":7161,"sku":7162,"konkur":7163,"transaction":7164,"Ã§Ä±kar":7165,"folke":7166,"high":7167,"Ġresolve":7168,"categ":7169,"yarÄ±ÅŁ":7170,"Ġexecutable":7171,"medikler":7172,"Ġ[]":7173,"forward":7174,"Ġsec":7175,"Ġcharset":7176,"lank":7177,"Ä±sÄ±n":7178,"Ġdoctest":7179,"bren":7180,"')]<":7181,"ParseError":7182,"namespaces":7183,"year":7184,"vectors":7185,"ĠParse":7186,"tagged":7187,"Message":7188,"cd":7189,"dec":7190,"Ġconsider":7191,"Ġcertificate":7192,"Ġwrong":7193,"Widget":7194,"fiske":7195,"assive":7196,"93":7197,"Ġep":7198,"Ġinterpre":7199,"Ġflatten":7200,"nam":7201,"Ġxi":7202,"Ġfileid":7203,"ALL":7204,"Ġsqrt":7205,"unda":7206,"spill":7207,"Ġrs":7208,"tract":7209,"Ġ'\"":7210,"Ġ'--":7211,"Ġpointer":7212,"uyan":7213,"Map":7214,"ĠUT":7215,"lify":7216,"Ġeverything":7217,"lendire":7218,"ĠFrame":7219,"[::":7220,"interval":7221,"SELECT":7222,"spection":7223,"makefile":7224,"If":7225,"Ä±lar":7226,"cox":7227,"eki":7228,"Tagger":7229,"member":7230,"Ġsetattr":7231,"threshold":7232,"halv":7233,"cator":7234,"amin":7235,"suffix":7236,"betal":7237,"should":7238,"aa":7239,"ĠRes":7240,"cil":7241,"gv":7242,"jÃ¸l":7243,"pres":7244,"Ġtraceback":7245,"Ġvocabulary":7246,"rem":7247,"Ġcut":7248,"tiril":7249,"Ġregression":7250,"48":7251,"lerse":7252,"Ġchecks":7253,"inle":7254,"...)":7255,"budsjet":7256,"Ġ'[":7257,"nav":7258,"Ġim":7259,"001":7260,"ntÃ¼":7261,"Ġsignificant":7262,"using":7263,"ATION":7264,"endTag":7265,"Ġintegers":7266,"subprocess":7267,"members":7268,"Ġselected":7269,"nat":7270,"onay":7271,"fileid":7272,"Ġlazy":7273,"Ġdifference":7274,"Ġaccepts":7275,"Ġeffective":7276,"false":7277,"etadata":7278,"byteorder":7279,"kro":7280,"Ġfiltered":7281,"distributions":7282,"Ġlemma":7283,"dÃ¼n":7284,"seydi":7285,"Indi":7286,"tisk":7287,"kaybet":7288,"TYPES":7289,"ĠORM":7290,"BM":7291,"Ġstderr":7292,"Regressor":7293,"polyfit":7294,"Ä±lÄ±ÄŁÄ±n":7295,"uid":7296,"cour":7297,"ulli":7298,"Ã¶rgÃ¼":7299,"Ġindicating":7300,"ĠĠĠĠĠĠĠĠĠĠĠĠĠĠĠĠĠĠĠĠĠĠĠĠĠĠĠĠĠĠĠĠĠĠĠĠĠĠĠĠ":7301,"Ġbuf":7302,"ango":7303,"SpaceCharacters":7304,"MethodDispatcher":7305,"'\"":7306,"API":7307,"verden":7308,"karak":7309,"elem":7310,"Ġdirect":7311,"Ġyet":7312,"Ġvs":7313,"123":7314,"Ġusername":7315,"releases":7316,"omrÃ¥":7317,"trics":7318,"Ġrepresented":7319,"interface":7320,"Ġoccurs":7321,"erte":7322,"ĠHel":7323,"topla":7324,"diagonal":7325,"vazgeÃ§":7326,"ĠPostgreSQL":7327,"dok":7328,"Pron":7329,"Mapping":7330,"veral":7331,"``,<":7332,"idgets":7333,"sect":7334,"oring":7335,"Ġnu":7336,"uten":7337,"Ġbetter":7338,"uÄŁraÅŁ":7339,"ibr":7340,"hak":7341,"Ġatleast":7342,"[:]":7343,"Ġdependencies":7344,"sÃ¶z":7345,"ĠIS":7346,".::<":7347,"nb":7348,"syke":7349,"ĠstartTagHandler":7350,"ĠstartTagOther":7351,"PronType":7352,"kak":7353,"seline":7354,"pow":7355,"clean":7356,"Tra":7357,"Ġcell":7358,"Ġmaxiter":7359,"cycle":7360,"lemma":7361,"benim":7362,"hun":7363,"iske":7364,"Ġloaded":7365,"floating":7366,"arc":7367,"alcul":7368,"isme":7369,"Ġverify":7370,"Per":7371,"Sy":7372,"ĠConfig":7373,"ĠUnitsContainer":7374,"Ġperformed":7375,"Ġusually":7376,"dyr":7377,"atÃ¶r":7378,"ĠSince":7379,"soÄŁ":7380,"Ġpassing":7381,"Ġextrapolate":7382,"bÃ¼tÃ¼n":7383,"demokr":7384,"Ã¸l":7385,"Ã¶p":7386,"jef":7387,"ditions":7388,"Ġseed":7389,"Ġprior":7390,"Ġexit":7391,"Install":7392,"metaclass":7393,"^^^^^^^^":7394,":\",":7395,"micro":7396,"nun":7397,"Ġthree":7398,"Wrapper":7399,"spline":7400,"ann":7401,"prerelease":7402,"IX":7403,"ohn":7404,"nev":7405,"named":7406,"existing":7407,"ĠUsed":7408,"Cre":7409,"eig":7410,"Ġenc":7411,"Ġshapes":7412,"abiliyor":7413,"disable":7414,"Ġinterpolation":7415,"IE":7416,"Ġcx":7417,"Ġinv":7418,"ceks":7419,"ĠSte":7420,"Ġnever":7421,"frames":7422,"mitive":7423,"hazÄ±r":7424,"kirke":7425,"yansÄ±":7426,"Ùħ":7427,"eren":7428,"tikk":7429,"chan":7430,"oÄŁlu":7431,"EOF":7432,"orage":7433,"Ġfname":7434,"comparison":7435,"gerek":7436,"ighest":7437,"stoff":7438,"sme":7439,"Ġ=>":7440,"mutable":7441,"versal":7442,"fikk":7443,"Ġguess":7444,"ĠMicrosoft":7445,"uro":7446,"ceva":7447,"Ġconstants":7448,"omite":7449,"78":7450,"kant":7451,"marked":7452,"mesinden":7453,"selectable":7454,"tÄ±m":7455,"tice":7456,"riz":7457,"imizin":7458,"Ġtagger":7459,"vind":7460,"inne":7461,"acka":7462,"araÅŁ":7463,"Ġglob":7464,"Ġthreading":7465,"On":7466,"Ġfetch":7467,"Ġdele":7468,"Ġarchive":7469,"criterion":7470,"shift":7471,"meden":7472,"adding":7473,"separ":7474,"Ġ-<":7475,"basic":7476,"langu":7477,"Ġprerelease":7478,"language":7479,"Syn":7480,"zam":7481,"stmt":7482,"ORD":7483,"sequences":7484,"]['":7485,"Ġiniti":7486,"Ġstatistic":7487,"Ġcomment":7488,"pmf":7489,"conv":7490,"undan":7491,"Ġexpand":7492,"])))<":7493,"dete":7494,"Ġminimiz":7495,"ĠCF":7496,"hil":7497,"scal":7498,"virksom":7499,"Ġterm":7500,"sleep":7501,".')<":7502,"KEY":7503,"iÄŁ":7504,"digest":7505,"recarray":7506,"kaÃ§Ä±r":7507,"kaÅŁ":7508,"Ġlookup":7509,"ĠSequence":7510,"lectron":7511,"ansi":7512,"arger":7513,"Ġbox":7514,"Ġintegral":7515,"Ġdetermined":7516,"redu":7517,"ename":7518,"olje":7519,"Ä±ÅŁÄ±k":7520,"yatÄ±r":7521,"Ġtaken":7522,"BLE":7523,"Ġdirection":7524,"uplicate":7525,"imensionality":7526,"ĠSome":7527,"berg":7528,"adrature":7529,"ĠGuide":7530,"68":7531,"aw":7532,"Ġelem":7533,"hast":7534,"Ġlearning":7535,"gÃ¶rÃ¼n":7536,"Ġfolder":7537,"Interpol":7538,"Ġshared":7539,"vand":7540,"unter":7541,"kelse":7542,"sprÃ¥k":7543,".\\":7544,"Ġ)?<":7545,"DIRECT":7546,".%":7547,"pak":7548,"identifier":7549,"mom":7550,"skrift":7551,"Ġforward":7552,"ddl":7553,"Ġrelated":7554,"Ġinherit":7555,"unked":7556,"layabil":7557,"UNK":7558,"Ġattempt":7559,"rÃ¸y":7560,"Ġtextwrap":7561,"Ġchecked":7562,"mamasÄ±":7563,"gay":7564,"mili":7565,"eriÅŁ":7566,"anlegg":7567,"Ġpie":7568,"capi":7569,"sigma":7570,"Search":7571,"Ġdirectories":7572,"anlÄ±k":7573,"RED":7574,"gaussian":7575,"Ã§er":7576,"Ã¶zel":7577,"Ġhypothesis":7578,"hor":7579,"hyp":7580,"arÄ±n":7581,"skjÃ¸":7582,"sd":7583,"ptÄ±r":7584,"ologi":7585,"tp":7586,"ĠCS":7587,"buluÅŁ":7588,"polyint":7589,"display":7590,"Ġdetect":7591,"issues":7592,"indir":7593,"Ġexce":7594,"Ġprogress":7595,"categories":7596,"milli":7597,"literals":7598,"arti":7599,"faces":7600,"FFFF":7601,"feasible":7602,"ceÄŁi":7603,"Ġsingular":7604,"ras":7605,"more":7606,"Ġnothing":7607,"gjÃ¸":7608,"Ã¶v":7609,"rase":7610,"rahat":7611,"Ġreport":7612,"ĠSupp":7613,"Ġconf":7614,"Ġaccord":7615,"cached":7616,"skje":7617,"rollback":7618,"CV":7619,"bab":7620,"iser":7621,"Ġpe":7622,"diren":7623,"ĠIP":7624,"memiz":7625,"caped":7626,"ĠClass":7627,"liÄŁin":7628,"BLA":7629,"instrument":7630,"Ġcomputation":7631,"lede":7632,"Ġrev":7633,"product":7634,"inclu":7635,"cisions":7636,"Instance":7637,"Ġtagset":7638,"Control":7639,"Ġhighest":7640,"('/":7641,"getLogger":7642,"Ġ21":7643,"Ġleaves":7644,"lash":7645,"Ġassumed":7646,"ĠOrderedSet":7647,"Ġiris":7648,"diye":7649,"ÅŁa":7650,"Ġexecuted":7651,"Ä±lacak":7652,"Ġbindings":7653,"(('":7654,"mÃ¼r":7655,"unch":7656,"algorithm":7657,"intent":7658,"synset":7659,"./":7660,"neut":7661,"saÃ§":7662,"findall":7663,"gro":7664,"Ġsatis":7665,"Ã¥p":7666,"bilecekler":7667,"car":7668,"fyl":7669,"Ġaccording":7670,"ait":7671,"rende":7672,"CG":7673,"meÅŁ":7674,"acc":7675,"Ġdelayed":7676,"trip":7677,"Ġoutside":7678,"ĠToken":7679,"nds":7680,"ĠAttributes":7681,"free":7682,"rd":7683,"sine":7684,"ĠConstruct":7685,"macros":7686,"fen":7687,"hazÄ±rla":7688,"similarity":7689,"Ġyi":7690,"ĠModel":7691,"mur":7692,"sper":7693,"TUR":7694,"andas":7695,"training":7696,"seek":7697,"onential":7698,"Ġfalse":7699,"Ġprocessing":7700,"positions":7701,"drinks":7702,"Int":7703,"sbe":7704,"Ġoptimal":7705,"Iterable":7706,"Mis":7707,"barn":7708,"ride":7709,"ategor":7710,"Ġexamples":7711,"malÄ±y":7712,"short":7713,"bÃ¦r":7714,"crete":7715,"Ġcontainer":7716,"Ġboundary":7717,"dre":7718,"anÄ±n":7719,"Ġsteps":7720,"1234567":7721,"SKIP":7722,"rat":7723,"targets":7724,"baÄŁla":7725,"amaz":7726,"ĠEnsure":7727,"hoc":7728,"Ġaccount":7729,"inct":7730,"ĠCont":7731,"Comment":7732,"(\"_":7733,"Ġ/=":7734,"Ġsigma":7735,"Manager":7736,"rg":7737,"ĠNormal":7738,"CKS":7739,"links":7740,"ĠContext":7741,"control":7742,"ational":7743,"Ġndim":7744,"Ġtimezone":7745,"ackaging":7746,"orth":7747,"Ġmer":7748,"Attr":7749,"Ġ$":7750,"rah":7751,"nex":7752,"uyar":7753,"leton":7754,"cg":7755,"yakala":7756,"hatÄ±rla":7757,"_,<":7758,"Ġestimators":7759,"337":7760,"Ġwhole":7761,"Ġtitle":7762,"mik":7763,"Ġasarray":7764,"Ġdig":7765,"ERROR":7766,"Ġremote":7767,"skudd":7768,"allo":7769,"chi":7770,"basename":7771,"fully":7772,"cascade":7773,"Decor":7774,"Ġ(_":7775,"uza":7776,"way":7777,"sequent":7778,"velop":7779,">*":7780,"imal":7781,"syl":7782,"symmetric":7783,"evlen":7784,"doy":7785,"Ä±ÄŁa":7786,"Ġremainder":7787,"hÄ±z":7788,"sez":7789,"ppa":7790,"jection":7791,"forcelist":7792,"Ġthreshold":7793,"gaz":7794,"imag":7795,"ndan":7796,"trs":7797,"Ġdim":7798,"yÃ¶nel":7799,"DF":7800,"YM":7801,"lands":7802,"Ġdepends":7803,"Ġdivision":7804,"polyder":7805,"demir":7806,"KEN":7807,"ratio":7808,"quat":7809,"Ġstat":7810,"duk":7811,"Ġadding":7812,"Ġgives":7813,"Gloss":7814,"tam":7815,"lett":7816,"ruk":7817,"charset":7818,"uzaklaÅŁ":7819,"rÄ±":7820,"0627":7821,"sti":7822,"iving":7823,".',<":7824,"ÅŁir":7825,"Ġlisten":7826,"Mat":7827,"makla":7828,"sqltypes":7829,"electron":7830,"tqdm":7831,"ĠDetermine":7832,"sjÃ¸l":7833,".],":7834,"Ġbutton":7835,"database":7836,"Ġgc":7837,"Ġmultip":7838,"itets":7839,"********":7840,"PAR":7841,"into":7842,"tile":7843,"dic":7844,"globals":7845,"Ġdry":7846,"shapes":7847,"connections":7848,"kjen":7849,"Ġcond":7850,"Ġprocesses":7851,"nite":7852,"dÃ¼z":7853,"dx":7854,"kus":7855,"vander":7856,"dolaÅŁ":7857,"ĠWh":7858,"ktÃ¶r":7859,"Ã¥rs":7860,"62":7861,"Ġtqdm":7862,"Ġplug":7863,"ÅŁen":7864,"Var":7865,"_)":7866,"reply":7867,"=\":":7868,"halle":7869,"Ġmatplotlib":7870,"suppress":7871,"ilgilen":7872,"Ġ23":7873,"Ġvarious":7874,"UE":7875,"Ġ~":7876,"itÃ©":7877,"outputs":7878,"rÃ¥d":7879,"_=":7880,"Ġqueue":7881,"Ġ\":":7882,"lars":7883,"difference":7884,"(\",":7885,"seyret":7886,"studi":7887,"haber":7888,"Ġdigits":7889,"After":7890,"mix":7891,"Ġbits":7892,"__:<":7893,"ubb":7894,"Ġseparate":7895,"Ġreader":7896,"ĠAssertionError":7897,"Ġcodes":7898,"tual":7899,"Ġcomple":7900,"Ġlonger":7901,"yut":7902,"ĠDB":7903,"share":7904,"ia":7905,"ĠCorpus":7906,"ĠRuntimeError":7907,"Cannot":7908,"sse":7909,"proto":7910,"xs":7911,"Ã§ev":7912,"Ä±labil":7913,"kraft":7914,"vern":7915,"Ġenough":7916,"quee":7917,"asure":7918,"Ġresp":7919,"serted":7920,"pose":7921,"Ġentire":7922,"Ġinitialize":7923,"Ġwhitespace":7924,"directed":7925,"tering":7926,"('_":7927,"ĠendTagHandler":7928,"ĠendTagOther":7929,"punct":7930,"Ġ(...)":7931,"deniz":7932,"58":7933,"bere":7934,"splan":7935,"argspec":7936,"layacak":7937,"kron":7938,"algÄ±la":7939,")}":7940,"52":7941,"equ":7942,"geom":7943,"forret":7944,"vÃ¦r":7945,"reise":7946,"marke":7947,"gÃ¶rev":7948,"Ġformatting":7949,"Ä±ntÄ±":7950,"Ġxp":7951,"records":7952,"Ä±lma":7953,"Ġfval":7954,"strÃ¸":7955,"general":7956,"Ã¶ÄŁret":7957,"uluk":7958,"kapital":7959,"faz":7960,"owner":7961,"grad":7962,"Ġcorresponds":7963,"kinter":7964,"luft":7965,"startTag":7966,"ChartParser":7967,"Ġpretty":7968,"Ġhowever":7969,"baÅŁvur":7970,"aÃ§Ä±kla":7971,"inese":7972,"brÃ¸":7973,"commands":7974,"specifier":7975,"evaluate":7976,"nden":7977,"\"\",":7978,"])]<":7979,"multiply":7980,"Ġfig":7981,"Ġcompress":7982,"HAS":7983,"insensitive":7984,"menne":7985,"Ġmodels":7986,"worker":7987,"serg":7988,"kopar":7989,"Ġvariance":7990,"erkzeug":7991,"licy":7992,"Ġemitted":7993,"AA":7994,"ola":7995,"aydÄ±":7996,"Ġaligned":7997,"sized":7998,"Ġabstract":7999,"Ġ}":8000,"skan":8001,"sizes":8002,"pÄ±r":8003,"ÙĦ":8004,"Ġcat":8005,"noulli":8006,"Ġvc":8007,"Ġdatsp":8008,"SVC":8009,"bruks":8010,"Ġrecom":8011,"balance":8012,"Fin":8013,"IST":8014,"nit":8015,"kÃ¼l":8016,"NU":8017,"yord":8018,"usr":8019,"fry":8020,"lge":8021,"yordu":8022,"ums":8023,"ĠDEFAULT":8024,"semb":8025,"ented":8026,"hem":8027,"Ġissubclass":8028,"Ġ``[":8029,"ĠJacobian":8030,"Ġperiod":8031,"leriniz":8032,"Ġidentifi":8033,"produksjon":8034,"askedArray":8035,"RS":8036,"dp":8037,"marg":8038,"Ã¶ner":8039,"ffe":8040,"teÅŁ":8041,"Ġpersist":8042,"histogram":8043,"initialize":8044,"sidual":8045,"prÃ¸ve":8046,"storage":8047,"fla":8048,"ĠCall":8049,"Ġfaster":8050,"Ġpreserve":8051,"operate":8052,"lc":8053,"natur":8054,"Rel":8055,"ĠSelect":8056,"Ġagain":8057,"Ġta":8058,"Ġsin":8059,"Ã¶lÃ§":8060,"classify":8061,"Binary":8062,"sures":8063,"Na":8064,"book":8065,"Ġpred":8066,"Bit":8067,"inomial":8068,"mains":8069,"Ã¶nem":8070,"inputs":8071,"silon":8072,"Ġrecords":8073,"_):<":8074,"inBody":8075,"statistic":8076,"Ġselection":8077,"properties":8078,"TV":8079,"uan":8080,"Ġnone":8081,"Ġput":8082,"weets":8083,"smÃ¥l":8084,"#_":8085,"TER":8086,"dry":8087,"mesinde":8088,"isdir":8089,"Ġwritten":8090,"vene":8091,"Ġ'',":8092,"mjÃ¸l":8093,"tekr":8094,"Ġaddition":8095,"Ġcandidates":8096,"yk":8097,"means":8098,"ĠblockVector":8099,"levant":8100,"Ã§u":8101,"ube":8102,"92":8103,"hull":8104,"masÄ±na":8105,"dÄ±ra":8106,"ĠSp":8107,"reading":8108,"ĠUnit":8109,"Ġregexp":8110,"bis":8111,"ference":8112,"Operators":8113,"Ġdiscrete":8114,"etkile":8115,"WN":8116,"aligned":8117,"Ġstem":8118,"Ġextras":8119,"------------":8120,"ĠLocal":8121,"borÃ§":8122,"à§į":8123,"assumptions":8124,"ĠAD":8125,")\",":8126,"unsafe":8127,"idretts":8128,"parsedVersion":8129,"jeneste":8130,"Ġreferences":8131,"Ġgoal":8132,"Sec":8133,"dtr":8134,"Ġouter":8135,"ĠCREATE":8136,"engin":8137,"Ġreplaced":8138,"traceback":8139,"city":8140,"Ġloading":8141,"Ġprobabilities":8142,"oloji":8143,"Ä±nÄ±zÄ±":8144,"meyecekler":8145,"Point":8146,"routine":8147,"Ġchain":8148,"wsgi":8149,"beled":8150,"SNI":8151,"lineno":8152,"kilo":8153,"film":8154,"================================":8155,"BUG":8156,"We":8157,"Represent":8158,"ĠBY":8159,"web":8160,"SSLContext":8161,"Ġhigher":8162,"sonuÃ§":8163,"spesial":8164,"xies":8165,"constant":8166,"ĠBack":8167,"ĠVER":8168,"gÃ¶tÃ¼r":8169,"mede":8170,"mpt":8171,"okies":8172,"masÄ±nÄ±":8173,"cektir":8174,"WH":8175,"arlÄ±k":8176,"Ġaux":8177,"Ġwild":8178,"plain":8179,"sommer":8180,"Ġ``_":8181,"])),<":8182,"nskap":8183,"tzinfo":8184,"yanÄ±l":8185,"Using":8186,"traction":8187,"herm":8188,"Ġretval":8189,"Ġmuch":8190,"_%":8191,"bilen":8192,"ength":8193,"Ġbra":8194,"ÅŁÃ¼":8195,"Ġfunctionality":8196,"karÅŁÄ±la":8197,"OFF":8198,"Ġra":8199,"ced":8200,"contig":8201,"Ġmonth":8202,"izes":8203,"iyi":8204,"TEXT":8205,"telefon":8206,"Adapter":8207,"average":8208,"ÅŁer":8209,"Ġlistener":8210,"remote":8211,"Over":8212,"oms":8213,"document":8214,"Ġcopied":8215,"decorator":8216,"Drop":8217,"kÃ¶r":8218,"ony":8219,"Extension":8220,"blad":8221,"Ġcsr":8222,"Ġscaling":8223,"Ġdiv":8224,"artÄ±r":8225,"zay":8226,"constructor":8227,"ĠCore":8228,"Ġanaly":8229,"ĠUN":8230,"maktay":8231,"ĠCommand":8232,"All":8233,"Ġfk":8234,"Linear":8235,"fed":8236,"meyi":8237,"Ġestab":8238,"requests":8239,"kabul":8240,"Ġclassification":8241,"43":8242,"sided":8243,"Ġear":8244,"ĠĠĠĠĠĠĠĠĠĠĠĠĠĠĠĠĠĠĠĠĠĠĠĠĠĠĠĠĠĠĠĠĠĠĠĠĠĠĠĠĠĠ":8245,"InvalidRequestError":8246,"promote":8247,"Ġisolation":8248,"Ġspline":8249,"Ġanything":8250,"Ġlarger":8251,"ics":8252,"Child":8253,"binds":8254,"sÄ±nÄ±r":8255,"Ġbran":8256,"')),<":8257,"signature":8258,"Fe":8259,"gins":8260,"Ġdocstring":8261,"Ġconst":8262,"Ġinterest":8263,"Ġrecent":8264,"osed":8265,"Ġfreq":8266,"Ġints":8267,"ĠIO":8268,"vice":8269,"Ġarbitrary":8270,"contents":8271,"kvinne":8272,"trunc":8273,"contexts":8274,"Ġneighbors":8275,"Encoder":8276,"MetaData":8277,"xp":8278,"Ġparti":8279,"ĠChart":8280,"Ġfmt":8281,"araÅŁtÄ±r":8282,"fart":8283,"rm":8284,"peated":8285,"character":8286,"daydÄ±":8287,"operands":8288,"mesidir":8289,"annotation":8290,"Es":8291,"Ã§Ä±lÄ±k":8292,"tanÄ±ÅŁ":8293,">##":8294,"Ġseveral":8295,"aga":8296,"ultinomial":8297,"Ġyear":8298,"ocket":8299,"miz":8300,"sto":8301,"Ġbc":8302,"oton":8303,"edin":8304,"Ġhard":8305,"ltroid":8306,"tutuk":8307,"Ġdisabled":8308,"daÄŁÄ±t":8309,"DT":8310,"repeat":8311,"Ä±yoruz":8312,"retries":8313,"tren":8314,"Ġbasis":8315,")-":8316,"Ġip":8317,"lom":8318,"utdown":8319,"patla":8320,"narko":8321,"Ġ\"(":8322,"Ġintern":8323,"fug":8324,"lder":8325,"tities":8326,"ulu":8327,"igram":8328,"liÄŁini":8329,"Ġidna":8330,"versed":8331,"Ġgradient":8332,"birleÅŁ":8333,"hint":8334,"sevi":8335,"omin":8336,"FFile":8337,"yoÄŁun":8338,"Ġmid":8339,"installed":8340,"Ġrespon":8341,"Ġam":8342,"isin":8343,"=\"#":8344,"ELFFile":8345,"ELFFileHeader":8346,"Func":8347,"pÃ¼":8348,"ÅŁak":8349,"hiz":8350,"laus":8351,"velse":8352,"lanmÄ±ÅŁ":8353,"Ġ40":8354,"Ġbackground":8355,"predictions":8356,"Ġfew":8357,"dip":8358,"unicorn":8359,"clusters":8360,"trafikk":8361,";\\":8362,"heng":8363,"gecik":8364,"utan":8365,"Ġmmap":8366,"SHA":8367,"uzlaÅŁ":8368,"grÃ¥":8369,"Ġperformance":8370,"Ġ))<":8371,"Ġ``__":8372,"51":8373,"Person":8374,"kb":8375,"yaml":8376,"giriÅŁ":8377,"cers":8378,"lon":8379,"Ġ\"\".":8380,"INTER":8381,"SIZE":8382,"ForeignKey":8383,"Ã§evir":8384,"Ġngrams":8385,"Ġfurther":8386,"heim":8387,"Ġsem":8388,"Øª":8389,"ancÄ±":8390,"tegr":8391,"converter":8392,"ilet":8393,"lokal":8394,"ceÄŁini":8395,"Ġincomplete":8396,"neÅŁ":8397,"regression":8398,"madÄ±ÄŁÄ±nÄ±":8399,"eve":8400,"vinter":8401,"Ġaddress":8402,"kring":8403,"fut":8404,"aÄŁÄ±r":8405,"liÄŁe":8406,"Ġsettings":8407,"Ġderived":8408,"erik":8409,"stÃ¥":8410,"Ġreduction":8411,"Ġeq":8412,"Ġinplace":8413,"iliÄŁ":8414,"Ġquo":8415,"Ġtempfile":8416,"Ġtrunc":8417,"Ġdecision":8418,"ĠInstall":8419,"Ġfragment":8420,"Ġtrigger":8421,"gÄ±":8422,"dede":8423,"Stream":8424,"Ġ[-_\\.]":8425,"Ġ[-_\\.]?<":8426,"=|":8427,"PER":8428,"bbox":8429,"Ġcla":8430,"Ġ42":8431,"Ġconfigured":8432,"styre":8433,"countered":8434,"HEADERS":8435,"Call":8436,"meniz":8437,"]',":8438,"break":8439,"cke":8440,"diler":8441,"isfile":8442,"Ã¶rt":8443,"ometric":8444,"ĠParser":8445,")``.<":8446,"Ã§Ä±l":8447,"REDIRECT":8448,"Ġoverrides":8449,"alet":8450,"Ġsil":8451,"ared":8452,")'":8453,"Ġtp":8454,"masÄ±n":8455,"sakla":8456,"digits":8457,"pora":8458,"musikk":8459,"Iden":8460,"Ä±Ã§":8461,"ophase":8462,"sapla":8463,"kurum":8464,"Ġpot":8465,"ceed":8466,"ĠAND":8467,",))":8468,"Ġtok":8469,"amas":8470,"SU":8471,"ĠNP":8472,"ĠStr":8473,"ĠCON":8474,"skra":8475,"danÄ±ÅŁ":8476,"teria":8477,"tÃ¸r":8478,"ĠConnection":8479,"mited":8480,"Ġframes":8481,"âĢ¢":8482,"twophase":8483,"skif":8484,"extract":8485,"Ġsymmetric":8486,"Ä±mÄ±za":8487,">######################################################################<":8488,"destekle":8489,"course":8490,"jons":8491,"models":8492,"mesiyle":8493,"Ġprepare":8494,"ogonal":8495,"mv":8496,"kete":8497,"DLE":8498,"cover":8499,"arguments":8500,"zik":8501,"tian":8502,"tikler":8503,"ĠĠĠĠĠĠĠĠĠĠĠĠĠĠĠĠĠĠĠĠĠĠĠĠĠĠĠĠĠĠĠĠĠĠĠĠĠĠĠĠĠĠĠĠĠ":8504,"Ġselectable":8505,"histor":8506,".\",":8507,"Module":8508,"ĠCP":8509,"lapsed":8510,"Ġspaces":8511,"vial":8512,"Ġunknown":8513,"plane":8514,"quadratic":8515,"Ä±ymÄ±ÅŁ":8516,"diril":8517,"Ġ\"`":8518,"atype":8519,"Ġ(``":8520,"Ã¼rÃ¼l":8521,"adan":8522,"squares":8523,"Ġcoverage":8524,"Ġgen":8525,"ĠHand":8526,"vx":8527,"Ġefficient":8528,"Ġvn":8529,"[:]<":8530,"herme":8531,"untimeWarning":8532,"Nor":8533,"gÃ¥":8534,"Ġ\"{}":8535,"Ġcompil":8536,"Ġmeaning":8537,"kval":8538,"diÅŁ":8539,"Masc":8540,"itter":8541,"uyum":8542,"done":8543,"kele":8544,"ĠTI":8545,"ĠVerb":8546,"Ã¼mle":8547,"ion":8548,"Ġcore":8549,"lists":8550,"Ġparenthe":8551,"variateSpline":8552,"bli":8553,"essel":8554,"Ġlinprog":8555,"ietf":8556,"enable":8557,"hemati":8558,"Ġ``.":8559,"()]":8560,"Encoding":8561,"ĠNaN":8562,"helse":8563,"irno":8564,"sprogram":8565,"rar":8566,"ĠĠĠĠĠĠĠĠĠĠĠĠĠĠĠĠĠĠĠĠĠĠĠĠĠĠĠĠĠĠĠĠĠĠĠĠĠĠĠĠĠĠĠĠĠĠ":8567,"Ġcoordin":8568,"ĠOp":8569,"afe":8570,"Ġide":8571,"Ġentities":8572,"weet":8573,"Ġtimestamp":8574,"samfun":8575,"kÃ¶tÃ¼":8576,"swap":8577,"pot":8578,"dikt":8579,"saf":8580,"ĠDELETE":8581,"Ġfrequency":8582,"sibly":8583,"Ã§aÄŁÄ±r":8584,"fro":8585,"NOUN":8586,"Out":8587,"Ð¾":8588,"mess":8589,"ects":8590,"bounded":8591,"implicit":8592,"tempdir":8593,"him":8594,"dtuple":8595,"eks":8596,"urrent":8597,"Predict":8598,"fron":8599,"predicate":8600,"stems":8601,"Ġcare":8602,"Ġdbc":8603,"Ä±lÄ±":8604,"ĠUpdate":8605,"CTION":8606,"sjef":8607,"prepared":8608,"pretty":8609,"Ä±mÄ±zÄ±n":8610,"cremental":8611,"Ġrestri":8612,"ciph":8613,"Ġprecedence":8614,"ĠUsing":8615,"199":8616,"=\",":8617,"Non":8618,"tall":8619,"Ġabi":8620,"Ġencountered":8621,"Ġswap":8622,">[":8623,"constants":8624,"mayacaÄŁÄ±":8625,"Ġday":8626,"Ġbackward":8627,"Decorator":8628,"skom":8629,"bitir":8630,"72":8631,"Bi":8632,"mle":8633,"zar":8634,"typ":8635,"Ġstyle":8636,"Expected":8637,"progress":8638,"CD":8639,"Up":8640,"inted":8641,"cin":8642,"nlp":8643,"tier":8644,"resol":8645,"kontroll":8646,"ÛĮ":8647,"sahip":8648,"rette":8649,"Ġmultiprocessing":8650,"wikipedia":8651,"fem":8652,"gave":8653,"kurs":8654,"Ġdirs":8655,"pted":8656,"Ġslow":8657,"while":8658,"Transaction":8659,"Ġmoment":8660,"ĠMatrix":8661,"candidates":8662,"]:":8663,"jel":8664,"Ġtur":8665,"minimum":8666,"Plur":8667,"oi":8668,"Ġsl":8669,"cost":8670,"ĠPY":8671,"wb":8672,"ĠMay":8673,"Ġident":8674,"blom":8675,"[...,":8676,"gol":8677,"archy":8678,"Ġfact":8679,"weekday":8680,"Boolean":8681,"VC":8682,"budsjett":8683,"IF":8684,"isasjon":8685,"posix":8686,"ungdom":8687,"Matrix":8688,"ARG":8689,"forsÃ¸":8690,"parsing":8691,"odbc":8692,"().<":8693,"feil":8694,"Ġproduces":8695,"bÃ¥t":8696,"Interpolator":8697,"cb":8698,"Ġreverse":8699,"liste":8700,"Ã§Ä±n":8701,"backoff":8702,"messig":8703,"sÄ±zlÄ±k":8704,"Closing":8705,"Ġsle":8706,"ĠOne":8707,"orem":8708,"contin":8709,"Ġfollows":8710,"lueprint":8711,"Ġassigned":8712,"Ġlet":8713,"pris":8714,"Ġ'''":8715,"Tests":8716,"ÅŁekil":8717,"Individual":8718,"states":8719,"lilik":8720,"folk":8721,"retty":8722,"Ġdepending":8723,"spoli":8724,"Amer":8725,"returns":8726,"](":8727,"orld":8728,"ĠMin":8729,"dÃ¼l":8730,"konkurran":8731,"Ġbug":8732,"bilin":8733,"hatÄ±r":8734,"Multi":8735,"rab":8736,"hooks":8737,"Ġoutputs":8738,"NY":8739,"uv":8740,"Ġ00":8741,"ubar":8742,"fitted":8743,"Ġseparator":8744,"ĠDoc":8745,"Ġlayer":8746,"Ġintercept":8747,"Ġmessages":8748,"printoptions":8749,"RITE":8750,"Sent":8751,"WA":8752,"fayd":8753,"consistent":8754,"Ã¼rÃ¼n":8755,"Ä±yorum":8756,"umented":8757,"innerHTML":8758,"Add":8759,"nede":8760,"preparer":8761,"ĠMaximum":8762,"ensive":8763,"nete":8764,"Ġalign":8765,"variables":8766,"benimse":8767,"'m":8768,"tro":8769,"inTable":8770,"tura":8771,"500":8772,"iver":8773,"asks":8774,"Ġnewstr":8775,"America":8776,"('<":8777,"fler":8778,"ĠĠĠĠĠĠĠĠĠĠĠĠĠĠĠĠĠĠĠĠĠĠĠĠĠĠĠĠĠĠĠĠĠĠĠĠĠĠĠĠĠĠĠĠ":8779,"Ġmk":8780,"Ġdependent":8781,"Ġpatterns":8782,"rÃ¸r":8783,"ĠOver":8784,"latin":8785,"readline":8786,"transformer":8787,"utdannelse":8788,"Ġoptimization":8789,"kup":8790,"']['":8791,"END":8792,"\"'":8793,"sad":8794,"alist":8795,"Ġwait":8796,"machine":8797,"composition":8798,"Ġconvers":8799,"Ġimpro":8800,"kte":8801,"haust":8802,"Ġyielded":8803,"relationship":8804,"transformers":8805,"mayacaÄŁÄ±nÄ±":8806,"flatten":8807,"ĠBessel":8808,")`":8809,"yab":8810,"Î±":8811,"Ġful":8812,"oting":8813,"listener":8814,"ĠWith":8815,"Bot":8816,"WE":8817,"nÃ¼":8818,"Ġscl":8819,"Ġvalidation":8820,"dean":8821,"isson":8822,"fixed":8823,"ogra":8824,"fark":8825,"alty":8826,"ulative":8827,"ĠLin":8828,"Ġorigin":8829,"sve":8830,"when":8831,"stol":8832,"trÃ¥":8833,"fromstring":8834,"Ġshutil":8835,"sproblem":8836,"kelvin":8837,"Struct":8838,"yken":8839,"lager":8840,"Ġcompat":8841,"ordered":8842,"baÄŁÄ±r":8843,"descr":8844,"atomic":8845,"gl":8846,"ĠStep":8847,"stanti":8848,"mended":8849,"variant":8850,"Ġrefers":8851,"macÄ±":8852,"Ġweak":8853,"ITH":8854,"Ġzipfile":8855,"UTF":8856,"ĠMethod":8857,"Ġissues":8858,"sentral":8859,"dÄ±ÅŁ":8860,"viz":8861,"Ġmi":8862,"Ġconditions":8863,"([])<":8864,"()),<":8865,"mayanlar":8866,"]\\":8867,"Ġresources":8868,"([],":8869,"Ġaccessed":8870,"kurtul":8871,"eleÅŁtir":8872,"mekan":8873,"lopen":8874,"indexes":8875,"ices":8876,"imin":8877,"Ġprevent":8878,"Ġmatched":8879,"normalized":8880,"simp":8881,"skol":8882,"Ä±lÄ±m":8883,"category":8884,"ĠStore":8885,"Ġlapack":8886,"Ġspli":8887,"Ġcomponent":8888,"Ä±lacaÄŁ":8889,"Ġ{}\".":8890,"ĠTimeout":8891,"cepts":8892,"Ġstates":8893,"Numeric":8894,"RB":8895,"aldat":8896,"ekle":8897,"Ġaccepted":8898,">%":8899,"ppf":8900,"bulaÅŁ":8901,"Ġpositions":8902,"Ġcreator":8903,":\\":8904,"finfo":8905,"gull":8906,"Ã¸n":8907,"skatte":8908,"73":8909,"chor":8910,"ĠLabel":8911,"41":8912,"dask":8913,"uch":8914,"gether":8915,"Ġseries":8916,"2017":8917,"imensionalityError":8918,"Dir":8919,"too":8920,"ĠFirst":8921,"ĠOracle":8922,"ridden":8923,"anÄ±":8924,"Ġdevi":8925,"ardÄ±m":8926,"dÃ¼ÅŁÃ¼r":8927,"Ġfftn":8928,"encoded":8929,"Ã§iler":8930,"ĠDependency":8931,"Item":8932,"Link":8933,"track":8934,"multiprocessing":8935,"fas":8936,"glass":8937,"Ġ:<":8938,"vest":8939,"prosjek":8940,"intersection":8941,"biy":8942,"gus":8943,"Ø±":8944,"Ġhandled":8945,"ĠValues":8946,"rÃ¶":8947,"atlas":8948,"ĠSy":8949,"ĠProxy":8950,"gd":8951,"series":8952,"orer":8953,"Ġcc":8954,"ĠTABLE":8955,"azal":8956,"spherical":8957,":,":8958,"zengin":8959,"Ġstd":8960,"Ġnumerical":8961,"kucak":8962,"Ġskipped":8963,"queeze":8964,"nul":8965,"lege":8966,"Ġrecursive":8967,"aker":8968,"Environment":8969,"juk":8970,"bert":8971,"itertools":8972,"processStartTag":8973,"devset":8974,"UnparsedVersion":8975,"transport":8976,"Ġcpu":8977,"[-_\\.]?[":8978,"IndividualSpecifier":8979,"Metadata":8980,"Ġpa":8981,"kredi":8982,"Ġtransformer":8983,"Verb":8984,"elek":8985,"Ġ`{":8986,"Ġ500":8987,"Ä±ÄŁÄ±na":8988,"gjÃ¸r":8989,"divide":8990,"Ġ</":8991,"ABC":8992,"felt":8993,"terbot":8994,"samp":8995,"Ġlang":8996,"bele":8997,"expm":8998,"diÄŁimiz":8999,"dÃ¶k":9000,"sÄ±nÄ±":9001,"Ġ``\"":9002,"undament":9003,"byshe":9004,"undervis":9005,"larÄ±mÄ±zÄ±":9006,"Ġcertain":9007,"byshev":9008,"oli":9009,"hould":9010,"formatter":9011,"without":9012,"Unsupported":9013,"mediÄŁi":9014,"AssociationProxy":9015,"gider":9016,"Ġflush":9017,"Ġmachine":9018,"Ġcurve":9019,"svm":9020,"nivÃ¥":9021,"Ġshift":9022,"forhold":9023,"enc":9024,"tau":9025,"Inf":9026,"Ġgeneration":9027,"6666":9028,"fjell":9029,"Callable":9030,"You":9031,"Ġplain":9032,"mmutable":9033,"Ġappear":9034,"Ã¼Ã§":9035,"dadÄ±r":9036,"assign":9037,"Ġdefines":9038,"Ġcoerce":9039,"cpu":9040,"Ġsimply":9041,"mayÄ±ÅŁ":9042,">@_":9043,"maÅŁ":9044,"exclu":9045,"tvang":9046,"dum":9047,"kje":9048,"orest":9049,"Ġndimage":9050,"Ġrepository":9051,"setattr":9052,"82":9053,"das":9054,"email":9055,"Ġparen":9056,"archive":9057,"barÄ±n":9058,"overlap":9059,"zorla":9060,"EF":9061,"found":9062,"hour":9063,"play":9064,"abilecekler":9065,"maximum":9066,"gah":9067,"RC":9068,"eksp":9069,"sergile":9070,"ĠMutable":9071,"image":9072,"ĠElement":9073,"Ġdegrees":9074,"Îµ":9075,"siyle":9076,"Ġ##":9077,"ĠVisual":9078,"uyla":9079,"slut":9080,"ĠBytesIO":9081,"]\":":9082,"muse":9083,"sth":9084,"likten":9085,"Ġconcat":9086,"Ä±yormuÅŁ":9087,"reng":9088,"angle":9089,"LOAT":9090,"Ġbrowser":9091,"kÃ¶y":9092,"Ġer":9093,"sever":9094,"anded":9095,"cez":9096,"wrapped":9097,"bedri":9098,"kull":9099,"entropy":9100,"ĠPass":9101,"Ġstarting":9102,"Ġcreating":9103,"familie":9104,"ipe":9105,"Ġdatasets":9106,"Ġquoted":9107,"sevin":9108,"dÃ¼zenle":9109,"nasjon":9110,"Ġ({":9111,"Ã§ab":9112,"Ġrand":9113,"NARY":9114,"Ġimpl":9115,"sÄ±kÄ±ÅŁ":9116,"NK":9117,"Ġdeleted":9118,"Be":9119,"lÄ±lÄ±k":9120,"ucli":9121,"lebil":9122,"tip":9123,"Ġ'#":9124,"ilere":9125,"inspect":9126,"barÄ±ÅŁ":9127,"erne":9128,"Ġconj":9129,"SSLv":9130,"utionContext":9131,"ĠArgument":9132,"ĠExtra":9133,"Ġangular":9134,"erci":9135,"nearest":9136,"itt":9137,"aray":9138,"Ġperson":9139,"likelihood":9140,"ĠBuild":9141,"LU":9142,"Ġpercent":9143,"platforms":9144,"Ġ\"\"":9145,"utstyr":9146,"umath":9147,"sede":9148,"hex":9149,"Ã¼t":9150,"iso":9151,"Pointer":9152,"Ġtolerance":9153,"Ġcanonicalize":9154,")+":9155,"Ġfinite":9156,"lÃ¼ÄŁÃ¼":9157,"CODE":9158,"xied":9159,"Ġidentifiers":9160,"Ġconversation":9161,"Ġ\"\")<":9162,"aksjon":9163,"lanÄ±r":9164,"Ġ\"==":9165,"Ġtear":9166,"sklearn":9167,"setting":9168,"orts":9169,"proc":9170,"bilde":9171,"Unit":9172,"ĠInvalidSpecifier":9173,"uclidean":9174,"stro":9175,"Ġnlp":9176,"sapp":9177,"Ġdoing":9178,");":9179,"rey":9180,"tiz":9181,"ĠLazy":9182,"ĠBad":9183,"Ġlinkage":9184,"Ġnormally":9185,"vikling":9186,"integrate":9187,"lm":9188,"animate":9189,"deriv":9190,"....":9191,"Ġsock":9192,"Ġupdated":9193,"Ġmpmath":9194,"ost":9195,"ination":9196,"alter":9197,"Compute":9198,"bf":9199,"gz":9200,"metric":9201,"vester":9202,"fire":9203,"Ġbackwards":9204,"Ġminimize":9205,"Ġcreates":9206,"limiter":9207,"centi":9208,"Ġfd":9209,"bygg":9210,"000000":9211,"ĠOrderedDict":9212,"Length":9213,"Ġke":9214,"ugate":9215,"Ġlinux":9216,"Ġinitialized":9217,"bosity":9218,"COMP":9219,"Cookie":9220,"dictionary":9221,"ĠVariable":9222,"Ġmanage":9223,"Ġaliases":9224,"isyon":9225,"Ġkg":9226,"Config":9227,"skips":9228,"ĠHTTPS":9229,"=',":9230,"ORE":9231,"mount":9232,"urls":9233,"kaydet":9234,"yenile":9235,"lum":9236,"nen":9237,"sors":9238,"Ø¯":9239,"decision":9240,"ulus":9241,"Ġtogether":9242,"Ġ``<":9243,"Candidate":9244,"gÃ¼ncel":9245,"Ġcalculated":9246,"Ġpreferred":9247,"BB":9248,"kade":9249,"Ä±yorsunuz":9250,"padded":9251,"517":9252,"Row":9253,"gass":9254,"fev":9255,"oÄŁraf":9256,"kik":9257,"Ġecho":9258,"setning":9259,"SSIVE":9260,"lipsis":9261,"tamamla":9262,"hedef":9263,"Ġcatch":9264,"timestamp":9265,"Ġtrack":9266,"gÃ¶rÃ¼ntÃ¼":9267,"Ġpadding":9268,"sym":9269,"gies":9270,"paren":9271,"height":9272,"Ġnb":9273,"lige":9274,"ĠEOF":9275,"Ä±ÄŁÄ±nda":9276,"TLSv":9277,"Schema":9278,"ĠNB":9279,"ĠPR":9280,"============":9281,"ĠRETUR":9282,"Ultroid":9283,"jek":9284,"yden":9285,"Ġepoch":9286,"taps":9287,"127":9288,"duyur":9289,"#######<":9290,"________":9291,"jam":9292,"seter":9293,"mester":9294,"Predicate":9295,"GES":9296,"positive":9297,"Ã§iÄŁ":9298,"bygge":9299,"kken":9300,"aro":9301,"external":9302,"papir":9303,"anging":9304,"Ġdy":9305,"proton":9306,"Loader":9307,"reserve":9308,"ĠPlease":9309,"becer":9310,"Ġpow":9311,"merge":9312,"nr":9313,"acÄ±k":9314,"hers":9315,"zet":9316,"maker":9317,"doctype":9318,"birik":9319,"dummy":9320,"lun":9321,"Ġrg":9322,"persist":9323,"malarÄ±nÄ±":9324,"xa":9325,"liler":9326,"Ġasync":9327,"argmax":9328,"Ġsph":9329,"adam":9330,"coordin":9331,"application":9332,"Ġpipe":9333,"à¦°":9334,"={'":9335,"Ġrecommended":9336,"]))":9337,"Ġjinja":9338,"gÃ¼zel":9339,"related":9340,"belge":9341,"ĠFunctions":9342,"Ġ\"*":9343,"defer":9344,"masÄ±nÄ±n":9345,"matching":9346,"Ġhappen":9347,"ĠVerbNet":9348,"niÅŁ":9349,"Ġbeco":9350,"ĠNow":9351,"Parameter":9352,"arned":9353,"larmÄ±ÅŁ":9354,"foot":9355,"cursion":9356,"tivity":9357,"Regression":9358,"ĠStop":9359,"ĠBA":9360,"ensure":9361,"Ã¶y":9362,"lenir":9363,"Ġpositional":9364,"Variable":9365,"uma":9366,"Ġlicen":9367,"Ġfstruct":9368,"manage":9369,"dataset":9370,"ihti":9371,"Raises":9372,"Failed":9373,">',":9374,"gene":9375,"Ġfour":9376,"unsigned":9377,"optim":9378,"Ġmappers":9379,"medik":9380,"ĠStart":9381,"Ġdescribed":9382,"Ġoverridden":9383,"Ã¶zen":9384,"plug":9385,"Ġextensions":9386,"mÃ¸n":9387,"cam":9388,"}(":9389,"Ã§ilik":9390,"ĠError":9391,"Ġsmaller":9392,"beÅŁ":9393,"Ġroll":9394,"Ã¶rtÃ¼":9395,"autocommit":9396,"fotoÄŁraf":9397,"Ġimage":9398,"undefined":9399,"scroll":9400,"klar":9401,"Ġfallback":9402,"ĠIndexError":9403,"rates":9404,"memeli":9405,"Ġrcond":9406,"sker":9407,"Ġmeth":9408,"ONE":9409,"Sami":9410,"livs":9411,"Ġ'')<":9412,"ĠTests":9413,"memmap":9414,"Ġ(?:<":9415,"adapt":9416,"NotFoundError":9417,"'},<":9418,"PO":9419,"Platform":9420,"flas":9421,"Ġii":9422,"hafi":9423,"Ġindependent":9424,"entran":9425,"ALI":9426,"pyplot":9427,"collect":9428,"weighted":9429,"Ġevaluated":9430,"\"[":9431,">`<":9432,"Pos":9433,"erke":9434,"need":9435,"ĠAb":9436,"Ġsimplify":9437,"remainder":9438,"Ġdeclarative":9439,"render":9440,"Ġsense":9441,"69":9442,"ÅŁey":9443,"lename":9444,"Ġfactory":9445,"Ġcommands":9446,"choice":9447,"gÃ¶zlem":9448,"available":9449,"STRING":9450,"'}<":9451,"inline":9452,"derin":9453,"ften":9454,"aliases":9455,"Ġbi":9456,"para":9457,"([[-":9458,"collections":9459,"CASE":9460,"Ġexpm":9461,"Produce":9462,"yok":9463,"andÄ±ra":9464,"bird":9465,"Ä±labile":9466,"rable":9467,"Ġmicro":9468,"kara":9469,"ĠIOError":9470,"ila":9471,"kvel":9472,"ĠFilter":9473,"dapt":9474,"bevis":9475,"Ä±yÄ±m":9476,"bilgi":9477,"Ġreplacement":9478,"Collection":9479,"Ca":9480,"bus":9481,"Ġintro":9482,"Ġiterate":9483,"creator":9484,"ĠUTF":9485,"Ġgetter":9486,"kurul":9487,"Ġstructures":9488,"disconnect":9489,"ĠAdded":9490,"ues":9491,"ĠFunc":9492,"ĠHelper":9493,"Finder":9494,"AC":9495,"EST":9496,"alf":9497,"yama":9498,"locals":9499,"yasa":9500,"`\")<":9501,"Ġbp":9502,"ĠCli":9503,"misc":9504,"laÅŁtÄ±rÄ±l":9505,")(<":9506,".)":9507,"uren":9508,"Ġbeginning":9509,"dsel":9510,"niyet":9511,"Ġpd":9512,"ĠCalcul":9513,"ĠExp":9514,"Ġbuilder":9515,"}.":9516,"Chunk":9517,"chatbot":9518,"Ġ'''<":9519,"[_":9520,"mappers":9521,"ssystem":9522,"Ġbackends":9523,"forskning":9524,"Ġnetloc":9525,"Ġsemantics":9526,"given":9527,"Ġconv":9528,"muh":9529,"Ġstructured":9530,"ĠBox":9531,"hidden":9532,"actions":9533,"istik":9534,"Ġagenda":9535,"81":9536,"Ã§aÄŁr":9537,"TRA":9538,"Ġtask":9539,"yayÄ±nla":9540,"reducers":9541,"gran":9542,"rides":9543,"ĠSpecifi":9544,"bÃ¸r":9545,"eli":9546,"fold":9547,"gere":9548,"hard":9549,"sci":9550,"Ġweek":9551,"Ġcoltype":9552,"tempt":9553,"offsets":9554,"Input":9555,"author":9556,"Ġsym":9557,"iterator":9558,"liÄŁine":9559,"Ġfitting":9560,"kaÃ§Ä±n":9561,"Ġapproximation":9562,"Ġwinreg":9563,"fstruct":9564,"overflow":9565,"...]":9566,"chebint":9567,"ladÄ±k":9568,"Ġoccurred":9569,"ÅŁaÅŁÄ±r":9570,"tede":9571,"\")),<":9572,"tÃ¼re":9573,"ĠMathemati":9574,"Hist":9575,"utem":9576,"Ġ\"#":9577,"fromroots":9578,"ttene":9579,"ĠGram":9580,"nonlin":9581,"((\"":9582,"mÃ¼n":9583,"isfinite":9584,"REQU":9585,"Ġowner":9586,"Valid":9587,"tete":9588,"Ġsmoo":9589,"ĠEst":9590,"Ġmemo":9591,"DEBUG":9592,"larÄ±dÄ±r":9593,");<":9594,"Ã§ap":9595,"Ã¸kon":9596,"poses":9597,"ĠButton":9598,"akes":9599,"hm":9600,"ernoulli":9601,"andÄ±":9602,"lana":9603,"Tokens":9604,"Ġsquared":9605,"Ġpg":9606,"siy":9607,"Ġ[],<":9608,"Ġproof":9609,"ttle":9610,"sikkerhets":9611,"AV":9612,"UL":9613,"hareket":9614,"Ã§Ä±r":9615,"roman":9616,"argsort":9617,"gorithms":9618,"NC":9619,"expi":9620,"dispose":9621,"belirle":9622,"Ġtargets":9623,"Ġeigenvalues":9624,"atter":9625,"Ġdecorated":9626,"Ġtreated":9627,"Ġimmedi":9628,"Dependency":9629,"fta":9630,"macy":9631,"ĠMust":9632,"ĠMarkup":9633,"Ġlinks":9634,"'\",":9635,"lest":9636,"liyor":9637,"sock":9638,"ĠStringIO":9639,"sthrough":9640,"sete":9641,"ĠSession":9642,"socks":9643,"ferdig":9644,"alarÄ±":9645,"inti":9646,"leie":9647,"Ġcsc":9648,"olate":9649,">>>>":9650,"Ġconne":9651,"ĠShould":9652,"Ġchi":9653,"ragged":9654,"Ġfinder":9655,"ĠASCII":9656,"Ġspeed":9657,"uly":9658,"amb":9659,"codeError":9660,"Ġdifferences":9661,"Ġblocks":9662,">(":9663,"bp":9664,"diniz":9665,"Ġgold":9666,"perio":9667,"ayÄ±":9668,"undur":9669,"Const":9670,"idir":9671,"reason":9672,"assertRaises":9673,"culuk":9674,"Date":9675,"Ġconflict":9676,"arante":9677,"pur":9678,"ubic":9679,"bolig":9680,"jÃ¸r":9681,"ĠPlatform":9682,"previous":9683,"mesin":9684,"/(":9685,"IC":9686,"VB":9687,"Ġinserted":9688,"verlap":9689,"scan":9690,"Ġordering":9691,"farge":9692,"Ġcombination":9693,"Ġtex":9694,"Ġpk":9695,"lices":9696,"Ġembed":9697,"Ġthings":9698,"spen":9699,"besle":9700,"Ani":9701,"bz":9702,"decoder":9703,"Ġcip":9704,"Ã¸ye":9705,"('%":9706,"Ġvend":9707,"fabri":9708,"ĠFuncData":9709,"Animacy":9710,"sÄ±y":9711,"Ġcum":9712,"Ġlineno":9713,"incele":9714,"ighbor":9715,"({\"[":9716,"Vo":9717,"Ġdynam":9718,"Ġ&=":9719,"Ã¼s":9720,"dof":9721,"npy":9722,"ĠXML":9723,"canlan":9724,"Ġcontextlib":9725,"\\\"":9726,"nist":9727,"zo":9728,"arily":9729,"that":9730,"ardÄ±":9731,"kuv":9732,"Helper":9733,"Ïģ":9734,"ÑĤ":9735,"Ġtasks":9736,"tit":9737,"Ġmime":9738,"dert":9739,"pective":9740,"productions":9741,"stitute":9742,"mÄ±z":9743,"packed":9744,"Ġrelevant":9745,"suzluk":9746,"kostnad":9747,"+)":9748,"coo":9749,"ĠĠĠĠĠĠĠĠĠĠĠĠĠĠĠĠĠĠĠĠĠĠĠĠĠĠĠĠĠĠĠĠĠĠĠĠĠĠĠĠĠĠĠĠĠĠĠ":9750,"even":9751,"lÃ¸p":9752,"arz":9753,"always":9754,"Ġphase":9755,"vergence":9756,"ita":9757,"ĠAfter":9758,"sumed":9759,"harca":9760,"centile":9761,"lever":9762,"Ġph":9763,"ordning":9764,"subdtype":9765,"Ġba":9766,"tolist":9767,"ett":9768,"[\"_":9769,"cross":9770,"lut":9771,"caption":9772,"sÃ¶y":9773,"Ġconstructs":9774,"Build":9775,"yÄ±pr":9776,"Ġdog":9777,"ĠRO":9778,"mektir":9779,"Ġcalculate":9780,"71":9781,"kÄ±ÅŁ":9782,"reli":9783,"Ġshe":9784,"faydalan":9785,"Ġhier":9786,"structured":9787,"ĠTry":9788,"behandling":9789,"abilecek":9790,"affet":9791,"Ġblueprint":9792,"radio":9793,"access":9794,"Ġundefined":9795,"ikke":9796,"layacaÄŁ":9797,"nab":9798,"fixture":9799,"Ġmembers":9800,"forms":9801,"kolay":9802,"ĠRandom":9803,"cephes":9804,"slash":9805,"udo":9806,"Ä±lmaz":9807,"entially":9808,"EDGES":9809,"biÃ§im":9810,"mr":9811,"ndi":9812,"Ġ':":9813,"Ġoperands":9814,"One":9815,"=[[":9816,"Ġshuffle":9817,"Ġextend":9818,"motor":9819,"recursive":9820,"Ġexpi":9821,"ising":9822,"amÄ±z":9823,"lÃ¼kler":9824,"Ġlocals":9825,"Ġconveni":9826,"kest":9827,"Ġdescriptor":9828,"john":9829,"DimensionalityError":9830,"smo":9831,"squeeze":9832,"Ġscope":9833,"Buffer":9834,"align":9835,"stitution":9836,"spÃ¸rsmÃ¥l":9837,"ĠLO":9838,"extrap":9839,"Ġsoft":9840,"sentences":9841,"']))<":9842,"ROP":9843,"madÄ±ÄŁÄ±mÄ±z":9844,"kÄ±pÄ±r":9845,"selfClosing":9846,"linje":9847,"rective":9848,"firma":9849,"searchsorted":9850,"classifier":9851,"Hello":9852,"\"}],<":9853,"hug":9854,"__',":9855,"Ġ_<":9856,"buk":9857,"serialize":9858,"undamental":9859,"fjern":9860,"Ġwave":9861,"riks":9862,"Ġdigest":9863,"listdir":9864,">----------------":9865,"Ġprod":9866,"ĠBas":9867,"Ġproperly":9868,"card":9869,"strate":9870,"Ä±cÄ±lÄ±k":9871,"IR":9872,"rut":9873,"ĠHAS":9874,"Ġintersect":9875,"splitlines":9876,"lÃ¸nn":9877,"inizin":9878,"Ġthreads":9879,"engelle":9880,"Ġ\")<":9881,"amet":9882,"ĠEL":9883,"kapat":9884,"ĠprocessCharacters":9885,"Ġabc":9886,"broyden":9887,"ColumnElement":9888,"serializer":9889,"yorsunuz":9890,"ĠSOCKS":9891,"Bad":9892,"plass":9893,"ĠPos":9894,"Ġtranspose":9895,"moment":9896,"System":9897,"deps":9898,"cture":9899,"Ġprover":9900,"ected":9901,"Ġordered":9902,"alder":9903,"Ġuow":9904,"bane":9905,"UES":9906,"`)":9907,"']])<":9908,"ALLOW":9909,"Ġcreation":9910,"Ġproductions":9911,"gde":9912,"Ġsq":9913,"Ġdocs":9914,")))":9915,"Ġspl":9916,"population":9917,"indptr":9918,"Ġ||":9919,"views":9920,"gulan":9921,"sÄ±nÄ±f":9922,"gil":9923,"kot":9924,"relate":9925,"lenmiÅŁ":9926,"likte":9927,"à¦¨":9928,"coefs":9929,"ĠMapper":9930,"dll":9931,"ansk":9932,"iss":9933,"aÄŁla":9934,"Ġindexes":9935,"multiple":9936,"felle":9937,"hjelpe":9938,"Abstract":9939,"Scheme":9940,"zil":9941,"asje":9942,"fidence":9943,"Ġdec":9944,"Ġtmpdir":9945,"dikleri":9946,"DER":9947,"]\"":9948,"dedir":9949,"masÄ±ndan":9950,"inalg":9951,"vÃ¦":9952,"asa":9953,"getrefcount":9954,"Ġmaking":9955,"))))<":9956,"Ã¶zgÃ¼r":9957,"Ġglobals":9958,"]')<":9959,"fu":9960,"gon":9961,"ordering":9962,"See":9963,"bahset":9964,"pul":9965,"inize":9966,"utter":9967,"ads":9968,"branch":9969,"heye":9970,"Ġomitted":9971,"Ġinstanti":9972,"lardaki":9973,"imates":9974,"tingency":9975,"fails":9976,"Ġtruepoly":9977,"identical":9978,"nÃ¦rings":9979,"pil":9980,"(\"/":9981,"users":9982,"arith":9983,"Ġadapt":9984,"Ġdual":9985,"verb":9986,"vided":9987,"Ġapplies":9988,"ATCH":9989,"Ġequality":9990,"larÄ±mÄ±zÄ±n":9991,"anak":9992,"Ä±mÄ±n":9993,"ikat":9994,"taxError":9995,"sag":9996,"yapÄ±ÅŁ":9997,"click":9998,"yumuÅŁ":9999,"mmap":10000,"windows":10001,"arab":10002,"ĠUndefined":10003,"uplicates":10004,"Ġary":10005,"enum":10006,"Ġdeal":10007,"Ä±kla":10008,"lerimizi":10009,">)":10010,"MB":10011,"Ġforms":10012,"addr":10013,"mite":10014,"Ġacceler":10015,"Ġdetected":10016,"Ġstorage":10017,"itable":10018,"relations":10019,"ĠAlig":10020,"sinir":10021,"datsp":10022,"TestCase":10023,"specified":10024,"asÄ±na":10025,"Ġinsp":10026,"food":10027,"dataState":10028,"REF":10029,"tÃ¼ket":10030,"Ġcompared":10031,"ÙĪ":10032,"stopp":10033,"Ġtheta":10034,"lÃ¼ÄŁÃ¼n":10035,"grav":10036,"probabilities":10037,"shake":10038,">...":10039,"fcompiler":10040,"msvc":10041,"ĠRFC":10042,"logic":10043,"Ġreleases":10044,"reverse":10045,"Ġcap":10046,"aya":10047,"curve":10048,"Ø§ÙĨ":10049,"So":10050,"Ðµ":10051,"inherit":10052,"ĠSci":10053,"diÄŁim":10054,"Ġreflection":10055,"BMModel":10056,"arge":10057,"Ġlinalg":10058,"gÃ¶re":10059,"SSION":10060,"effective":10061,"antile":10062,"CER":10063,"Ġcs":10064,"ĠParsedVersion":10065,"Ġtimedelta":10066,"executor":10067,"Ġtransformed":10068,"repared":10069,"*\\":10070,"Ġrepla":10071,"Ã¸k":10072,"ENDS":10073,"-%":10074,"dandÄ±r":10075,"nur":10076,"psy":10077,"lerdeki":10078,"stÃ¸tte":10079,"yuvar":10080,"Ġpin":10081,"statements":10082,"mÃ¼l":10083,"maktÄ±r":10084,"hÃ¼kÃ¼":10085,"ĠST":10086,"dob":10087,"ĠHere":10088,"tekts":10089,"Ġfailure":10090,"Ġcounter":10091,"Ġconstruction":10092,"Ġbranch":10093,"bing":10094,"stal":10095,"gÃ¶k":10096,"entities":10097,"wski":10098,"ĠShow":10099,"percent":10100,"Ġmapp":10101,"ode":10102,"slow":10103,"Ġfir":10104,"varme":10105,"Ġcombine":10106,"jerne":10107,"completeRead":10108,"OPEN":10109,"ĠUnitRegistry":10110,":%":10111,"EG":10112,"arÅŁ":10113,"teater":10114,"Ġ::":10115,"Ġstar":10116,"built":10117,"metre":10118,"bestem":10119,"Ġevaluation":10120,"menneske":10121,"Ad":10122,"dans":10123,"jak":10124,"memesi":10125,"Ġeasy":10126,"__\":<":10127,"amerik":10128,"Ġener":10129,"Ġimplementations":10130,"FORM":10131,"dde":10132,"phe":10133,"kowski":10134,"configured":10135,"Ġroutines":10136,"velopment":10137,"utemany":10138,"SC":10139,"fur":10140,"wi":10141,"Ġeor":10142,"illed":10143,"Ġoverlap":10144,"Directory":10145,"Ġinternally":10146,"Ġok":10147,"ÅŁit":10148,"(\"`":10149,"Ġmedian":10150,"hov":10151,"masÄ±yla":10152,"insan":10153,"genÃ§":10154,">\".":10155,"relse":10156,"contextmanager":10157,"Ġderphi":10158,"ABI":10159,"Ä±ÄŁÄ±mÄ±":10160,"doÄŁru":10161,"anese":10162,"yargÄ±la":10163,"Ġclauses":10164,"hausted":10165,"what":10166,"Ġreally":10167,"verne":10168,"smirno":10169,"ĠprocessEOF":10170,"fisker":10171,"*,":10172,"cup":10173,"atched":10174,"hebyshev":10175,"Ġamount":10176,"ĠHe":10177,"liers":10178,"melerini":10179,"geometric":10180,"utvikling":10181,"ĠFE":10182,"Converter":10183,"interes":10184,"retro":10185,"BASE":10186,"clauses":10187,"logical":10188,"kesi":10189,"isten":10190,"Ġmemmap":10191,"QP":10192,"Ġsvd":10193,"Ġconversion":10194,"renk":10195,"sigort":10196,"normp":10197,"ĠSecurityConst":10198,"ĠQu":10199,"Ġfron":10200,"Ġsuc":10201,"herits":10202,"Ġguarante":10203,"Ġweakref":10204,"512":10205,"ived":10206,"Ġtab":10207,"Ġstand":10208,"does":10209,"ayar":10210,"Ġaccuracy":10211,")``,":10212,"selector":10213,"pek":10214,"Ġpdf":10215,"konum":10216,"Ã¶zdeÅŁ":10217,"Implement":10218,"Ġprobably":10219,"siv":10220,"nose":10221,"jenest":10222,"runtime":10223,"chebval":10224,"chebfit":10225,"Ġderivatives":10226,"cryptography":10227,"eme":10228,"joint":10229,"minute":10230,"iii":10231,"bits":10232,"Ġ^":10233,"resp":10234,"Ġ(`":10235,"ssql":10236,"Ġcomputing":10237,"NPY":10238,"kent":10239,"nis":10240,"ney":10241,"Ġhol":10242,"'][":10243,"Ġoperand":10244,"Ġindexing":10245,"ĠSQLite":10246,"leyebil":10247,"Ġ99":10248,"manifest":10249,"calls":10250,"ateÅŁ":10251,"Ġzhe":10252,"tanÄ±mla":10253,"Ġproduced":10254,"Ġpiece":10255,"Ø¹":10256,"Ġscor":10257,"skinn":10258,"ogle":10259,"omrÃ¥de":10260,"Ġsilent":10261,"tuk":10262,"ertificate":10263,"raz":10264,"kede":10265,"hai":10266,"strÃ¸m":10267,"beve":10268,"ĠVer":10269,"Ġpropagate":10270,"Fit":10271,"imizden":10272,"kking":10273,"Ġqr":10274,"Ġsleep":10275,"dalg":10276,"frozen":10277,"yormuÅŁ":10278,"conflict":10279,"tog":10280,"yakÄ±ÅŁ":10281,"dags":10282,"ĠNN":10283,"haval":10284,"Ä±ÄŁÄ±yla":10285,"aÅŁaÄŁ":10286,"skrive":10287,"ptp":10288,"larÄ±ndaki":10289,"ĠStandard":10290,",),<":10291,"guess":10292,"stere":10293,"aspir":10294,"pep":10295,"ĠSyn":10296,"Ġlengths":10297,"eÄŁlen":10298,"simplefilter":10299,"----------------------------------------------------------------":10300,"bÃ¶lÃ¼":10301,"eti":10302,"every":10303,"flask":10304,"selam":10305,"acÄ±lÄ±k":10306,"such":10307,"Ġgenerally":10308,"Ä±sÄ±r":10309,"Ġregistered":10310,"Ġhappens":10311,".,<":10312,"WS":10313,"cheby":10314,"policy":10315,"yavaÅŁ":10316,"Ġbasename":10317,"lerindeki":10318,"runner":10319,"ĠColumnTransformer":10320,"PASSIVE":10321,"FIEL":10322,"deleted":10323,"Active":10324,"!\")<":10325,"Match":10326,"Î¿":10327,"onel":10328,"destroy":10329,"royden":10330,"dro":10331,"hÃ¼r":10332,"insi":10333,"adjust":10334,"kaÄŁ":10335,"laÅŁtÄ±ra":10336,"Ã§ift":10337,"Ġlicensed":10338,"GET":10339,"delayed":10340,"ÅŁart":10341,"mada":10342,"utvalg":10343,"temiz":10344,"shuffle":10345,"Ġlevels":10346,"Ġsimilarity":10347,"discrete":10348,"atial":10349,"Ġcome":10350,"Ġdecoded":10351,"altern":10352,"Ġfont":10353,"Ġredu":10354,"cogn":10355,"Ġanti":10356,"Ġoccurren":10357,"pm":10358,"Ġfprime":10359,"ĠRegex":10360,"Ġweighted":10361,"subdir":10362,"malarÄ±na":10363,"Ġsaved":10364,"John":10365,"tÃ¥":10366,"errstate":10367,"speed":10368,"secure":10369,"'))":10370,"Ġfree":10371,"Ã§oc":10372,"mayÄ±n":10373,"baÄŁdaÅŁ":10374,"tbody":10375,"lende":10376,"ansÄ±z":10377,"linker":10378,"madÄ±m":10379,"arbeide":10380,"Ġbuilding":10381,"ASCII":10382,"imzala":10383,"CU":10384,"hund":10385,"Ġxid":10386,"Process":10387,"mula":10388,"kitap":10389,"300":10390,"Sign":10391,"Ġpay":10392,"ceza":10393,"Ġhaving":10394,"tÄ±rman":10395,"FFT":10396,"Ä±yorsa":10397,"tuples":10398,"Size":10399,"Ġfam":10400,"ayÄ±m":10401,"leridir":10402,"THON":10403,"]]),<":10404,"ĠPyOpenSSL":10405,"Ġhybrid":10406,"Ġclustering":10407,"Ġrotation":10408,"Ġannotation":10409,"gc":10410,"inel":10411,"Ġconcaten":10412,"dering":10413,"iry":10414,"Ġtransition":10415,"ActiveFormattingElements":10416,"ric":10417,"fies":10418,"Counter":10419,"Ġheight":10420,"mutation":10421,"Frameset":10422,"With":10423,"hstack":10424,"mse":10425,"yardÄ±m":10426,"ĠSparse":10427,"Ġorm":10428,"dÄ±lar":10429,"Ġcomma":10430,"bindparam":10431,"cnt":10432,"lei":10433,"props":10434,"HTTPException":10435,"ominator":10436,"inat":10437,"anne":10438,"metrics":10439,"tioned":10440,"utc":10441,"proof":10442,"klubb":10443,"mÃ¸te":10444,"[(":10445,"mim":10446,"kesin":10447,"quential":10448,"ush":10449,"sorgula":10450,"impurity":10451,"degC":10452,"gnore":10453,"natt":10454,"yalan":10455,"Ġresidual":10456,"ÅŁam":10457,"called":10458,"Ġparses":10459,"sidir":10460,"Ġ31":10461,"labil":10462,"network":10463,"Ġincreasing":10464,"zayÄ±f":10465,"ial":10466,"sye":10467,"Ġty":10468,"distri":10469,"Ġforcing":10470,"trÃ¸":10471,"Setup":10472,"yapÄ±":10473,"Ġnormed":10474,"eyle":10475,"accept":10476,"bein":10477,"Ġsystems":10478,"diÄŁine":10479,"framesetOK":10480,"jev":10481,"sele":10482,"Ġpassive":10483,"otstra":10484,"Ġindptr":10485,"Ġflattened":10486,"Only":10487,"rfft":10488,"sÃ¸r":10489,"sÄ±ÄŁÄ±n":10490,"umut":10491,"mÄ±ÅŁtÄ±":10492,"diÄŁiniz":10493,"Level":10494,"virksomhet":10495,"heil":10496,"Ġrep":10497,"tron":10498,"ĠUnsupported":10499,"Ã¼mse":10500,"spre":10501,"Ã§Ã¼rÃ¼":10502,"Ġtreat":10503,"Thread":10504,"BF":10505,"Update":10506,"Ġeager":10507,"Ġsubset":10508,"ograf":10509,"ĠConnect":10510,"Ġchatterbot":10511,"Ġultroid":10512,"Ġpandas":10513,"hage":10514,"ĠPretty":10515,"()`":10516,"apparat":10517,"ĠGroup":10518,"Ġrotvecs":10519,"microseconds":10520,"hesapla":10521,"Ġpreserved":10522,"mamÄ±ÅŁtÄ±r":10523,"BY":10524,"OUT":10525,"jub":10526,"Ġpatch":10527,"Ġmut":10528,"skre":10529,"dedent":10530,"bileceÄŁi":10531,"Ġsemantic":10532,"MMA":10533,"xe":10534,"compatibility":10535,"Ġ<<":10536,"Ġdatatype":10537,"smÃ¸":10538,"itecture":10539,"ezber":10540,"Ġspecification":10541,"Prover":10542,"Ġconverter":10543,"attach":10544,"clared":10545,"Called":10546,"flex":10547,"wel":10548,"once":10549,"Ġsubquery":10550,"'])":10551,"ĠExpression":10552,"hid":10553,"punkt":10554,"have":10555,"argmin":10556,"quality":10557,"bygging":10558,"Ġextracted":10559,"skipif":10560,"okupError":10561,"wind":10562,"anlarÄ±n":10563,"selves":10564,"Ġimported":10565,"boundary":10566,"aydÄ±nlat":10567,"hjemme":10568,"Ġimmediately":10569,"kka":10570,"vill":10571,"alp":10572,"atif":10573,"yeÅŁ":10574,"mbig":10575,"Ä±nÄ±za":10576,"Ġconvergence":10577,"Ġcfg":10578,"vekt":10579,"mental":10580,"taj":10581,"oloj":10582,"ĠIDNA":10583,"bust":10584,"NGE":10585,"bake":10586,"rupt":10587,"brann":10588,"fÄ±rla":10589,"coÅŁ":10590,"Ġ:]<":10591,"ĠPRO":10592,"temizle":10593,"ssue":10594,"asjoner":10595,"Missing":10596,"Ġenergy":10597,")``<":10598,"Ġ'(":10599,"Ġdraw":10600,"Ġoften":10601,"ĠSU":10602,"conne":10603,"Ġxs":10604,"Ġimportlib":10605,"tillegg":10606,"variances":10607,"TypeEngine":10608,"ENSION":10609,"Ġquad":10610,"Ġfraction":10611,"seen":10612,"legging":10613,"sider":10614,"ĠStream":10615,"profes":10616,"matches":10617,"ĠCO":10618,"bez":10619,"Connect":10620,"gjel":10621,"ĠGenerate":10622,"Filter":10623,"gate":10624,"Ġdecoder":10625,"sume":10626,"Ġreceive":10627,"plate":10628,"sÃ¥":10629,"xor":10630,"invester":10631,"required":10632,"Ġyb":10633,"baseline":10634,"replacement":10635,"/////////////////////////////////<":10636,"ankWarning":10637,"markeds":10638,"reconstruct":10639,"anlÄ±":10640,"pairwise":10641,"Zip":10642,"[<":10643,"_:<":10644,"orph":10645,"ĠClause":10646,"Ġ{{":10647,"ssy":10648,"processors":10649,"Ġerrno":10650,"spiller":10651,"OUS":10652,"Ġrepeated":10653,"okul":10654,"leÅŁti":10655,"egative":10656,"IGU":10657,"yÃ¶nlendir":10658,"rstrip":10659,"alker":10660,"trivial":10661,"menet":10662,"Ġbottom":10663,"cpp":10664,"Ã¶f":10665,"Ġothers":10666,"ĠDecimal":10667,"brudd":10668,"91":10669,"tÄ±n":10670,"haf":10671,"endre":10672,"mÄ±ÅŁtÄ±r":10673,"hÃ¥nds":10674,"mixing":10675,"ĠAbstract":10676,"Fri":10677,"FLOAT":10678,"WITH":10679,"vning":10680,"asker":10681,"Ã¸s":10682,"baÅŁkan":10683,"rogram":10684,"unary":10685,"truth":10686,"Ġdeci":10687,"Ġpolyval":10688,"AND":10689,"bruker":10690,"Ġterminal":10691,"extrapolate":10692,"EE":10693,"wol":10694,"Ġjobs":10695,"('-":10696,"malloc":10697,"reddet":10698,"**(":10699,"Flask":10700,"hey":10701,"Ġemail":10702,"ciÄŁ":10703,"sence":10704,"ĠHow":10705,"Ġconfigure":10706,"saldÄ±r":10707,"temporary":10708,"anyarray":10709,"divmod":10710,"hÃ¸st":10711,"delitem":10712,"Sparse":10713,"seslen":10714,"datasets":10715,"ÅŁehir":10716,"onayla":10717,"Ġfully":10718,"regne":10719,"tighet":10720,"ÅŁÃ¼phe":10721,")')<":10722,"Temp":10723,"Ġtf":10724,"Ġna":10725,"Ġapplic":10726,"utureWarning":10727,"ĠMeta":10728,"klasse":10729,"thead":10730,"tfoot":10731,"urlopen":10732,"ansvar":10733,"VerbForm":10734,">,":10735,"dÄ±n":10736,"packaging":10737,"Ġns":10738,"Ġmix":10739,"poz":10740,"syns":10741,"Ġgenerates":10742,"sjuke":10743,"nm":10744,"tuÄŁ":10745,"stur":10746,"tets":10747,"ished":10748,"Ġdummy":10749,"Ġcontiguous":10750,"ĠMIN":10751,"tracker":10752,"binom":10753,"Ġprocessors":10754,"hom":10755,"atÃ§Ä±":10756,"ppc":10757,"Record":10758,"curren":10759,"mÃ¼te":10760,"prefixes":10761,"threading":10762,"DR":10763,"giv":10764,"ulename":10765,"thern":10766,"landÄ±ra":10767,"Ġlikely":10768,"Ġpreviously":10769,"meyeceÄŁini":10770,"Ġobserv":10771,"Ġwriting":10772,"ummary":10773,"Ä±lÄ±ÅŁ":10774,"mayabilir":10775,"ResultProxy":10776,"nod":10777,"Ġdistances":10778,"(\"'":10779,"===":10780,"Ä±lÄ±ÄŁÄ±":10781,"steps":10782,"kjel":10783,"Afri":10784,"PORT":10785,"[...]":10786,"gum":10787,"Ùģ":10788,"tepe":10789,"litter":10790,"semble":10791,"marginal":10792,"Ã§Ä±rp":10793,"AMP":10794,"Ġslices":10795,"ĠSR":10796,"Ġlst":10797,"ĠNode":10798,"Ġdistfn":10799,"yanaÅŁ":10800,"Ġhttplib":10801,"ĠPolynomial":10802,"mikro":10803,"otstrap":10804,"234":10805,"Mem":10806,"nett":10807,"Ġ26":10808,"Ã¼rk":10809,"Ġestimated":10810,"liÄŁinin":10811,"sÄ±Ã§":10812,"apo":10813,"sÃ¶n":10814,"vog":10815,"ĠÐ":10816,"stÃ¸y":10817,"tekt":10818,"diy":10819,"ĠINT":10820,"Ġstarts":10821,"getstate":10822,"sosial":10823,"Construct":10824,"GER":10825,"lÄ±ÄŁÄ±mÄ±z":10826,"sett":10827,"REMO":10828,"overrides":10829,"requested":10830,"Ġchars":10831,"ExecutionContext":10832,"ĠRETURNING":10833,"lf":10834,"ely":10835,"Ġarea":10836,"regexp":10837,"ĠVERSION":10838,"Bind":10839,"RuntimeError":10840,"alam":10841,"examples":10842,"hello":10843,"geniÅŁle":10844,"ĠProb":10845,"LAS":10846,"AES":10847,"Lazy":10848,"lez":10849,"Ġallowing":10850,"yorumla":10851,"pipeline":10852,"Doc":10853,"Please":10854,"sip":10855,"Ġformula":10856,"Ġ{!":10857,"Ġargv":10858,"finder":10859,")*(":10860,"ceksiniz":10861,"milit":10862,"History":10863,"lv":10864,"}'":10865,"bileceÄŁini":10866,"dinlen":10867,"widgets":10868,"seks":10869,"ÅŁet":10870,"olesand":10871,"digit":10872,"pidgins":10873,"cutoff":10874,"Creolesand":10875,"Creolesandpidgins":10876,"Ġsamp":10877,"ceback":10878,"uluÄŁ":10879,"ĠPackage":10880,"transformation":10881,"situ":10882,"aliased":10883,"ĠeigBlockVector":10884,"karakter":10885,"fang":10886,"Ġreversed":10887,"ĠBin":10888,"traverse":10889,"koz":10890,"yici":10891,"cumsum":10892,"ĠCFG":10893,"Ġids":10894,"copg":10895,"quoted":10896,"ĠDon":10897,"copyright":10898,"devlet":10899,"Ġchoice":10900,"ĠRegression":10901,"MIN":10902,"cÄ±k":10903,"trom":10904,"tning":10905,"ino":10906,"silah":10907,"akÄ±l":10908,"aming":10909,"uba":10910,"dential":10911,"sende":10912,"subj":10913,"Ġsymbols":10914,"byrÃ¥":10915,"boÄŁaz":10916,"METHODS":10917,"ĠMapping":10918,"ĠPRON":10919,"Ġsche":10920,"Ã§ala":10921,"ĠEX":10922,"sysv":10923,"Fail":10924,"MODE":10925,"Ã¶dÃ¼l":10926,"npack":10927,"ayak":10928,"Ä±sÄ±nÄ±z":10929,"lerimizin":10930,"CM":10931,"Ġlowercase":10932,"Event":10933,"tÃ¶":10934,"tifier":10935,"acing":10936,"iddi":10937,"ĠEXT":10938,"Ġhad":10939,"ighet":10940,"grun":10941,"melding":10942,"iÃ§er":10943,"Ġpopul":10944,"Ġ/////////////////////////////////////////////////////////////////<":10945,"Is":10946,"New":10947,"gis":10948,"past":10949,"rapp":10950,"atet":10951,"Ġimportant":10952,"__(*":10953,"Ġsetter":10954,"Ġoptionally":10955,"gÃ¼lÃ¼m":10956,"IGNO":10957,"CONF":10958,"Generator":10959,"\"}<":10960,"rist":10961,"serte":10962,"Ġdge":10963,"ess":10964,"ĠEd":10965,"stride":10966,"neutron":10967,")[:,":10968,".'<":10969,"seudo":10970,"service":10971,"Ã¸mme":10972,"menter":10973,"doctest":10974,"checkfirst":10975,"asjonen":10976,"asjonene":10977,"katlan":10978,"Lin":10979,"Ġmarg":10980,"ĠPrint":10981,"ATEG":10982,"Ġinfinity":10983,"854":10984,":].":10985,"tj":10986,"ensor":10987,"stav":10988,"asÄ±z":10989,"Ġcoo":10990,"bered":10991,"Ġcodecs":10992,"UserWarning":10993,"ĠCalculate":10994,")',":10995,"mÃ¸r":10996,"Ġnx":10997,"Ġable":10998,"unlink":10999,"board":11000,"rang":11001,"lukt":11002,"yasal":11003,"rotvec":11004,"bigram":11005,"Ġcycles":11006,"'}":11007,"More":11008,"veks":11009,"Ġlock":11010,"ĠRequirement":11011,"ATT":11012,"Ä±ÄŁÄ±ndan":11013,"tanford":11014,"genel":11015,"sÃ¶mÃ¼r":11016,"ĠHTTPError":11017,"Ġinterpreted":11018,"Float":11019,"ural":11020,"izing":11021,"Ä±ÄŁÄ±nÄ±n":11022,"Ġrelations":11023,"netloc":11024,"Ġclick":11025,"]+(?:":11026,"Attributes":11027,"Ġinstallation":11028,"sÃ¼rÃ¼kle":11029,"Ġcircu":11030,"Ùĩ":11031,"Ġinfinite":11032,"Ġ'*":11033,"bibli":11034,"ARM":11035,"bulk":11036,"FIX":11037,"Glossary":11038,"must":11039,"lelse":11040,"titre":11041,"ilds":11042,"aday":11043,"resses":11044,"kwds":11045,"=\"%":11046,"LEMMA":11047,"ĠAllow":11048,"konkurranse":11049,"Jar":11050,"reh":11051,"lexi":11052,"coord":11053,"Ġthough":11054,"ĠMY":11055,"Ġsuitable":11056,"abetes":11057,"Ã§oÄŁal":11058,"_(<":11059,"izers":11060,"ĠEngine":11061,"skil":11062,"])),":11063,"production":11064,"longdouble":11065,"tasar":11066,"amaÃ§":11067,">###############################################################################<":11068,"Ġcutoff":11069,"pÃ¼r":11070,"Ġsge":11071,"oto":11072,"ĠTakes":11073,"Ġproc":11074,"ĠMem":11075,"Ġnewer":11076,"Ã§Ä±kart":11077,"rinkage":11078,"discard":11079,"Ġpredictions":11080,"morg":11081,"alandÄ±r":11082,"tici":11083,"Ġord":11084,"Ġquadrature":11085,"indicator":11086,"bindings":11087,"Ġ?":11088,"Ġ::<":11089,"Ġlate":11090,"ĠMac":11091,"ĠVAR":11092,"Expr":11093,"markers":11094,"Download":11095,"Ġhostname":11096,"Ġinitiator":11097,"SPE":11098,"ĠSkip":11099,"virtual":11100,"distinct":11101,"satis":11102,"rastla":11103,"catch":11104,"lst":11105,"adaÅŁ":11106,"ĠAuth":11107,"\"))":11108,"FDATA":11109,"Source":11110,"bort":11111,"Ġgets":11112,"Ġdeep":11113,"colgroup":11114,"ografi":11115,"Markup":11116,"sjo":11117,"was":11118,"Ã¶ld":11119,"keyword":11120,"umpro":11121,"']),":11122,"Ġtemplates":11123,"ĠMathematical":11124,"CLASS":11125,"natural":11126,"rappers":11127,"Ġinstrument":11128,"coverage":11129,"icket":11130,"Ġmultiparams":11131,"kavra":11132,"mediÄŁini":11133,"Ġconstructed":11134,"]**":11135,"sia":11136,"defs":11137,"chol":11138,"Ġdet":11139,"konser":11140,"LOCK":11141,"larÄ±nÄ±zÄ±":11142,".),":11143,"_))<":11144,"cpython":11145,"gli":11146,"}'.":11147,"gelen":11148,"ĠRandomState":11149,"Load":11150,"udent":11151,"sahne":11152,"(',":11153,"=(-":11154,"kod":11155,"ustr":11156,"lÃ¸nns":11157,"Tool":11158,"liÄŁinden":11159,"lastic":11160,"Null":11161,"hÃ¼k":11162,"Ġdialects":11163,"Ġexecutor":11164,"meyeceÄŁi":11165,"Generic":11166,"IGUOUS":11167,"Else":11168,"hvit":11169,"rfc":11170,"Ġreentran":11171,"Ġthing":11172,"usu":11173,"LINE":11174,"kale":11175,"Ġreferred":11176,"Ġderiv":11177,"antiles":11178,"Ġserialize":11179,"Ġws":11180,"ĠFFT":11181,"Ġproxied":11182,"Ġrespective":11183,"reground":11184,"tanÄ±m":11185,"Protocol":11186,"kolon":11187,"ColumnOperators":11188,"Ġconsistency":11189,"ĠQuery":11190,"onupdate":11191,"ashes":11192,"ĠSNI":11193,"froms":11194,"ĠRun":11195,"mazlÄ±k":11196,"retroflex":11197,"walk":11198,"mamak":11199,"sosy":11200,"suÃ§la":11201,"Feature":11202,"IGNORE":11203,"Action":11204,"Template":11205,"anten":11206,"tablename":11207,"fÃ¸l":11208,"ĠElementTree":11209,"kuvvet":11210,"Ġsizes":11211,"0001":11212,"Ã¶ngÃ¶r":11213,"Ġchoose":11214,"Ġidentical":11215,"\"%":11216,"JJ":11217,"Windows":11218,"Ġ]":11219,"Ġblas":11220,"convers":11221,"Ġlmbda":11222,"sess":11223,"MAP":11224,"oyun":11225,"Ġbuiltin":11226,"vekst":11227,"Ä±yorsun":11228,"bunn":11229,"Ġwon":11230,"skop":11231,"symbols":11232,"yitir":11233,"Ġfitted":11234,"Ġfilters":11235,"yÄ±rt":11236,"Ġsitu":11237,"Ġeas":11238,"ĠSET":11239,"bast":11240,"Ġinitialization":11241,"Ġ128":11242,"egacySpecifier":11243,"Ġ}}<":11244,"ood":11245,"loky":11246,"Ã¸p":11247,"Ġruns":11248,"melerine":11249,"99999999":11250,"udio":11251,"||":11252,"cim":11253,"toks":11254,"ktÃ¸r":11255,"Ġmanually":11256,"ĠLIMIT":11257,"eÄŁit":11258,"meyiÅŁ":11259,"Ä±ldÄ±z":11260,"ivar":11261,"Ġuri":11262,"Ġprocessed":11263,"zehir":11264,"fftw":11265,"Ordered":11266,"Run":11267,"bm":11268,"ertele":11269,"restr":11270,"Ġnotation":11271,"Ġydata":11272,"grade":11273,"mazlar":11274,"mamÄ±ÅŁtÄ±":11275,"KG":11276,"xc":11277,"Ġ\"\",":11278,"kende":11279,"ikti":11280,"Ġzge":11281,"classification":11282,"ĠDownload":11283,"Ġreli":11284,"Ġagg":11285,"olgun":11286,"entries":11287,"Ġgra":11288,"Ä±lda":11289,"overwrite":11290,"malarÄ±nÄ±n":11291,"funksjon":11292,"Ġmappings":11293,"lified":11294,"setstate":11295,"ĠLink":11296,"ĠWill":11297,"lion":11298,"ÅŁif":11299,"uts":11300,"agent":11301,"ĠOpen":11302,"squared":11303,"Ġcumulative":11304,"iden":11305,"amo":11306,"Ġnoise":11307,"umps":11308,"kabullen":11309,"hÃ¥r":11310,"ĠSV":11311,"Ġcos":11312,"kuru":11313,"nglish":11314,"440":11315,"uÃ§ur":11316,"fran":11317,"Ġsur":11318,"enticate":11319,"Ġdecorate":11320,"fotball":11321,"CONTIGUOUS":11322,"Ġcircuit":11323,"Ġscan":11324,"Ġlisted":11325,"doÄŁur":11326,"finalize":11327,"BINARY":11328,"DTree":11329,"Fold":11330,"Offset":11331,"_`":11332,"gÃ¥r":11333,"}\"":11334,"sical":11335,"lateral":11336,"Ġprinted":11337,"mayla":11338,"Mode":11339,"diklerini":11340,"Open":11341,"aner":11342,"Ġsubject":11343,"aching":11344,"Ġsourcecode":11345,"Ġobtained":11346,"vnclass":11347,"bilinÃ§":11348,"].<":11349,"draw":11350,"ĠAp":11351,"kaf":11352,"Ġcheckfirst":11353,"uyuÅŁ":11354,"baÄŁlan":11355,"yayÄ±mla":11356,"finans":11357,"Ġrendered":11358,"=[\"":11359,"ÅŁu":11360,"Ġcontraction":11361,"bugging":11362,"stanford":11363,"Ġlooks":11364,"varsall":11365,"Ġprimitive":11366,"Ġcge":11367,"ĠPP":11368,"imden":11369,"Ä±klÄ±k":11370,"Ġletter":11371,"uydu":11372,"ephes":11373,"Provides":11374,"operation":11375,"PIPE":11376,"certs":11377,"farts":11378,"Ġlag":11379,"Ġolder":11380,"gifts":11381,"']),<":11382,"remaining":11383,"skur":11384,"Ġprojection":11385,"iyors":11386,"Ã¼ÅŁÃ¼":11387,"eigen":11388,"arithm":11389,"Ġpen":11390,"Ġsubtree":11391,"Ġindexed":11392,"naly":11393,"undersÃ¸":11394,"kÄ±skan":11395,"organisasjon":11396,"386":11397,"kve":11398,"rdt":11399,"Ġwarm":11400,"Ġfilesystem":11401,"Ġaccum":11402,"Ġpersistent":11403,"sakin":11404,"kontrol":11405,"BOSE":11406,"zul":11407,"ledge":11408,"kws":11409,"lÃ¸n":11410,"TED":11411,"videre":11412,"boÅŁalt":11413,"STRATEG":11414,"Ġmagnet":11415,"STRATEGY":11416,"FD":11417,"cmp":11418,"hÃ¸r":11419,"ona":11420,"ÅŁar":11421,"skar":11422,"Ġans":11423,"ĠValid":11424,"nummer":11425,"FFSET":11426,"Ä±lmasÄ±":11427,"sdist":11428,"mest":11429,"Ġduplicate":11430,"ĠImp":11431,"edom":11432,"cons":11433,"ĠMaskedArray":11434,"Ġmoved":11435,"backward":11436,"Ġlinked":11437,"yaygÄ±n":11438,"patterns":11439,"setuptools":11440,"bundle":11441,"Ġproxies":11442,"sesong":11443,"hier":11444,"VERBOSE":11445,"APP":11446,"Ġconvention":11447,"ckets":11448,"preview":11449,"marks":11450,"ĠRo":11451,"Ġ80":11452,"feste":11453,"Ġmagneton":11454,"'\"<":11455,"sdk":11456,"incomplete":11457,"resi":11458,"LAGS":11459,"goal":11460,"Ġequation":11461,"Ġclusters":11462,"Ġcomparator":11463,"layÄ±ÅŁ":11464,"Ġtransformation":11465,"locations":11466,"yalÄ±":11467,"skade":11468,"ĠGenerator":11469,"Ġorthogonal":11470,"ancy":11471,"devi":11472,"hesap":11473,"teste":11474,"denet":11475,"Ġnewly":11476,"levels":11477,"8859":11478,"10000":11479,"HS":11480,"yÄ±ldÄ±z":11481,"sely":11482,"mala":11483,"latt":11484,"Iteration":11485,"lished":11486,"nasal":11487,"\"(?":11488,"alko":11489,"Ġrepeat":11490,"Ġwindows":11491,"master":11492,"([^":11493,"Ġhashes":11494,"Ġoverwri":11495,"Ġtranslation":11496,"Ġviews":11497,"Ġprivate":11498,"mir":11499,"sna":11500,"ĠChat":11501,"lyd":11502,"konsert":11503,"correlate":11504,"salt":11505,"Extra":11506,"Infinity":11507,"LY":11508,"cere":11509,"embed":11510,"sfor":11511,"pie":11512,"yetin":11513,"truediv":11514,"freds":11515,"ĠSplit":11516,"nditer":11517,"johnson":11518,"cad":11519,"muk":11520,"material":11521,"prefer":11522,"miÅŁler":11523,"ibrary":11524,"yes":11525,"Ġast":11526,"veren":11527,"alarÄ±n":11528,"Values":11529,"tekrarla":11530,"[^":11531,"``:":11532,"00000":11533,"denetle":11534,"ĠLinearOperator":11535,"esir":11536,"nz":11537,"peer":11538,"prover":11539,"recall":11540,"Ġprefixes":11541,"Entity":11542,"Ã¶rgÃ¼t":11543,"aur":11544,"alph":11545,"pez":11546,"fragment":11547,"nord":11548,"stok":11549,"mama":11550,"Ġknot":11551,"processEndTag":11552,"smid":11553,"ĠProtocol":11554,"ĠignoreEndTag":11555,"Ġsim":11556,"distances":11557,"Ġconditional":11558,"Ġ27":11559,"mitian":11560,"sars":11561,"`:":11562,"liz":11563,"estimate":11564,"masÄ±nda":11565,"ilerden":11566,"Ġcaller":11567,"modern":11568,"deÄŁin":11569,"stdlib":11570,"switch":11571,"diplo":11572,"ALLOWED":11573,"(.*":11574,"IV":11575,"secu":11576,"dimensions":11577,"bilme":11578,"Ã¶nle":11579,"legge":11580,"kamer":11581,"Ġstrictly":11582,"chanics":11583,"secutive":11584,"210":11585,"890":11586,"MET":11587,"boolean":11588,"Ġ{})<":11589,"Ġpickling":11590,"pickled":11591,"Could":11592,"rute":11593,"andan":11594,"Ġnpt":11595,"ekt":11596,"slÃ¥":11597,"Ġgoing":11598,"Ġhashlib":11599,"Ġlargest":11600,"Gram":11601,"]\")<":11602,"xC":11603,"Ġdeprecation":11604,"gÃ¶m":11605,"Ġmodifier":11606,"drs":11607,"ĠBaseEstimator":11608,"REQUI":11609,"eep":11610,"Ġ(?<":11611,"ĠImple":11612,"contrib":11613,"Ġposix":11614,"Ġobjective":11615,"Ġdiscard":11616,"ĠCPU":11617,"Max":11618,"onar":11619,"__):<":11620,"Ġexternal":11621,"lÄ±lar":11622,"euler":11623,"ora":11624,"Ġmul":11625,"speri":11626,"Ġunexpected":11627,"Ä±yÄ±z":11628,"coming":11629,"fÃ¸ring":11630,"CERT":11631,"Ã´":11632,"deep":11633,"Ġdays":11634,"Ġ'@":11635,"Ġ199":11636,"calc":11637,"Ä±ldÄ±k":11638,"uÄŁur":11639,"Ġtitles":11640,"nodot":11641,"RUN":11642,"Tran":11643,"learning":11644,"Ġblank":11645,"Ġnearest":11646,"filled":11647,"good":11648,"NDArray":11649,"Ġlisteners":11650,"Cell":11651,"Microsoft":11652,"hind":11653,"Ġtw":11654,"extern":11655,"skjer":11656,"()'":11657,"regjer":11658,"myn":11659,"spawn":11660,"Ġapproximate":11661,"Ġepsilon":11662,"61":11663,"stdin":11664,"liye":11665,"abart":11666,"imle":11667,"yav":11668,"yolla":11669,"ĠContent":11670,"hac":11671,"oin":11672,"Ø³":11673,"Ġeye":11674,"Ġ\"\"\"*":11675,"chin":11676,"chron":11677,"chunks":11678,"perm":11679,"kapas":11680,"nedSent":11681,"ĠCallableOperator":11682,"Ð°":11683,"orke":11684,"Ġfer":11685,"lil":11686,"gece":11687,"stemp":11688,"manner":11689,"medlem":11690,"Ġcriteria":11691,"MySQL":11692,"kÃ¼Ã§Ã¼l":11693,"ĠApache":11694,"Button":11695,"sult":11696,"rown":11697,"isdigit":11698,"ĠIs":11699,").\\<":11700,"ayarla":11701,"ĠXt":11702,"voice":11703,"Ġsigned":11704,"kalkÄ±ÅŁ":11705,"eofs":11706,"xd":11707,"cip":11708,"Ã¸st":11709,"ĠPO":11710,"agg":11711,":`\\":11712,"Ġalgorithms":11713,"geri":11714,"Ġtrying":11715,"translation":11716,"linger":11717,"acaÄŁÄ±":11718,"ĠZero":11719,"Ġchosen":11720,"Ġexceeds":11721,"ForeignKeyConstraint":11722,"686":11723,"DK":11724,"eager":11725,"kvit":11726,"}`":11727,"enabled":11728,"Ġec":11729,"chole":11730,"sette":11731,"Ġvisi":11732,"]]).":11733,"\\.[":11734,"leÅŁtirme":11735,"cholesky":11736,"reen":11737,"enu":11738,"Ġpack":11739,"skott":11740,"Ġunbounded":11741,"ĠBU":11742,"Ġsecure":11743,"cedent":11744,"swapaxes":11745,"debat":11746,"Ġ#################################":11747,"issubdtype":11748,"ĠSocket":11749,"imizde":11750,"csv":11751,"produkt":11752,"IGNORECASE":11753,"FA":11754,"kket":11755,"Ġri":11756,"maps":11757,"ĠTarget":11758,"ĠMARKER":11759,"ĠLE":11760,"masa":11761,"Ġcommit":11762,"encoder":11763,"stam":11764,"cha":11765,"fork":11766,"kaya":11767,"smÃ¸r":11768,"UNCT":11769,"tekst":11770,"skjÃ¦r":11771,">##############################################################################<":11772,"Chi":11773,"pkl":11774,"sÃ¦r":11775,"Ġevi":11776,"yah":11777,"UNI":11778,"komite":11779,"lular":11780,"Ġrestart":11781,"cian":11782,"Ġgunicorn":11783,"precomputed":11784,"ĠLike":11785,"reflect":11786,"created":11787,"ĠTraining":11788,"Label":11789,"pli":11790,"sut":11791,"aring":11792,"conjugate":11793,"Category":11794,"zir":11795,"Ø¨":11796,"ĠCOM":11797,"ĠLAPACK":11798,"WOR":11799,"cwd":11800,"lstrip":11801,"ĠChebyshev":11802,"hole":11803,"behandle":11804,"newbyteorder":11805,"kanun":11806,"anlara":11807,"fartÃ¸y":11808,"Copy":11809,"orks":11810,"Ġpat":11811,"lian":11812,"ligg":11813,"__'):<":11814,"tsym":11815,"Ġspacy":11816,"kana":11817,"ĠRequests":11818,"keÅŁfet":11819,"syllab":11820,"Script":11821,"kilen":11822,"logpdf":11823,"cisionTree":11824,"Ġdirname":11825,"Ġcalculation":11826,"dentials":11827,"stig":11828,"bjÃ¸r":11829,"ĠBut":11830,"ĠOut":11831,"tomUp":11832,"ĠBaseException":11833,"propagate":11834,"Serial":11835,"mol":11836,"Ġrestr":11837,"within":11838,"ceÄŁine":11839,"oldur":11840,"duration":11841,"ĠDictionary":11842,"Field":11843,"giz":11844,"vesen":11845,"Ġdims":11846,"ĠSu":11847,"Ġnamedtuple":11848,"distfn":11849,"ormalized":11850,"expressions":11851,"Ġdropped":11852,"mete":11853,"Ġflo":11854,"Ġdra":11855,"abilen":11856,"Tester":11857,"Ġvendored":11858,"bÄ±k":11859,"eam":11860,"Ġthus":11861,"prompt":11862,"readings":11863,"Ġpossibly":11864,"dobbel":11865,"syllabic":11866,"Ġdefer":11867,"ongo":11868,"sisjon":11869,"Ä±labilir":11870,"ĠTraceback":11871,"floor":11872,"ĠInterface":11873,"ĠConfiguration":11874,"nf":11875,"yara":11876,"Ã¸v":11877,"lenen":11878,"instit":11879,"nnz":11880,"abet":11881,"Ġanchor":11882,"istisk":11883,"Ġsubsequent":11884,"Ġ1024":11885,"fraction":11886,"planla":11887,"larÄ±mÄ±za":11888,"jacobian":11889,"eÅŁit":11890,"Ġstaticmethod":11891,"yadÄ±r":11892,"Ġnom":11893,"needs":11894,"Ġmaps":11895,"notes":11896,"interpolate":11897,"dÃ¼ÄŁÃ¼n":11898,"Ġfloats":11899,"melke":11900,"bÃ¥nd":11901,"Ġquick":11902,"Ġantiderivative":11903,"gning":11904,"shutdown":11905,"resultat":11906,"IONS":11907,"Ġequals":11908,"fÃ¸re":11909,"bygning":11910,"yo":11911,"Ġcard":11912,":`._":11913,"initi":11914,"avor":11915,"tarih":11916,"Ġbuffering":11917,"siduals":11918,"/{":11919,"Enum":11920,"ffi":11921,"ÏĦ":11922,"readed":11923,"Ġrnd":11924,"REMENT":11925,"ĠParameter":11926,"mezler":11927,"Ġintersection":11928,"docstring":11929,"bilities":11930,"brun":11931,"quirements":11932,"daysa":11933,"Ġlinker":11934,"Ġurlparse":11935,"crease":11936,"sÃ¼re":11937,"Ġaffect":11938,"matmat":11939,"imde":11940,"loading":11941,"ART":11942,"Ġoverhead":11943,"taki":11944,"TEST":11945,"soyun":11946,"otonic":11947,"ECT":11948,"Given":11949,"plas":11950,"Ġtell":11951,"ĠCase":11952,"processSpaceCharacters":11953,"kaybol":11954,"ĠstartTagTable":11955,"Ġmanifest":11956,"ĠendTagTable":11957,"ĠinnerHTML":11958,"Ġpurposes":11959,"forretning":11960,"Ġresponses":11961,"aspirated":11962,"Ã§ocuk":11963,">\"<":11964,"kks":11965,"Ġpint":11966,"Ġsquares":11967,"avis":11968,"Ġbases":11969,"dating":11970,"eh":11971,"fuz":11972,"hop":11973,"isim":11974,"usion":11975,"}\")<":11976,"labeled":11977,"Ġls":11978,"Ã¼nÃ¼":11979,"lingen":11980,"kjÃ¦r":11981,"Ġproportion":11982,"Ġassignment":11983,"forbund":11984,"lingene":11985,"à¦¾":11986,"savepoint":11987,"bombal":11988,"Ġbroadcasting":11989,"SQ":11990,"arable":11991,"rÃ¸d":11992,"RU":11993,"maks":11994,"__``":11995,"isscalar":11996,"ĠNUM":11997,"sorum":11998,"Dictionary":11999,"kjÃ¸p":12000,"Ġobtain":12001,"nÃ¥":12002,"rz":12003,"erer":12004,"melse":12005,"ĠForeignKey":12006,"sending":12007,"Ġutils":12008,"Vectorizer":12009,"sapparat":12010,"Aspect":12011,"kvi":12012,"sje":12013,"yl":12014,"Ġauthor":12015,"spatial":12016,"Ġautos":12017,"Security":12018,"inplace":12019,"laÅŁt":12020,"dÃ¼re":12021,"blod":12022,"xD":12023,"instances":12024,"ards":12025,"quir":12026,"Ġsto":12027,"Ġhalf":12028,"ĠThey":12029,"zete":12030,"ĠcurrentNode":12031,"activeFormattingElements":12032,"Double":12033,"2011":12034,"SearchCV":12035,"nexpected":12036,"yurt":12037,"alone":12038,"optimal":12039,"trl":12040,"equality":12041,"hotell":12042,"REN":12043,"lighets":12044,"ĠOrder":12045,"EXPR":12046,"Î½":12047,"Ġwerkzeug":12048,"umla":12049,"ationError":12050,"enever":12051,"uzman":12052,"wordnet":12053,"Ġ\\*":12054,"sync":12055,"ĠMetaData":12056,"tup":12057,"altÄ±":12058,"Ġplan":12059,"toparla":12060,"regate":12061,"explicit":12062,"Ġhooks":12063,"possible":12064,"hallet":12065,"CONFIG":12066,"'(?":12067,"NULL":12068,"reform":12069,"Ġnm":12070,"Ġxdata":12071,"skot":12072,"stev":12073,"Prop":12074,"media":12075,"Location":12076,"893":12077,"Ġsummary":12078,"RetryError":12079,"Ġscaled":12080,">âĢ¢":12081,"]]),":12082,"wning":12083,"determin":12084,"cod":12085,"Ġthird":12086,"spunkt":12087,"strÃ¥":12088,"kappa":12089,"Ġdownloaded":12090,"Ġmiddle":12091,"Failure":12092,"=\"\",":12093,"SCHE":12094,"cumpro":12095,"details":12096,"Ġrem":12097,"Ġgkde":12098,"ĠMSVC":12099,"werkzeug":12100,"`.\"\"\"<":12101,"java":12102,"kÄ±m":12103,"klÃ¸":12104,"ĠHA":12105,"Ġexponential":12106,"geÃ§iÅŁ":12107,"probability":12108,"Ġarchitecture":12109,"Ġmarked":12110,"restype":12111,"EXTRA":12112,"tis":12113,"percentile":12114,"feat":12115,"syste":12116,"401":12117,"Worker":12118,"ulk":12119,"park":12120,"Ġmeter":12121,"polation":12122,"CKET":12123,"basis":12124,"transition":12125,"lÃ¦rer":12126,"handels":12127,"Bal":12128,"Next":12129,"lÄ±ÄŁÄ±nÄ±":12130,"erator":12131,"Ġspect":12132,"getvalue":12133,"Ġ33":12134,"layer":12135,"layabilir":12136,"latex":12137,"PEP":12138,"ahla":12139,"Ġapproach":12140,"Ġderive":12141,"analyzer":12142,"Asia":12143,"garn":12144,"mate":12145,"rf":12146,"semp":12147,"erings":12148,"Ġrvs":12149,"matmul":12150,"Ġkeywords":12151,"klÃ¦r":12152,"forslag":12153,"Ã¶nemse":12154,"feng":12155,"atÄ±l":12156,"ĠCol":12157,"leÅŁtiÄŁ":12158,"([[[":12159,"zÄ±":12160,"spam":12161,"Ġyields":12162,"compressed":12163,"Ġvoid":12164,"effici":12165,"kontak":12166,"tann":12167,"Ġadds":12168,"multipart":12169,"bottom":12170,"bilirsiniz":12171,"merkez":12172,"/~":12173,"iten":12174,"Ã§ay":12175,"cessible":12176,"Ġdecomposition":12177,"cap":12178,"klor":12179,"Ġplugin":12180,"(\":":12181,"kopy":12182,"tta":12183,"Î¼":12184,"verts":12185,"Ġoverflow":12186,"legate":12187,"Ġlooking":12188,"kiÅŁi":12189,"Sh":12190,"aktig":12191,"002":12192,"mayÄ±z":12193,"lerinizi":12194,"nyms":12195,"cases":12196,"specifiers":12197,"mbiguous":12198,"-\\":12199,"Ha":12200,"Line":12201,"ontal":12202,"ctree":12203,"ĠTemp":12204,"ĠCurrent":12205,"Ġunne":12206,"ĠOP":12207,"Ġiteritems":12208,"uyors":12209,"STAT":12210,"Too":12211,"baÄŁÄ±m":12212,"NOT":12213,"hall":12214,"ydim":12215,"Î¹":12216,"Ġnul":12217,"atever":12218,"odd":12219,"ĠPPoly":12220,"Ä±yÄ±":12221,"Ġnonlin":12222,"DET":12223,"062":12224,"soyut":12225,"nÃ¸d":12226,"grense":12227,"ĠpublicId":12228,"Ġsite":12229,"cesa":12230,"olated":12231,"ĠEmpty":12232,"matched":12233,"mote":12234,"Ġnoverlap":12235,"pical":12236,"ĠInverse":12237,"regn":12238,"SESSION":12239,"Ġverbosity":12240,"Ġtech":12241,"Ġcent":12242,"olution":12243,"ÅŁÄ±r":12244,"Ġ197":12245,"documents":12246,"polymul":12247,"mÃ¼s":12248,"brett":12249,"buffered":12250,"Ġautosummary":12251,"adi":12252,"reject":12253,"ĠIBMModel":12254,"Ã§am":12255,"ctionaries":12256,"Ġ`_":12257,"ardÄ±r":12258,"807":12259,"Ġoffsets":12260,"kutla":12261,"skifte":12262,"ABCMeta":12263,"Package":12264,"dÄ±nÄ±z":12265,"ufuncs":12266,"seman":12267,"Ġemp":12268,"Ġeinsum":12269,"sprin":12270,"passthrough":12271,"bland":12272,"iker":12273,"Ġincorrect":12274,"chlet":12275,"ÄŁe":12276,"mallest":12277,"iyse":12278,"))]<":12279,"anced":12280,"Ġtherefore":12281,"TOKEN":12282,"Ã¼stlen":12283,"prosjekt":12284,"conversation":12285,"Ġregion":12286,"Ġrd":12287,"ĠFra":12288,"Ġsorting":12289,"VARCHAR":12290,"epoch":12291,"ickle":12292,"kvar":12293,"></":12294,"robj":12295,"skÃ¥":12296,"yeti":12297,"inntekts":12298,"forening":12299,"fullname":12300,"macro":12301,"Ġspecifically":12302,"Ġchoices":12303,"taraf":12304,"Graph":12305,"Use":12306,"malÄ±ydÄ±":12307,"masÄ±dÄ±r":12308,"Ġintended":12309,"Ä±nÄ±zÄ±n":12310,"mazsa":12311,"COPY":12312,"hale":12313,"yrke":12314,"Lock":12315,"kalkÄ±n":12316,"jk":12317,"jakt":12318,"rub":12319,"tl":12320,"skin":12321,"skum":12322,"fox":12323,"Ġalph":12324,"Ġmove":12325,"manent":12326,"ĠRule":12327,"Ġzone":12328,"bilirler":12329,"ministr":12330,"pazar":12331,"ctive":12332,"ui":12333,"akar":12334,"oder":12335,"Ġrc":12336,"')[":12337,"gÃ¼dÃ¼":12338,"Ã§eÅŁit":12339,"anlardan":12340,"tÃ¶r":12341,"ano":12342,"Ġdrs":12343,"Ġmutable":12344,"ĠSDK":12345,"tilbake":12346,"lanacak":12347,"Ġoperate":12348,"Parallel":12349,"komitÃ©":12350,"lastoper":12351,"Ġmysql":12352,"0644":12353,"yabancÄ±":12354,"amax":12355,"flÃ¸y":12356,"jene":12357,"mssql":12358,"declarative":12359,"Ġ256":12360,"gÃ¶l":12361,"onga":12362,"localhost":12363,"nowledge":12364,"ulykke":12365,")}<":12366,"MD":12367,"Prs":12368,"cru":12369,"xfail":12370,"asures":12371,"umu":12372,"ĠAxis":12373,"kole":12374,"gÃ¶Ã§":12375,"ileno":12376,"RES":12377,"ĠFormat":12378,"middle":12379,"skontor":12380,"mjÃ¸lke":12381,"(\"\"":12382,".-":12383,"{\\":12384,"Ã¤":12385,"eski":12386,"Ġnewline":12387,"regul":12388,"newton":12389,"errno":12390,"kts":12391,"svi":12392,"inherits":12393,"sivil":12394,"visjon":12395,"2002":12396,"bahÃ§e":12397,"Bas":12398,"KE":12399,"`::<":12400,"gizle":12401,"lems":12402,"spri":12403,"composite":12404,"arap":12405,"hide":12406,"diÄŁinde":12407,"uerre":12408,"VP":12409,"WAR":12410,"ttet":12411,"rea":12412,"islam":12413,"ĠFlask":12414,"precisions":12415,"hopp":12416,"Ġpolymorphic":12417,"handlings":12418,"\")[":12419,"kÃ¼re":12420,"glue":12421,"sark":12422,"ond":12423,"selska":12424,"Ġcomes":12425,"structure":12426,"Ġreferenced":12427,"ĠMeV":12428,"Ġhess":12429,"anian":12430,"COMMA":12431,"reconstructActiveFormattingElements":12432,"Some":12433,"kule":12434,"absol":12435,"Ã§in":12436,"curate":12437,"Ġunion":12438,"775":12439,"warded":12440,"confstr":12441,"bik":12442,"represent":12443,"fiyat":12444,"ĠInt":12445,"strumented":12446,"skÃ¸y":12447,"minimize":12448,"koval":12449,"autoincrement":12450,"larÄ±mÄ±":12451,"kÄ±yas":12452,"Application":12453,"<=":12454,"easy":12455,"sans":12456,"Ã§uk":12457,"Ġaccessible":12458,"mlb":12459,"ĠStack":12460,"Ã§iÃ§ek":12461,"Interval":12462,"Down":12463,"CreateDrop":12464,"onyms":12465,"CreateDropBase":12466,"DDL":12467,"Ġ[_":12468,"strained":12469,"Ġintervals":12470,"hoÅŁlan":12471,"Supp":12472,"ei":12473,"sord":12474,"Ġtgrep":12475,"ĠNY":12476,"Ġpresence":12477,"Ġlay":12478,"')),":12479,"anything":12480,"ĠEntry":12481,"unix":12482,"etree":12483,"rente":12484,"Ġlinspace":12485,"ĠDetermin":12486,"Ġcauses":12487,"Ġobserved":12488,"Ġcombined":12489,"hypergeom":12490,"}}":12491,"brÃ¥":12492,"yÃ¼rek":12493,"oload":12494,"Ġmultiplication":12495,"pezoid":12496,"wraps":12497,"pes":12498,"Ġedi":12499,"Ġufuncs":12500,"Ġrho":12501,"Ã¼nÃ¼z":12502,"detect":12503,"ciphers":12504,"Ã¶fke":12505,"REMOVE":12506,"`:<":12507,"alive":12508,"Ġ')<":12509,"Ġdp":12510,"Ġdelimiter":12511,"Ġvol":12512,"miÅŁim":12513,"Ä±mÄ±zda":12514,"Param":12515,"dbc":12516,"modulename":12517,"arkadaÅŁ":12518,"Doctype":12519,"combine":12520,"ĠBoxer":12521,"stad":12522,"otom":12523,"ĠThat":12524,"resholds":12525,"()),":12526,"Ġ[\"-":12527,"Ġclosing":12528,"pls":12529,"{}\".":12530,"ĠUNION":12531,"Scal":12532,"rund":12533,"Ġill":12534,"tein":12535,"ĠFIX":12536,"pypy":12537,"minister":12538,"konfer":12539,"Convert":12540,"mÄ±ÅŁÄ±m":12541,"egree":12542,"mellom":12543,"internals":12544,"Ġsqlite":12545,"Rom":12546,"dirler":12547,"Provider":12548,"CEPT":12549,"anion":12550,"QUE":12551,"urope":12552,"Ġrollback":12553,"cesaret":12554,"Op":12555,"gold":12556,"nbytes":12557,"Ġski":12558,"yaptÄ±r":12559,"binator":12560,"lenebil":12561,"ConnectionError":12562,"fÃ¸rer":12563,"Ġunpacker":12564,"Ġpredicted":12565,"ĠBecause":12566,"Ġvnclass":12567,"MT":12568,"When":12569,"vp":12570,"metic":12571,"tify":12572,"Ġfac":12573,">'<":12574,"Ġbg":12575,"BytesIO":12576,"ium":12577,"enin":12578,"spl":12579,"mos":12580,"ĠBot":12581,"ceÄŁiz":12582,"svn":12583,"snit":12584,"botn":12585,"RequestException":12586,"edil":12587,"warm":12588,"ĠEdward":12589,"ĠFIXME":12590,"wap":12591,"Ġmx":12592,"Ġ:,":12593,"()])<":12594,"kÃ¼f":12595,"equiv":12596,"BJ":12597,"dor":12598,"ety":12599,"frel":12600,"buz":12601,"untu":12602,"virke":12603,"Ä±mÄ±zdan":12604,"Ġ90":12605,"malarÄ±n":12606,"landÄ±rÄ±l":12607,"kiler":12608,"luster":12609,"Ġ],":12610,"delik":12611,"inian":12612,"maxsize":12613,"Ġends":12614,"Ġestimates":12615,"hjul":12616,">`_":12617,"tegne":12618,"ĠInitialize":12619,"hockey":12620,"allocate":12621,"CR":12622,"fisk":12623,"ucu":12624,"stene":12625,"student":12626,"measure":12627,"Ġenforce":12628,"Ġfinding":12629,"ĠApplication":12630,"Ġlexical":12631,"iinfo":12632,"Ġpu":12633,"une":12634,"Ġwidgets":12635,"(\"[":12636,"invalidate":12637,"PACE":12638,"DIST":12639,"Ġearly":12640,"lÄ±ÄŁa":12641,"ĠDO":12642,"dÃ¼ÄŁ":12643,"Ġ|=":12644,"takÄ±l":12645,"betaling":12646,"Des":12647,"kere":12648,"Ġsaf":12649,"spot":12650,"toctree":12651,"Ġwhatever":12652,"masse":12653,"seng":12654,"venn":12655,"dayÄ±z":12656,"Ġformatted":12657,"bakan":12658,"gov":12659,"madÄ±klarÄ±":12660,"Ġlowest":12661,"vÃ¥pen":12662,"ĠLeaf":12663,"Ġdidn":12664,"bag":12665,"idi":12666,"svar":12667,"vakt":12668,"Ġhidden":12669,"prev":12670,"miÅŁiz":12671,"penge":12672,"Ã§ekiÅŁ":12673,"toml":12674,"063":12675,"huk":12676,"|<":12677,"Ġ\"$":12678,"Ġdictionaries":12679,"voke":12680,"MAL":12681,"kjÃ¸tt":12682,"whereclause":12683,"mamasÄ±nÄ±":12684,"observed":12685,"ology":12686,"zÄ±r":12687,"inge":12688,"Ġedit":12689,"ortak":12690,"ĠSimilar":12691,"ĠGa":12692,"sakÄ±n":12693,"SERVER":12694,"BivariateSpline":12695,"gard":12696,"usage":12697,"ulaÅŁtÄ±r":12698,"compressor":12699,"density":12700,"ĠOFFSET":12701,"writeable":12702,"Ġhandles":12703,"Ġmarkers":12704,"Ġmentioned":12705,"Ġdivmod":12706,"Drt":12707,"rr":12708,"ÅŁark":12709,"umur":12710,"beyaz":12711,"ĠLoper":12712,"laÅŁÄ±r":12713,"Ġ[[(":12714,"krigs":12715,"Ġpayload":12716,"yeÅŁil":12717,"enke":12718,"private":12719,"Ġcontinuous":12720,"ĠApply":12721,"removed":12722,"formid":12723,"ilim":12724,"Ġexport":12725,"ĠKEY":12726,"misjon":12727,"holder":12728,"oremTool":12729,"eter":12730,"fred":12731,"psi":12732,"Ġ\"|":12733,"mese":12734,"urg":12735,"geÃ§e":12736,"aktivi":12737,"byr":12738,"curity":12739,"Ã§ekin":12740,"SyntaxError":12741,"cumprod":12742,"''<":12743,"LATE":12744,"RuntimeWarning":12745,"Î»":12746,"Ġreached":12747,"chunked":12748,"ĠALL":12749,"conll":12750,"senti":12751,"Insert":12752,"inizden":12753,"Unable":12754,"Ġreflect":12755,"Ġcopies":12756,"`-":12757,"Ð¸":12758,"depar":12759,"Ġmt":12760,"ĠPOS":12761,"fileobj":12762,"tagset":12763,"BACKENDS":12764,"depo":12765,"mekle":12766,"Ġinline":12767,"umb":12768,"ĠSec":12769,"ĠSchema":12770,"kaye":12771,"Ä±zÄ±n":12772,"ssam":12773,"ĠVIE":12774,"mÄ±ÅŁlar":12775,"ydik":12776,"Ġdepgraph":12777,"Ġbyteorder":12778,"ĠEnvironment":12779,"prodlist":12780,"Ġattach":12781,"ategorical":12782,"PredictRule":12783,"though":12784,"argtypes":12785,"hours":12786,"\")):<":12787,"garanti":12788,"Iterator":12789,"Ġdestination":12790,"gla":12791,"pub":12792,"ziy":12793,"anger":12794,"mec":12795,"Ġinspection":12796,"unify":12797,"laste":12798,"Ġconsecutive":12799,"Ġpathlib":12800,"Exp":12801,"Ã¶zle":12802,"Ġhour":12803,"Ġlbnd":12804,"kÄ±zÄ±l":12805,"elekt":12806,"Ġinterpret":12807,"Ġimprove":12808,"Cur":12809,"kine":12810,"pell":12811,"Ġmetrics":12812,"Ġ{},":12813,"validator":12814,"gian":12815,"aving":12816,"dayat":12817,"entication":12818,"legal":12819,"ĠSetting":12820,"korkut":12821,"ĠSteven":12822,"Ġbracket":12823,"cognized":12824,"gut":12825,"gap":12826,"decl":12827,"andaÅŁ":12828,"Ġ28":12829,"bula":12830,"DEF":12831,"]+)*":12832,"Ġdescr":12833,"Ġfinalize":12834,",\"":12835,"Bar":12836,"ĠFa":12837,"ĠMenu":12838,"minutes":12839,"imating":12840,"LSB":12841,"yasakla":12842,"skjel":12843,"FUNCTION":12844,":\")<":12845,"Warned":12846,"dÃ¼rÃ¼":12847,"descriptor":12848,"Ġfi":12849,"cem":12850,"ÅŁÄ±m":12851,"vegg":12852,"issparse":12853,"Ġ[(\"":12854,"menubar":12855,"umper":12856,"IncompleteRead":12857,"Ġactiv":12858,"MANY":12859,"bilirdi":12860,"Ġdiscourse":12861,"PAREN":12862,"KeyError":12863,"ceksin":12864,"cevap":12865,"Ġstarted":12866,"ude":12867,"uve":12868,"Ġradius":12869,"Ġahead":12870,"Ġmm":12871,"Ġcookies":12872,"Ä±ÅŁÄ±n":12873,"grupp":12874,"Undefined":12875,"Ġ:])<":12876,"==<":12877,"ggers":12878,"Ã§atÄ±ÅŁ":12879,"Ġciphers":12880,"DDLE":12881,"ato":12882,"mesa":12883,"assoc":12884,"ĠPhase":12885,"skud":12886,"Ġintent":12887,"mezse":12888,"altÄ±n":12889,"gÃ¶zet":12890,"Ġseparately":12891,"StringIO":12892,"PREFIX":12893,"ĠCSR":12894,"cdt":12895,"inx":12896,"ÅŁamp":12897,"cookies":12898,"omic":12899,"Ġ45":12900,"importer":12901,"cekti":12902,"devret":12903,"Ġlittle":12904,"sapta":12905,"Ġresolution":12906,"nasjonal":12907,"Ġ())<":12908,"Ġ36":12909,"kanal":12910,"mayacaktÄ±r":12911,"foto":12912,"mekten":12913,"ÅŁim":12914,"proj":12915,"Ġgrad":12916,"skam":12917,"Ġvdata":12918,"overnor":12919,"mazdÄ±":12920,"relative":12921,"Count":12922,"drift":12923,"Foundation":12924,"mektedirler":12925,"anythingElse":12926,"tÃ¸":12927,"turist":12928,"ĠSystem":12929,"licing":12930,"ÅŁeh":12931,"Ġapplying":12932,"})>\".":12933,"'''<":12934,"HTM":12935,"miyors":12936,"\"^\\":12937,"tese":12938,"Ã§el":12939,"isect":12940,"trik":12941,"laÅŁma":12942,"Inspection":12943,"avrup":12944,"failed":12945,"sekret":12946,"integers":12947,"Ġpropag":12948,"Ġcoordinates":12949,"Ġbaseline":12950,"]``<":12951,"_\\":12952,"fren":12953,"pis":12954,"Ġpare":12955,"Ġpending":12956,"fromfile":12957,"htar":12958,"DEX":12959,"Ġconstructing":12960,"AssertionError":12961,"scaled":12962,"ĠMethods":12963,"Ġconjunction":12964,"HN":12965,"Random":12966,"hili":12967,"',),":12968,"ĠAnd":12969,"Ġhold":12970,"005":12971,"imer":12972,"prest":12973,"bahar":12974,"linga":12975,"messages":12976,"NOWN":12977,"Ġmetaclass":12978,"rahatla":12979,"militÃ¦r":12980,"blan":12981,"sall":12982,"Ġ'|":12983,"ĠFrom":12984,"ĠWAR":12985,"kwarg":12986,"figure":12987,"ĠJO":12988,"hertz":12989,"Ġbindparam":12990,"PYTHON":12991,"Ġbroken":12992,"ĠMechanics":12993,"Ġangles":12994,"ĠPerform":12995,"hot":12996,"iÃ¸r":12997,"dekk":12998,"gete":12999,"etki":13000,"umption":13001,"gazete":13002,"dflags":13003,"overvÃ¥":13004,"ĠZip":13005,"informative":13006,"ĠControl":13007,"hul":13008,"isi":13009,"anted":13010,"Ġwhenever":13011,"triu":13012,"minal":13013,"Ġlexi":13014,"acaÄŁÄ±nÄ±":13015,"Ġupdates":13016,"Ġidentify":13017,"Args":13018,"Auth":13019,"MMIT":13020,"Pol":13021,"Unexpected":13022,"rÃ¼":13023,"iÅŁit":13024,"Insensitive":13025,"Ġvaluation":13026,"Char":13027,"yorlar":13028,"cripts":13029,"Ġtrg":13030,"leÅŁtirile":13031,"ĠLookupError":13032,"cumhur":13033,"TOCOMMIT":13034,"\"(":13035,"Upper":13036,"fx":13037,"llipsis":13038,"sinn":13039,"iÅŁlet":13040,"strided":13041,"kanÄ±tla":13042,"LOC":13043,"editable":13044,"Ġminimizer":13045,"Ġsmoothing":13046,"WSGI":13047,"Îĳ":13048,"anlarÄ±":13049,"Ġfilled":13050,"Ġodd":13051,"quo":13052,"eder":13053,"Ã§or":13054,"Ġ``-":13055,"settelse":13056,"noun":13057,"ĠLine":13058,"Ġsuite":13059,"Ġlead":13060,"Conflict":13061,"background":13062,"Ġperm":13063,"COL":13064,"Ġbigram":13065,"samfunns":13066,"Ġrespectively":13067,"hierarchy":13068,"absolute":13069,"mw":13070,"sche":13071,"\"\"<":13072,"endar":13073,"Ġprecisions":13074,"Ġ440":13075,"Ġellip":13076,"GHT":13077,"gari":13078,"kÃ¥":13079,"xn":13080,"atin":13081,"stip":13082,"accuracy":13083,"enek":13084,"trailing":13085,"uzla":13086,"Ġsubok":13087,"Ġsampling":13088,"Cha":13089,"press":13090,"stik":13091,"leke":13092,"NAL":13093,"ĠKeep":13094,"COOK":13095,"Alg":13096,"ADJ":13097,"ELFDATA":13098,"rinks":13099,"fficiency":13100,"FCLASS":13101,"COOKIE":13102,"cuk":13103,"fru":13104,"LIB":13105,"labor":13106,"denge":13107,"diÄŁinden":13108,"Ġindicator":13109,"brott":13110,"ationshipProperty":13111,"Ġretrieve":13112,"à§ĩ":13113,"numerics":13114,"Fem":13115,"jaz":13116,"svg":13117,"yayÄ±m":13118,"sÄ±ra":13119,"Ġaliased":13120,"Ġidea":13121,"/#":13122,"Cor":13123,"Raw":13124,"yoz":13125,"}]":13126,"Ġplat":13127,"ĠIssue":13128,"ĠĠĠĠĠĠĠĠĠĠĠĠĠĠĠĠĠĠĠĠĠĠĠĠĠĠĠĠĠĠĠĠĠĠĠĠĠĠĠĠĠĠĠĠĠĠĠĠ":13129,"ardless":13130,"Ġsysconfig":13131,"pensjon":13132,"142":13133,"Ġredirects":13134,"grunnlag":13135,"Ġluinfo":13136,"black":13137,"dlmf":13138,"kontrakt":13139,"BLACK":13140,"rabic":13141,"bask":13142,"rection":13143,"aye":13144,"ĠBPoly":13145,"leÅŁir":13146,"uzat":13147,"gauss":13148,"sanat":13149,"Note":13150,"Ġmanual":13151,"({'":13152,"Ġspherical":13153,"heyecan":13154,"Ga":13155,"clib":13156,"dun":13157,"delen":13158,"selen":13159,"Ġpiv":13160,"Ġtool":13161,"lyn":13162,"ssjef":13163,"VERB":13164,"FUNC":13165,"Frisian":13166,"bbe":13167,"sections":13168,"Ã¼ne":13169,"keywords":13170,"Ġunsupported":13171,"ĠMach":13172,"mayÄ±p":13173,"Ġshouldn":13174,"STORE":13175,"STAMP":13176,"ROOT":13177,"secondary":13178,"yÄ±ka":13179,"cm":13180,"gjer":13181,"governor":13182,"dikten":13183,"Ġwel":13184,"ÅŁÃ¶":13185,"cio":13186,"Ġloops":13187,"Ġsole":13188,"duced":13189,"]*<":13190,"HeaderDict":13191,"madÄ±ÄŁÄ±nÄ±z":13192,"Synset":13193,"rant":13194,"attrib":13195,"demi":13196,"Ġisscalar":13197,"hayal":13198,"oda":13199,"ĠSing":13200,"pyobj":13201,"konto":13202,"\")),":13203,")'<":13204,"Ġnatural":13205,"forhÃ¥nds":13206,"dost":13207,"ĠDel":13208,">#----------------------------------------------------------------":13209,"Ġcompressed":13210,"Ġsubscripts":13211,"toplan":13212,"Ġfeaturesets":13213,"rekord":13214,"Ġaccelerator":13215,"FIELDS":13216,"ĠProtocolError":13217,"`).<":13218,"hang":13219,"Ġtup":13220,"Ġreprodu":13221,"ĠAc":13222,"ĠFound":13223,"area":13224,"singular":13225,"syk":13226,"phrase":13227,"kanat":13228,"contextlib":13229,"tutuÅŁ":13230,"dyb":13231,"drifts":13232,"ĠactiveBlockVector":13233,"Ġpurpose":13234,"periodic":13235,"Sdk":13236,"bg":13237,"xk":13238,"Ġtensor":13239,"Ġpseudo":13240,"oml":13241,"stry":13242,"-----------<":13243,"gerile":13244,"shard":13245,"tutun":13246,"5555":13247,"meÅŁru":13248,"Ġamong":13249,"brans":13250,"blank":13251,"rac":13252,"boxes":13253,"cursors":13254,"liÄŁinde":13255,"Local":13256,"dependency":13257,"callbacks":13258,"othesis":13259,"forsikring":13260,"Ġsides":13261,"veti":13262,"ĠVB":13263,"ĠWorker":13264,"ĠWRITE":13265,"universal":13266,"WHITE":13267,"tegration":13268,"Wri":13269,"Ġcython":13270,"iller":13271,"Ġdg":13272,"ĠCR":13273,"ferd":13274,"ourier":13275,"Scaler":13276,"Ġsafely":13277,"memek":13278,"Ġnc":13279,"behov":13280,"pyodbc":13281,"ayet":13282,"anske":13283,"ftware":13284,"eÄŁi":13285,"Ġattempting":13286,"kahram":13287,"abspaths":13288,"Ġ(?:[":13289,"ultinomialNB":13290,"ĠBinary":13291,"2000":13292,"Mac":13293,"Trust":13294,"spir":13295,"boya":13296,"ĠMan":13297,"ĠLet":13298,"filenames":13299,"CTYPE":13300,"geÃ§in":13301,"Decoder":13302,"boxcox":13303,"madÄ±lar":13304,"\\'":13305,"ima":13306,"lÄ±ÄŁÄ±m":13307,"yun":13308,"registr":13309,"getattribute":13310,"ĠCA":13311,"skor":13312,"Ġdomains":13313,"Ġcolors":13314,"likle":13315,"vedtak":13316,"yncio":13317,"toll":13318,"postargs":13319,"Ġ123":13320,"Ġbehaviour":13321,"forsknings":13322,"gevÅŁe":13323,"duplicates":13324,"wrong":13325,"mplemented":13326,"pret":13327,"hashes":13328,"RAW":13329,"Ġscroll":13330,"informasjons":13331,"Neighbors":13332,"VALUE":13333,"]}":13334,"ledd":13335,"ots":13336,"fiÅŁ":13337,"izasyon":13338,"beit":13339,"inds":13340,"Ä±mdan":13341,"bage":13342,"Ġleave":13343,"eksi":13344,"ĠJohn":13345,"Compile":13346,"Logging":13347,"Ã¸mmer":13348,"****************":13349,"NaT":13350,"svmlight":13351,"(#":13352,"Ġincrement":13353,"comple":13354,"ĠNegative":13355,"ĠMore":13356,"ĠHz":13357,"])[":13358,"Ġcomments":13359,"rapor":13360,"Prob":13361,"Ġadjac":13362,"bÃ¼yÃ¼k":13363,"tically":13364,"skjÃ¸r":13365,"Ġcleanup":13366,"Ã§iÄŁne":13367,"Polarity":13368,"BIT":13369,"raj":13370,"Ã§ir":13371,"Ã§iliÄŁ":13372,"ĠClo":13373,"slutt":13374,"mission":13375,"RANGE":13376,"VARS":13377,"forsikre":13378,"kÄ±ÅŁkÄ±r":13379,"teki":13380,"fid":13381,"queries":13382,"Ġhits":13383,"pyx":13384,"Ġweb":13385,"ossible":13386,"complexfloating":13387,"dÃ¶nd":13388,"norsk":13389,"abileceÄŁi":13390,"normpath":13391,"II":13392,"XY":13393,"Ġxm":13394,"Ä±mda":13395,"inspe":13396,"klet":13397,"Ġinclusive":13398,"Ġdists":13399,"auc":13400,"Ġnecessarily":13401,"Ġcompilation":13402,"=(\"":13403,"Ġcr":13404,"ÅŁere":13405,"taÃ§":13406,"enden":13407,"ĠCalled":13408,"Ġencoder":13409,"tracted":13410,"muha":13411,"Ġfollowed":13412,"Ġbrown":13413,"forsikr":13414,"anÄ±msa":13415,"Ġsatisfy":13416,"Ġbecomes":13417,"ĠSciPy":13418,"Ġwraps":13419,"ĠSimple":13420,"ĠFourier":13421,"komple":13422,"konge":13423,"ĠHer":13424,"liÄŁiyle":13425,"half":13426,"valuation":13427,"holding":13428,"Ġtriangular":13429,"SessionEvents":13430,"forsvar":13431,"MOD":13432,"cxx":13433,"fÄ±s":13434,"Ġjob":13435,"tiker":13436,"prefetch":13437,"REG":13438,"phen":13439,"120":13440,"ĠComputes":13441,"Ġmanylinux":13442,"TIFI":13443,"ĠWordNet":13444,"utdanning":13445,"ÏĢ":13446,"Ġplus":13447,"Ġwish":13448,"oluÅŁtur":13449,"cible":13450,"Ġatlas":13451,"gÃ¶ÄŁÃ¼":13452,"Ġarti":13453,"lotSet":13454,"kombin":13455,"Ġshortcut":13456,"tilities":13457,"Ġrestrictions":13458,"Ġsess":13459,"kafe":13460,"ekon":13461,"Ġprinting":13462,"Ġbinned":13463,"Ġimplies":13464,"ASCA":13465,"combin":13466,"django":13467,"against":13468,"ĠHandle":13469,"ĠSpecifies":13470,"ASCADE":13471,"bÃ¼rÃ¼n":13472,"ior":13473,"slÃ¸":13474,"ufor":13475,"fiser":13476,"elle":13477,"precedence":13478,"initions":13479,"vah":13480,"copyto":13481,"fallback":13482,"Marker":13483,"CUR":13484,"stable":13485,"heime":13486,"ĠThen":13487,"lerimize":13488,"ĠStanford":13489,"ĠPrepared":13490,"gÃ¼neÅŁ":13491,"structures":13492,"Ġmoments":13493,"Ġattempts":13494,"ĠMaxRetryError":13495,"gÃ¼lÃ¼mse":13496,"]\"<":13497,"kors":13498,"ons":13499,"tices":13500,"Ġreuse":13501,"ĠNumpy":13502,"Ġneighbor":13503,"Ġtimed":13504,"Ġregardless":13505,"ao":13506,"flÃ¸":13507,"Ġadap":13508,"ĠEither":13509,"durak":13510,"Ġoutfile":13511,"ĠstartTagHtml":13512,"Decimal":13513,"PROB":13514,"Ġcritical":13515,"Ġcombinations":13516,"Colgroup":13517,"Ġmimetype":13518,"'\")<":13519,"USE":13520,"dynam":13521,"Ġfcompiler":13522,"mous":13523,"Ġvan":13524,"Ġtokenize":13525,"dists":13526,"Ġquoting":13527,"secret":13528,"!)?":13529,".'":13530,"yiÅŁ":13531,"alat":13532,"Ã¸re":13533,"trm":13534,"Ġ34":13535,"lling":13536,"bron":13537,"nonym":13538,"inizde":13539,"lasso":13540,"malÄ±yÄ±z":13541,"Ġcompilers":13542,"8000":13543,"UBLE":13544,"bdist":13545,"gs":13546,"Ġsci":13547,"Ã¼mit":13548,"forma":13549,"ĠSample":13550,"mezdi":13551,"Combinator":13552,"]_.<":13553,"skomitÃ©":13554,"Ġpenalty":13555,"?\",<":13556,"lated":13557,"usi":13558,"Ġste":13559,"typecode":13560,"grams":13561,"vende":13562,"Ġconverting":13563,"kÃ¶k":13564,"ĠGeneric":13565,"Ġguide":13566,"months":13567,"ercion":13568,":]:<":13569,"VM":13570,"Ġ!":13571,"reÅŁ":13572,"Ġlsq":13573,"ligheter":13574,"Composite":13575,"ligheten":13576,"lighetene":13577,"ĠInvalidHeader":13578,"dÃ¸ds":13579,"]+)|":13580,"ĠDetermines":13581,"AIN":13582,"laz":13583,"assume":13584,"chk":13585,"kake":13586,"kob":13587,"mÄ±ÅŁÄ±z":13588,"biliriz":13589,"plex":13590,"Ġintegrate":13591,"donat":13592,"Ġsecret":13593,"\"^":13594,"}({":13595,"Ġtries":13596,"Ġred":13597,"mamalÄ±":13598,"andÄ±k":13599,"lyst":13600,"preprocessing":13601,"tril":13602,"illing":13603,"ligheta":13604,"corpora":13605,"nskaps":13606,"oynat":13607,"Ġattached":13608,"associ":13609,"pÃ¼sk":13610,"Long":13611,"kuz":13612,"obs":13613,"hess":13614,"akke":13615,"parses":13616,"Ġselector":13617,"Ġ==<":13618,"scorer":13619,"ITY":13620,"creasing":13621,"Ġestablish":13622,"bid":13623,"mx":13624,"|!=":13625,"Ïĥ":13626,"ĠBird":13627,"koÃ§":13628,"generative":13629,"Ġ\".\"":13630,"Ġdecorators":13631,"Ġ2018":13632,"pu":13633,"Ġopp":13634,"maÃ§":13635,"leÅŁmiÅŁ":13636,"UND":13637,"disjon":13638,"abileceÄŁini":13639,"kadÄ±n":13640,"informasjon":13641,"ĠNeed":13642,"Tur":13643,"TAG":13644,"bang":13645,"heri":13646,"udur":13647,"etkin":13648,"ilig":13649,"lanabil":13650,"hann":13651,"Ã§evi":13652,"whl":13653,"Ġreflected":13654,"spille":13655,"Ġherme":13656,"coordinate":13657,"Ġtck":13658,"Ġeod":13659,"ĠNE":13660,"yebil":13661,"ĠBernoulli":13662,"ĠWerkzeug":13663,"soruÅŁtur":13664,"birey":13665,"Ġverb":13666,"summary":13667,"madÄ±ÄŁÄ±na":13668,"Dat":13669,"nere":13670,"meg":13671,"Ġdd":13672,"administr":13673,"Ġpolyint":13674,"Ġtzinfo":13675,"It":13676,"PP":13677,"Errors":13678,"Ġ35":13679,"checked":13680,"pypi":13681,"Ġsents":13682,"Ġreduced":13683,":.":13684,"Ignore":13685,"LAT":13686,"oked":13687,"rmatvec":13688,"reload":13689,"atar":13690,"laget":13691,"andre":13692,"tyv":13693,"nesting":13694,"ĠFI":13695,"skal":13696,"Ġ{}'.":13697,"choose":13698,"skew":13699,"memiÅŁtir":13700,"Ġrotations":13701,"Ġexpects":13702,"fylkes":13703,"]+(?:\\.[":13704,"fener":13705,"sne":13706,"Ġscripts":13707,"ĠeV":13708,"quick":13709,"ktene":13710,"kiye":13711,"aÅŁa":13712,"aÅŁÄ±r":13713,"mediate":13714,"ĠYields":13715,"besky":13716,"PythonVersion":13717,"Ġreceived":13718,"DTYPES":13719,"First":13720,"Wheel":13721,"pks":13722,"}:":13723,"stitu":13724,"Ġrestore":13725,"Ġ:]":13726,"forval":13727,"opro":13728,"tru":13729,"konsul":13730,"biye":13731,"salla":13732,"madÄ±ÄŁÄ±m":13733,"backends":13734,"THREAD":13735,"Almost":13736,"^^^^^^^^^^^^^^^^":13737,"Ġmerge":13738,"SPEC":13739,"ĠLa":13740,"ingsarbeid":13741,"mayÄ±nca":13742,"fÃ¸lelse":13743,"degree":13744,"Ġequations":13745,"Ã¶pÃ¼ÅŁ":13746,"Gu":13747,"ingu":13748,"ĠMar":13749,"Ġkde":13750,"Ġmock":13751,"Ġpolyder":13752,"distortion":13753,"nony":13754,"Ġcoefstr":13755,"kolo":13756,"AttributeError":13757,"gjenopp":13758,"saÄŁlam":13759,"Intercept":13760,"Ġnegate":13761,"raphs":13762,"hjerte":13763,"tutukla":13764,"vizyon":13765,"Ġstandalone":13766,"sprinsi":13767,"Ho":13768,"lz":13769,"urnal":13770,"ÅŁan":13771,"aging":13772,"Ġlabeled":13773,"toplevel":13774,"mamasÄ±na":13775,"politik":13776,"Ġinvoke":13777,"kilogram":13778,"Ġpowers":13779,"bold":13780,"ln":13781,"Ġreserved":13782,"Ã§im":13783,"forhandling":13784,"iyon":13785,"hsÄ±z":13786,"vasWidget":13787,"larÄ±mÄ±zdan":13788,"Ġpairwise":13789,"RIC":13790,"demokratik":13791,"PlatformError":13792,"kran":13793,"Ġband":13794,"utvi":13795,"Ġhi":13796,"duyar":13797,"gÃ¶n":13798,"handshake":13799,"33720":13800,"bevegelse":13801,"Ġvisited":13802,"*$\",":13803,"Certificate":13804,"pon":13805,"seier":13806,"Ġisintent":13807,"umf":13808,"Ġconcatenate":13809,"Requires":13810,"varsay":13811,"Ġ['-":13812,"multiclass":13813,"TEGER":13814,"Ġ(?:-":13815,"Ã¸velse":13816,"ĠMutableMapping":13817,"undamentalRule":13818,"Ġdecide":13819,"LM":13820,"gili":13821,"vig":13822,"cÄ±lar":13823,"yorsun":13824,"undervisning":13825,"Tr":13826,"egen":13827,"ksiyon":13828,"mult":13829,"mine":13830,"anlam":13831,"ilk":13832,"__':<":13833,"Ġdrinks":13834,"endpoint":13835,"kaste":13836,"avan":13837,"Ġappended":13838,"STATE":13839,"dayÄ±m":13840,"]*)?":13841,"batÄ±r":13842,"flowError":13843,"haykÄ±r":13844,"ngrams":13845,"nulp":13846,"NLP":13847,"ZER":13848,"bred":13849,"kub":13850,"':'":13851,"peÅŁ":13852,"Ġddof":13853,"hakim":13854,"poisson":13855,"ksin":13856,"2233720":13857,"mayacaÄŁÄ±na":13858,"NOR":13859,"ortest":13860,"stÃ¥l":13861,"pear":13862,"strpath":13863,"ĠVAL":13864,"trapezoid":13865,"ndaki":13866,"Ġsubstitution":13867,"krise":13868,"TRE":13869,"cÄ±l":13870,"Ïī":13871,"mekt":13872,"quadrature":13873,"Ġxtol":13874,"buy":13875,"syr":13876,"aÄŁaÃ§":13877,"millet":13878,"references":13879,"dolan":13880,"grov":13881,"Ġestablished":13882,"ĠControls":13883,">#----------------------------------------------------------------------------":13884,")\"\"\"<":13885,"along":13886,"temel":13887,"ĠEvaluate":13888,"ĠSY":13889,"Ġgar":13890,"pren":13891,"reek":13892,"Ã¼nÃ¼n":13893,"karbon":13894,"Ġranges":13895,"ALP":13896,"bitwise":13897,"Ġfeatureset":13898,"blocks":13899,"blockVector":13900,"ĠIPv":13901,"AlmostEqual":13902,"'(":13903,"Ma":13904,"Range":13905,"Ġsalt":13906,"lisi":13907,"limited":13908,"yeÄŁ":13909,"Initial":13910,"baÅŁlat":13911,"Ġperforming":13912,"fakir":13913,"Grid":13914,"jp":13915,"mum":13916,"world":13917,"atÃ¸r":13918,"__\"):<":13919,"adres":13920,"aci":13921,"itti":13922,"damp":13923,"Ġensures":13924,"regnskap":13925,"muon":13926,"]*)<":13927,"678":13928,"ĠPyPI":13929,"rozenSet":13930,"DIR":13931,"bÃ¸lge":13932,"vised":13933,">================":13934,"clic":13935,"Ġportion":13936,"Ġinc":13937,"soli":13938,"Ġ46":13939,"Ġcomposite":13940,"kleri":13941,"bÃ¼ro":13942,"kniv":13943,"ĠCookie":13944,"Ã§alÄ±ÅŁtÄ±r":13945,"Ã§Ã¶zÃ¼m":13946,"IFCOPY":13947,"sÄ±yr":13948,"Ġholds":13949,"coords":13950,"ota":13951,"Ġ255":13952,"==|!=":13953,"Ġneither":13954,"landÄ±k":13955,"ENCE":13956,"Ä±yorlardÄ±":13957,"ĠURLs":13958,"Ã¶lÃ§Ã¼":13959,"EXTENSION":13960,"Ġteardown":13961,"ĠClauseElement":13962,"dtemp":13963,"ggest":13964,"glob":13965,"Ġ\"~":13966,"Ä±ma":13967,"Ġcdf":13968,"toz":13969,"REP":13970,"Ġfeasible":13971,"takÄ±n":13972,"dialects":13973,"ConnectionRecord":13974,"zipfile":13975,"hizmet":13976,"Ġdeviation":13977,"ĠJOIN":13978,"emek":13979,"gas":13980,"gne":13981,"degrees":13982,"amen":13983,"ĠShape":13984,"setParse":13985,"Ġstrong":13986,"question":13987,"\"][\"":13988,"SSLError":13989,"Ã§ete":13990,"Ġcorrespond":13991,"presse":13992,"setParseAction":13993,"Empty":13994,"nment":13995,"yÄ±ÄŁ":13996,"Ġimmutable":13997,"ÅŁans":13998,"ĠDrop":13999,"durul":14000,"Ġchardet":14001,"Ġplaces":14002,"pazarla":14003,"HY":14004,"astr":14005,"nfev":14006,"Ġ'?":14007,"__))<":14008,"ĠSpecify":14009,"leniyor":14010,"Ġdebugging":14011,"skul":14012,"zev":14013,"undaki":14014,"balÄ±k":14015,"ĠProver":14016,"kjÃ¸kken":14017,"Definition":14018,"asibility":14019,"mist":14020,"pam":14021,"Ġutility":14022,"syon":14023,"Ġrobust":14024,"Ġndarrays":14025,"ITES":14026,"krÃ¸":14027,"viding":14028,"dommer":14029,"serie":14030,"centered":14031,"tver":14032,"arded":14033,"loy":14034,"loper":14035,"haps":14036,"attrgetter":14037,"atsÄ±z":14038,"ĠAlternative":14039,"LTER":14040,"Ġlikelihood":14041,"Ġherm":14042,"ĠStopIteration":14043,"ida":14044,"Ġexhausted":14045,"skomite":14046,"()``,":14047,"refresh":14048,"kÃ¼s":14049,"ĠARRAY":14050,"Ġinstrumentation":14051,">=":14052,"Ali":14053,"fÃ´":14054,"nik":14055,"inject":14056,"gelin":14057,"Ġdirected":14058,"Ġhide":14059,"Ġ%}<":14060,"miÅŁlerdir":14061,"ĠComplex":14062,"somut":14063,"koÅŁul":14064,"routines":14065,"*\"":14066,"KFold":14067,"gid":14068,"glÃ¸":14069,"gzip":14070,"gwin":14071,"tÃ¼rÃ¼":14072,"zÃ¼":14073,"lapping":14074,"concat":14075,"ises":14076,"Ġminutes":14077,"yoruz":14078,"Ġreqs":14079,"PoolError":14080,"âĢĮ":14081,"Ġfigure":14082,"='<":14083,"Backed":14084,"USER":14085,"]``.<":14086,"kst":14087,"ppar":14088,"sykkel":14089,"avdeling":14090,"Ġshown":14091,"ĠRel":14092,"mÃ¼dÃ¼r":14093,"hikaye":14094,"ĠExec":14095,"imizle":14096,"345":14097,"sÃ¸lv":14098,"OrMore":14099,"ĠTIME":14100,"Ġnomask":14101,"Ġsolely":14102,"Ġgarbage":14103,"$',":14104,"110":14105,"[\\":14106,"stors":14107,"laÄŁ":14108,"Ġthrow":14109,"(\"{":14110,"sking":14111,"appengine":14112,"Ġvander":14113,"interfaces":14114,"ditionally":14115,"ydiler":14116,"lÄ±ÄŁÄ±na":14117,"ĠNearest":14118,"Ġkept":14119,"ĠIDNAError":14120,")[-_\\.]?[":14121,"Write":14122,"`_":14123,"dya":14124,"tul":14125,"yad":14126,"inHead":14127,"oner":14128,"Ġsocks":14129,"likler":14130,"ĠRuntimeWarning":14131,"LSQP":14132,"]+!)?":14133,"ĠTreeEstimator":14134,"originalPhase":14135,"kyst":14136,"(?:[-_\\.]?":14137,"takewhile":14138,"Ġ(?:[-_\\.]?":14139,"Ä±yordum":14140,"parents":14141,"Caption":14142,"]+)|(?:[-_\\.]?":14143,"Ġ(?:-[":14144,"]+)|(?:[-_\\.]?(":14145,"Forest":14146,"biz":14147,"Ġcwd":14148,">')<":14149,"Ä±rlar":14150,"posed":14151,"compil":14152,"ĠLibrary":14153,"ĠVocab":14154,"lashes":14155,"diÄŁinin":14156,"36854":14157,"Ġmagic":14158,"Ġtrusted":14159,"Ġmicrosecond":14160,"MaskedArray":14161,"Ni":14162,"]\",":14163,"rady":14164,"Ġga":14165,"labile":14166,"ĠObject":14167,"LED":14168,"executemany":14169,"spel":14170,"ĠDeprecated":14171,"yazar":14172,"Ġlimits":14173,"propag":14174,"ĠAdditional":14175,"InstallRequirement":14176,"ĠADJ":14177,"LinearOperator":14178,"Ã¸konom":14179,"=('":14180,"ifft":14181,"hek":14182,"Ġcaching":14183,"sistem":14184,"Ġtools":14185,"haÅŁ":14186,"libException":14187,"))?":14188,"kardeÅŁ":14189,"arrange":14190,"krets":14191,"Ġstatistics":14192,"Ġparens":14193,"ImportError":14194,"iff":14195,"rie":14196,"iljÃ¸":14197,"Ġconcept":14198,"ĠEM":14199,"ĠSpecial":14200,"trict":14201,"tribs":14202,"bilim":14203,"Ġdistributed":14204,"xxx":14205,"Interface":14206,"lÃ¸sning":14207,"executables":14208,"ys":14209,"Ġinp":14210,"odak":14211,"Rece":14212,"listens":14213,"varm":14214,"osman":14215,"dÃ¼ÄŁÃ¼":14216,"mÃ¼ze":14217,"ceÄŁim":14218,"ĠCoreFoundation":14219,"223372036854":14220,")._":14221,"/%":14222,"NLTK":14223,"atlan":14224,"Ġnk":14225,"pekiÅŁ":14226,"kare":14227,"screen":14228,"trafik":14229,"ĠInsert":14230,"Ġorders":14231,"Ġshrinkage":14232,"initialized":14233,"irical":14234,"iliÅŁkilen":14235,"[~":14236,"abo":14237,"circ":14238,"skjen":14239,"Ġbook":14240,"dayken":14241,"kÃ¼lt":14242,"basdb":14243,"biter":14244,"blÃ¸":14245,"dÄ±ÄŁÄ±":14246,"dÄ±ÅŁla":14247,"Ġtweets":14248,"edloper":14249,"ught":14250,"Standard":14251,"period":14252,"kropp":14253,"ANT":14254,"atak":14255,"Ġflow":14256,"Ġpca":14257,"isa":14258,"hode":14259,"hopping":14260,"iterate":14261,"Ġcorrelation":14262,"Ġposses":14263,"Ã¶ÄŁre":14264,"ksjons":14265,"999999":14266,"ptron":14267,"RelationshipProperty":14268,"narkoti":14269,"nalysis":14270,"384":14271,"Mon":14272,"[,":14273,"bÃ¸y":14274,"Ġunary":14275,"linkage":14276,"leÅŁiyor":14277,"Ġcapath":14278,"educe":14279,"cevapla":14280,"hev":14281,"Ġglue":14282,"intersect":14283,"anga":14284,"lÃ¥ne":14285,"affinity":14286,"Ġplaced":14287,"separated":14288,"currency":14289,"Math":14290,"atStruct":14291,"meh":14292,"vect":14293,"Ġmeasure":14294,"Ġcomputes":14295,"virkning":14296,"aza":14297,"sÃ¶k":14298,"390":14299,"vÃ¥r":14300,"havi":14301,"Ġchunked":14302,"readwrite":14303,"Ġpotentially":14304,"Find":14305,"Top":14306,"WORD":14307,"hon":14308,"lets":14309,"Ġcas":14310,"radd":14311,"Ġways":14312,"Ġifft":14313,"Ġ{%":14314,"((-":14315,"textrm":14316,"Ġaggregate":14317,"112":14318,"Nom":14319,"WRITE":14320,"fare":14321,"vul":14322,"resim":14323,"idna":14324,"Ġatoms":14325,"avut":14326,"ĠĠĠĠĠĠĠĠĠĠĠĠĠĠĠĠĠĠĠĠĠĠĠĠĠĠĠĠĠĠĠĠĠĠĠĠĠĠĠĠĠĠĠĠĠĠĠĠĠĠ":14327,"biri":14328,"kabel":14329,"ĠTOKEN":14330,"munic":14331,"Ġbuttons":14332,"THREADS":14333,"tend":14334,"Ġpackaging":14335,"eksport":14336,"polar":14337,"Ġtranslate":14338,"Ġunittest":14339,"Split":14340,"ĠORDER":14341,"continuous":14342,"fabrikk":14343,"doldur":14344,"fÃ¼":14345,"frak":14346,"ival":14347,"accum":14348,"ĠAV":14349,"Ġhstack":14350,"steven":14351,"Init":14352,"koble":14353,"Ġrunner":14354,"ruh":14355,"knapp":14356,"splitext":14357,"krav":14358,"Execute":14359,"seviÅŁ":14360,"Ġdynamically":14361,"Ġshell":14362,"223372036854775":14363,"Gen":14364,"rl":14365,"Îº":14366,"gede":14367,"````":14368,"ĠServer":14369,"toy":14370,"listic":14371,"ĠLim":14372,"Ġendian":14373,"ĠUnpack":14374,"ĠSection":14375,"jÃ¸re":14376,"ideal":14377,"Loop":14378,"radiobutton":14379,"zayÄ±fla":14380,"ĠVARCHAR":14381,"BER":14382,"Ġfc":14383,"Ġ'+":14384,"Ġwn":14385,"kez":14386,"ĠScalar":14387,"Ġdevelopment":14388,"bilgilen":14389,"merak":14390,"MAIN":14391,"UNT":14392,"malarÄ±ndan":14393,"kaynaÅŁ":14394,"historie":14395,"Ġcoordinate":14396,"Ġsplitting":14397,"eamUltroid":14398,"=(),":14399,"Prep":14400,"wg":14401,"Ġfar":14402,"veis":14403,"ĠTRA":14404,"Ġdirective":14405,"ĠAss":14406,"Ä±za":14407,"Ġlp":14408,"ĠReplace":14409,"Ä±sla":14410,"primitive":14411,"kulÃ¼":14412,"à¦¿":14413,"plante":14414,"family":14415,"ĠSupport":14416,"kÄ±pÄ±rda":14417,"rekke":14418,"spare":14419,"Ġsections":14420,"Ġhor":14421,"Ġhours":14422,"...\")<":14423,"ĠspaceCharacters":14424,"reraise":14425,"Fetch":14426,"FundamentalRule":14427,"euclidean":14428,"tyle":14429,"abis":14430,"irti":14431,"listboxes":14432,"Ġonto":14433,"ĠInf":14434,"emplars":14435,"Ġminute":14436,"moves":14437,"Ġreadsav":14438,"sanay":14439,"ĠYork":14440,"Ġ\".\".":14441,"Ġrefresh":14442,"finansi":14443,"madÄ±klarÄ±nÄ±":14444,"ĠBoth":14445,"endiÅŁ":14446,"maktadÄ±rlar":14447,"Ġmenu":14448,"Ġpotential":14449,"Ġreproducible":14450,"herited":14451,"]',<":14452,"Ġts":14453,"lidir":14454,"Ġ'\\\\":14455,"Ġrp":14456,"mock":14457,"likk":14458,"innen":14459,"culuÄŁ":14460,"ĠLoad":14461,"gÃ¶zle":14462,"Ã§Ã¶zÃ¼mle":14463,"ĠWordnet":14464,"Ġstripped":14465,"Ġsimplex":14466,"dut":14467,"sver":14468,"|\\":14469,"alb":14470,"Ġflexi":14471,"Ġ',<":14472,"bilmek":14473,"Ġcorpora":14474,"Ġindicated":14475,"tÃ¼m":14476,"Ġ[[[":14477,"Ġignor":14478,"sitets":14479,"InvalidELFFileHeader":14480,"Generate":14481,"ĠDocument":14482,"ĠDelta":14483,"WHITELIST":14484,"){":14485,"400":14486,"frÃ¸":14487,"olu":14488,"Ġcoeffs":14489,"Ġgzip":14490,"Ġld":14491,"opping":14492,"sums":14493,"2014":14494,"SchemeUnknown":14495,"lasticNet":14496,"dÃ¸r":14497,"flu":14498,"devir":14499,"heste":14500,"Ġ'{}":14501,"taze":14502,"Ġdetail":14503,"pomp":14504,"ekstra":14505,"jente":14506,"Ġretrie":14507,"Ġconnecting":14508,"futures":14509,"Ġfamily":14510,"jap":14511,"sch":14512,"Ġ.<":14513,"insa":14514,"medim":14515,"Ġpprint":14516,"Ġsdist":14517,"denk":14518,"likleri":14519,"layÄ±cÄ±":14520,"baÅŁÄ±":14521,"Ġlife":14522,"ĠsystemId":14523,"Ġpieces":14524,"ĠAuthors":14525,"cframe":14526,"Ġcm":14527,"tied":14528,"aksa":14529,"esk":14530,"Ġjar":14531,"checkout":14532,"assertAlmostEqual":14533,"Ġnonlinear":14534,"stÃ¸v":14535,"Ġanalysis":14536,"Voice":14537,"Ġhierarchy":14538,"ĠVerify":14539,")]:<":14540,"FutureWarning":14541,"_\"":14542,"flapack":14543,"ndtype":14544,"lame":14545,"serving":14546,"omen":14547,"beg":14548,"liberal":14549,"INE":14550,"filterwarnings":14551,"report":14552,"ConnectionPool":14553,"doÄŁr":14554,"Ġescaped":14555,"Ġaccessor":14556,"ĠResponseError":14557,"Ã¶ykÃ¼":14558,"tjeneste":14559,"Ġoset":14560,"versity":14561,"ĠTEST":14562,"gide":14563,"kura":14564,"rotvecs":14565,"BLACKLIST":14566,"stevenbird":14567,"UPDATE":14568,"fks":14569,"gger":14570,"jn":14571,"rein":14572,"Ġctype":14573,"Ã§Ä±ÄŁ":14574,"boks":14575,"years":14576,"malara":14577,"Ġfilepath":14578,"tanÄ±t":14579,"timiz":14580,"LOG":14581,"direction":14582,"destek":14583,"tekrar":14584,"Ġapplicable":14585,".\".":14586,"aldÄ±r":14587,"asanyarray":14588,"isclose":14589,"lerce":14590,"deri":14591,"iyordu":14592,"Ä±sÄ±t":14593,"smr":14594,"Ġdistinct":14595,"toplum":14596,"vaske":14597,"kÄ±rp":14598,"vatn":14599,"BackedCorpusView":14600,"WI":14601,"hin":14602,"Ä±rken":14603,"Ġlocate":14604,">#:":14605,"koordin":14606,"miÅŁsiniz":14607,"transformed":14608,"Ġpermitted":14609,"Ġextended":14610,"Ġassociation":14611,"Executable":14612,"ĠInstallRequirement":14613,"ĠVALUES":14614,"fget":14615,"tju":14616,"dish":14617,"ĠNPY":14618,"sprÃ¸y":14619,"endrogram":14620,"ĠFit":14621,"ayes":14622,"ĠVP":14623,"allet":14624,"ĠProduction":14625,"fulltext":14626,"silke":14627,"Ġfailures":14628,"ĠCandidate":14629,"lÃ¸ysing":14630,"plik":14631,"alen":14632,"tev":14633,"rakt":14634,"Ġpopt":14635,"Ġetag":14636,"Ġelapsed":14637,"kaper":14638,"matrices":14639,"doktor":14640,"ginary":14641,"dÃ¶ÅŁe":14642,"Ġabort":14643,"mamasÄ±nÄ±n":14644,"Ġoccurrences":14645,"alphas":14646,"And":14647,"Alt":14648,"]/":14649,"mime":14650,"scope":14651,"Ġwanted":14652,"typecodes":14653,"Ġgetting":14654,"reatest":14655,"ROUP":14656,"DecodeError":14657,"taÅŁÄ±n":14658,"Ã¼lke":14659,"darwin":14660,"annotations":14661,"MapperProperty":14662,"doyur":14663,"readingBackend":14664,"Zero":14665,"asjer":14666,"teh":14667,"NAMES":14668,"nokt":14669,"ustur":14670,"iyileÅŁ":14671,"corner":14672,"finalized":14673,"ĠNaNs":14674,"Ġconvenience":14675,
[...]
